{
  "version": "1.0",
  "truncation": null,
  "padding": null,
  "added_tokens": [
    {
      "id": 0,
      "content": "<|pad|>",
      "single_word": false,
      "lstrip": false,
      "rstrip": false,
      "normalized": false,
      "special": true
    },
    {
      "id": 1,
      "content": "<|unk|>",
      "single_word": false,
      "lstrip": false,
      "rstrip": false,
      "normalized": false,
      "special": true
    },
    {
      "id": 2,
      "content": "<|bos|>",
      "single_word": false,
      "lstrip": false,
      "rstrip": false,
      "normalized": false,
      "special": true
    },
    {
      "id": 3,
      "content": "<|eos|>",
      "single_word": false,
      "lstrip": false,
      "rstrip": false,
      "normalized": false,
      "special": true
    },
    {
      "id": 4,
      "content": "<|indent|>",
      "single_word": false,
      "lstrip": false,
      "rstrip": false,
      "normalized": false,
      "special": true
    }
  ],
  "normalizer": null,
  "pre_tokenizer": {
    "type": "ByteLevel",
    "add_prefix_space": false,
    "trim_offsets": true,
    "use_regex": true
  },
  "post_processor": {
    "type": "ByteLevel",
    "add_prefix_space": true,
    "trim_offsets": false,
    "use_regex": true
  },
  "decoder": {
    "type": "ByteLevel",
    "add_prefix_space": true,
    "trim_offsets": true,
    "use_regex": true
  },
  "model": {
    "type": "BPE",
    "dropout": null,
    "unk_token": "<|unk|>",
    "continuing_subword_prefix": null,
    "end_of_word_suffix": null,
    "fuse_unk": false,
    "byte_fallback": false,
    "ignore_merges": false,
    "vocab": {
      "<|pad|>": 0,
      "<|unk|>": 1,
      "<|bos|>": 2,
      "<|eos|>": 3,
      "<|indent|>": 4,
      "!": 5,
      "\"": 6,
      "#": 7,
      "$": 8,
      "%": 9,
      "&": 10,
      "'": 11,
      "(": 12,
      ")": 13,
      "*": 14,
      "+": 15,
      ",": 16,
      "-": 17,
      ".": 18,
      "/": 19,
      "0": 20,
      "1": 21,
      "2": 22,
      "3": 23,
      "4": 24,
      "5": 25,
      "6": 26,
      "7": 27,
      "8": 28,
      "9": 29,
      ":": 30,
      ";": 31,
      "<": 32,
      "=": 33,
      ">": 34,
      "?": 35,
      "@": 36,
      "A": 37,
      "B": 38,
      "C": 39,
      "D": 40,
      "E": 41,
      "F": 42,
      "G": 43,
      "H": 44,
      "I": 45,
      "J": 46,
      "K": 47,
      "L": 48,
      "M": 49,
      "N": 50,
      "O": 51,
      "P": 52,
      "Q": 53,
      "R": 54,
      "S": 55,
      "T": 56,
      "U": 57,
      "V": 58,
      "W": 59,
      "X": 60,
      "Y": 61,
      "Z": 62,
      "[": 63,
      "\\": 64,
      "]": 65,
      "^": 66,
      "_": 67,
      "`": 68,
      "a": 69,
      "b": 70,
      "c": 71,
      "d": 72,
      "e": 73,
      "f": 74,
      "g": 75,
      "h": 76,
      "i": 77,
      "j": 78,
      "k": 79,
      "l": 80,
      "m": 81,
      "n": 82,
      "o": 83,
      "p": 84,
      "q": 85,
      "r": 86,
      "s": 87,
      "t": 88,
      "u": 89,
      "v": 90,
      "w": 91,
      "x": 92,
      "y": 93,
      "z": 94,
      "{": 95,
      "|": 96,
      "}": 97,
      "~": 98,
      "¡": 99,
      "¢": 100,
      "£": 101,
      "¤": 102,
      "¥": 103,
      "¦": 104,
      "§": 105,
      "¨": 106,
      "©": 107,
      "ª": 108,
      "«": 109,
      "¬": 110,
      "®": 111,
      "¯": 112,
      "°": 113,
      "±": 114,
      "²": 115,
      "³": 116,
      "´": 117,
      "µ": 118,
      "¶": 119,
      "·": 120,
      "¸": 121,
      "¹": 122,
      "º": 123,
      "»": 124,
      "¼": 125,
      "½": 126,
      "¾": 127,
      "¿": 128,
      "Â": 129,
      "Ã": 130,
      "Ä": 131,
      "Å": 132,
      "Æ": 133,
      "Ç": 134,
      "Ð": 135,
      "Ñ": 136,
      "Ó": 137,
      "à": 138,
      "á": 139,
      "â": 140,
      "ã": 141,
      "ä": 142,
      "å": 143,
      "æ": 144,
      "ç": 145,
      "è": 146,
      "é": 147,
      "ê": 148,
      "ë": 149,
      "ì": 150,
      "í": 151,
      "ï": 152,
      "ð": 153,
      "Ą": 154,
      "Ċ": 155,
      "ě": 156,
      "Ġ": 157,
      "Ģ": 158,
      "ģ": 159,
      "Ĥ": 160,
      "ĥ": 161,
      "Ħ": 162,
      "ħ": 163,
      "Ĩ": 164,
      "ĩ": 165,
      "Ī": 166,
      "ī": 167,
      "Ĭ": 168,
      "ĭ": 169,
      "Į": 170,
      "į": 171,
      "İ": 172,
      "ı": 173,
      "Ĳ": 174,
      "ĳ": 175,
      "Ĵ": 176,
      "ĵ": 177,
      "Ķ": 178,
      "ķ": 179,
      "ĸ": 180,
      "Ĺ": 181,
      "ĺ": 182,
      "Ļ": 183,
      "ļ": 184,
      "Ľ": 185,
      "ľ": 186,
      "Ŀ": 187,
      "ŀ": 188,
      "Ł": 189,
      "ł": 190,
      "Ń": 191,
      "ĠĠ": 192,
      "ĠĠĠĠ": 193,
      "ĠĠĠ": 194,
      "ĠĠĠĠĠĠĠĠ": 195,
      "ĠĠĠĠĠĠĠ": 196,
      "in": 197,
      "se": 198,
      "re": 199,
      "on": 200,
      "at": 201,
      "Ġt": 202,
      "st": 203,
      "er": 204,
      "or": 205,
      "Ġa": 206,
      "en": 207,
      "ĠĠĠĠĠĠĠĠĠĠĠ": 208,
      "Ġ=": 209,
      "he": 210,
      "Ġi": 211,
      "de": 212,
      "ar": 213,
      "le": 214,
      "Ġf": 215,
      "al": 216,
      "me": 217,
      "Ġc": 218,
      "\"\"": 219,
      "ion": 220,
      "Ġre": 221,
      "ur": 222,
      "Ġthe": 223,
      "Ġn": 224,
      "sel": 225,
      "Ġin": 226,
      "self": 227,
      "Ġp": 228,
      "an": 229,
      "it": 230,
      "ce": 231,
      "Ġo": 232,
      "ct": 233,
      "Ġs": 234,
      "ing": 235,
      "Ġ'": 236,
      "Ġe": 237,
      "ame": 238,
      "ro": 239,
      "ge": 240,
      "ut": 241,
      "Ġd": 242,
      "ue": 243,
      "lo": 244,
      "ĠĠĠĠĠĠĠĠĠĠĠĠĠĠĠĠ": 245,
      "Ġb": 246,
      "Ġif": 247,
      "pe": 248,
      "ent": 249,
      "--": 250,
      "):": 251,
      "Ġself": 252,
      "Ġw": 253,
      "urn": 254,
      "\"\"\"": 255,
      "turn": 256,
      "Ġm": 257,
      "ate": 258,
      "ĠĠĠĠĠĠĠĠĠĠĠĠĠĠĠ": 259,
      "ot": 260,
      "li": 261,
      "fi": 262,
      "un": 263,
      "ss": 264,
      "Ġto": 265,
      "Ġ\"\"\"": 266,
      "am": 267,
      "str": 268,
      "Ġfor": 269,
      "Ġ#": 270,
      "Ġ:": 271,
      "def": 272,
      "ra": 273,
      "one": 274,
      "Ġ(": 275,
      "Ġis": 276,
      "Ġv": 277,
      "Ġof": 278,
      "ed": 279,
      "Ġan": 280,
      "Ġreturn": 281,
      "um": 282,
      "ad": 283,
      "id": 284,
      "co": 285,
      "ul": 286,
      "pt": 287,
      "ype": 288,
      "ter": 289,
      "ata": 290,
      "la": 291,
      "ch": 292,
      "es": 293,
      "None": 294,
      "alue": 295,
      "ĠT": 296,
      "il": 297,
      "()": 298,
      "is": 299,
      "up": 300,
      "ation": 301,
      "',": 302,
      "ri": 303,
      "Ġse": 304,
      "ck": 305,
      "get": 306,
      "par": 307,
      "di": 308,
      "name": 309,
      "Ġco": 310,
      "el": 311,
      "Ġ\"": 312,
      "Ġnot": 313,
      "ma": 314,
      "Ġand": 315,
      "ex": 316,
      "Ġcon": 317,
      "Ġth": 318,
      "._": 319,
      "th": 320,
      "mp": 321,
      "ke": 322,
      "))": 323,
      "Ġl": 324,
      "('": 325,
      "Ġex": 326,
      "ult": 327,
      "ction": 328,
      "ode": 329,
      "ta": 330,
      "ĠĠĠĠĠĠĠĠĠĠĠĠĠĠĠĠĠĠĠ": 331,
      "ath": 332,
      "Ġh": 333,
      "Ġfi": 334,
      "----": 335,
      "Ġbe": 336,
      "ĠA": 337,
      "ror": 338,
      "ble": 339,
      "ol": 340,
      "ve": 341,
      "gs": 342,
      "ver": 343,
      "con": 344,
      "ĠI": 345,
      "string": 346,
      "':": 347,
      "type": 348,
      "ser": 349,
      "Ġ+": 350,
      "Re": 351,
      "Ġor": 352,
      "as": 353,
      "Ġ1": 354,
      "Ġg": 355,
      "list": 356,
      "bj": 357,
      ">>": 358,
      "ime": 359,
      "ption": 360,
      "ith": 361,
      "Ġ[": 362,
      "ap": 363,
      "qu": 364,
      "Ġst": 365,
      "param": 366,
      "ect": 367,
      "end": 368,
      "et": 369,
      "ĠNone": 370,
      "key": 371,
      "mat": 372,
      "ĠS": 373,
      "')": 374,
      "and": 375,
      "int": 376,
      "']": 377,
      "Ġu": 378,
      "for": 379,
      "ance": 380,
      "Ġlo": 381,
      "Ġde": 382,
      "Ġvalue": 383,
      "ment": 384,
      "sp": 385,
      "ĠC": 386,
      "te": 387,
      "Ġdi": 388,
      "**": 389,
      "to": 390,
      "Ġdata": 391,
      "['": 392,
      "Ġ-": 393,
      "rom": 394,
      "ise": 395,
      "Ġ{": 396,
      "ext": 397,
      "Ġ0": 398,
      "vi": 399,
      "od": 400,
      "ig": 401,
      "Ġr": 402,
      "ly": 403,
      "ub": 404,
      "Ġel": 405,
      "ort": 406,
      "Ġpar": 407,
      "Er": 408,
      "ist": 409,
      "Ġelse": 410,
      "nt": 411,
      "iz": 412,
      "Error": 413,
      "stance": 414,
      "ĠF": 415,
      "age": 416,
      "ip": 417,
      "Ġar": 418,
      "Ġwith": 419,
      "path": 420,
      "ers": 421,
      "Ġas": 422,
      "set": 423,
      "Ġname": 424,
      "(\"": 425,
      "ase": 426,
      "ord": 427,
      "file": 428,
      "Ġme": 429,
      "Ġ==": 430,
      "rue": 431,
      "ĠP": 432,
      "Ġal": 433,
      "put": 434,
      "Ġ%": 435,
      "ĠD": 436,
      "data": 437,
      "que": 438,
      "ine": 439,
      "raise": 440,
      "able": 441,
      "Ġfile": 442,
      "Ġ_": 443,
      "che": 444,
      "args": 445,
      "),": 446,
      "po": 447,
      "ci": 448,
      "Ġpro": 449,
      "Ġy": 450,
      "bject": 451,
      "Ġ`": 452,
      "ic": 453,
      "..": 454,
      "sh": 455,
      "Ġfrom": 456,
      "out": 457,
      "ite": 458,
      "ĠRe": 459,
      "lu": 460,
      "ĠThe": 461,
      "ew": 462,
      "dex": 463,
      "ameter": 464,
      "ow": 465,
      "eld": 466,
      "Ġres": 467,
      "ry": 468,
      "Ġlist": 469,
      "att": 470,
      "amp": 471,
      "alse": 472,
      "art": 473,
      "per": 474,
      "Ġstr": 475,
      "all": 476,
      "ack": 477,
      "ĠE": 478,
      "Ġ*": 479,
      "Ġon": 480,
      "our": 481,
      "red": 482,
      "value": 483,
      "fig": 484,
      "url": 485,
      "app": 486,
      "Ġraise": 487,
      "ize": 488,
      "Ġ>>": 489,
      "ault": 490,
      "ĠN": 491,
      "ĠĠĠĠĠĠĠĠĠĠĠĠĠĠĠĠĠĠĠĠĠĠĠ": 492,
      "Ġ>>>": 493,
      "\",": 494,
      "Ġch": 495,
      "Ġthat": 496,
      "us": 497,
      "fo": 498,
      "Ġdef": 499,
      "val": 500,
      "mm": 501,
      "format": 502,
      "quest": 503,
      "Ġwh": 504,
      "ray": 505,
      "py": 506,
      "Ġnp": 507,
      "Ġma": 508,
      "time": 509,
      "rent": 510,
      "00": 511,
      "res": 512,
      "ms": 513,
      "Ġ2": 514,
      "ĠĠĠĠĠĠĠĠĠĠĠĠĠĠĠĠĠĠĠĠĠĠĠĠĠĠĠĠĠĠĠĠ": 515,
      "date": 516,
      "Ġ|": 517,
      "ind": 518,
      "],": 519,
      "ĠĠĠĠĠ": 520,
      "iv": 521,
      "ĠM": 522,
      "roup": 523,
      "odel": 524,
      "im": 525,
      "Ġthis": 526,
      "ber": 527,
      "Ġlog": 528,
      "Ġget": 529,
      "])": 530,
      "Ġstring": 531,
      "Ġset": 532,
      "ange": 533,
      "\")": 534,
      "Ġx": 535,
      "cess": 536,
      "ample": 537,
      "ill": 538,
      "kw": 539,
      "Ġtype": 540,
      "Ġare": 541,
      "Ġlen": 542,
      "Ġkey": 543,
      "ces": 544,
      "Ġuse": 545,
      "low": 546,
      "lass": 547,
      "pro": 548,
      "Ġen": 549,
      "sc": 550,
      "ht": 551,
      "Ġout": 552,
      "Ġdo": 553,
      "Ġnum": 554,
      "ument": 555,
      "rib": 556,
      "='": 557,
      "reate": 558,
      "Ġit": 559,
      "pre": 560,
      "Ġ<": 561,
      "und": 562,
      "Ġid": 563,
      "Ġtime": 564,
      "fe": 565,
      "peci": 566,
      "ure": 567,
      "onse": 568,
      "code": 569,
      "pa": 570,
      "ust": 571,
      "kwargs": 572,
      "ĠV": 573,
      "Ġby": 574,
      "ile": 575,
      "ary": 576,
      "Ġresult": 577,
      "ity": 578,
      "Ġexce": 579,
      "mo": 580,
      "Ġpa": 581,
      "len": 582,
      "''": 583,
      "Ġcont": 584,
      "jo": 585,
      "dd": 586,
      "Ġobject": 587,
      "unt": 588,
      "append": 589,
      "ger": 590,
      "ute": 591,
      "unction": 592,
      "Ġpo": 593,
      "om": 594,
      "Ġsh": 595,
      "turns": 596,
      "ork": 597,
      "Ġro": 598,
      "read": 599,
      "ition": 600,
      "ĠIf": 601,
      ").": 602,
      "lement": 603,
      "der": 604,
      "ive": 605,
      "ĠTrue": 606,
      "ource": 607,
      "Ġnew": 608,
      "ĠU": 609,
      "sponse": 610,
      "ator": 611,
      "error": 612,
      "ameters": 613,
      "instance": 614,
      "col": 615,
      "op": 616,
      "lif": 617,
      "Ġpre": 618,
      "Ġhe": 619,
      "Ġspeci": 620,
      "act": 621,
      "log": 622,
      "dict": 623,
      "thod": 624,
      "ran": 625,
      "Ġelif": 626,
      "index": 627,
      "ca": 628,
      "ĠG": 629,
      "ule": 630,
      "'.": 631,
      "ari": 632,
      "Ġwill": 633,
      "Ġcol": 634,
      "Ġall": 635,
      "ff": 636,
      "ĠR": 637,
      "Ġtry": 638,
      "add": 639,
      "ou": 640,
      "dir": 641,
      "Ġint": 642,
      "Ġ>": 643,
      "\":": 644,
      "js": 645,
      "load": 646,
      "rint": 647,
      "Ġexcept": 648,
      "``": 649,
      "cation": 650,
      "ys": 651,
      "ĠL": 652,
      "ĠO": 653,
      "Ġ'''": 654,
      "if": 655,
      "Ġwe": 656,
      "tain": 657,
      "Ġmat": 658,
      "ssion": 659,
      "ag": 660,
      "ph": 661,
      "__": 662,
      "text": 663,
      "bu": 664,
      "ave": 665,
      "Ġ----": 666,
      "mmand": 667,
      "ren": 668,
      "ign": 669,
      "pp": 670,
      "ĠW": 671,
      "ory": 672,
      "In": 673,
      "ore": 674,
      "ded": 675,
      "Ġ**": 676,
      "gument": 677,
      "ated": 678,
      "Ġ``": 679,
      "ape": 680,
      "Ġcan": 681,
      "json": 682,
      "rect": 683,
      "ery": 684,
      "False": 685,
      "uth": 686,
      "lab": 687,
      "Ġsub": 688,
      "Ġinstance": 689,
      "ant": 690,
      "attr": 691,
      "|'": 692,
      "unc": 693,
      "'|'": 694,
      "...": 695,
      "Ġfunction": 696,
      "ken": 697,
      "Ġdefault": 698,
      "ild": 699,
      "vice": 700,
      "Ġ--": 701,
      "umn": 702,
      "ir": 703,
      "Ġrequest": 704,
      "cur": 705,
      "ssage": 706,
      "word": 707,
      "ĠReturns": 708,
      "ls": 709,
      "bo": 710,
      "Ġpath": 711,
      "Ġte": 712,
      "lit": 713,
      "Ġfield": 714,
      "Ġbo": 715,
      "ĠFalse": 716,
      "True": 717,
      "ĠĠĠĠĠĠĠĠĠĠĠĠĠĠĠĠĠĠĠĠĠĠĠĠ": 718,
      "Ġoption": 719,
      "ception": 720,
      "ifi": 721,
      "Id": 722,
      "ĠĠĠĠĠĠ": 723,
      "fa": 724,
      "Ġisinstance": 725,
      "Ex": 726,
      "ĠIn": 727,
      "Ġle": 728,
      "ĠTh": 729,
      "Ġos": 730,
      "join": 731,
      "form": 732,
      "array": 733,
      "Ġ+=": 734,
      "mage": 735,
      "ĠB": 736,
      "ener": 737,
      "attrib": 738,
      "class": 739,
      "size": 740,
      "port": 741,
      "Ġvalues": 742,
      "info": 743,
      "update": 744,
      "sion": 745,
      "lock": 746,
      "Ġnode": 747,
      "Ġun": 748,
      "min": 749,
      "qui": 750,
      "sed": 751,
      "Ġcomp": 752,
      "heck": 753,
      "].": 754,
      "cal": 755,
      "Ġimp": 756,
      "do": 757,
      "Ġadd": 758,
      "Ġval": 759,
      "vent": 760,
      "Ġdict": 761,
      "[\"": 762,
      "():": 763,
      "num": 764,
      "ron": 765,
      "start": 766,
      "rite": 767,
      "Ġat": 768,
      "Ġne": 769,
      "tt": 770,
      "Ġ{}": 771,
      "ther": 772,
      "loat": 773,
      "Ġk": 774,
      "ne": 775,
      "iven": 776,
      "Ġconfig": 777,
      "St": 778,
      "ĠThis": 779,
      "ml": 780,
      "own": 781,
      "Ġline": 782,
      "Ġprint": 783,
      "Ġfil": 784,
      "ies": 785,
      "pla": 786,
      "Ġresponse": 787,
      "ER": 788,
      "Ġmodel": 789,
      "valid": 790,
      "Name": 791,
      "clu": 792,
      "ON": 793,
      "ep": 794,
      "Ġmethod": 795,
      "node": 796,
      "ĠH": 797,
      "work": 798,
      "Ġ[]": 799,
      "ial": 800,
      "label": 801,
      "ates": 802,
      "Ġnumber": 803,
      "query": 804,
      "cond": 805,
      "ccess": 806,
      "tem": 807,
      "atus": 808,
      "Ġuser": 809,
      "arch": 810,
      "Ġspecifi": 811,
      "Ġcur": 812,
      "uld": 813,
      "config": 814,
      "Ke": 815,
      "line": 816,
      "Con": 817,
      "Ġindex": 818,
      "fix": 819,
      "ader": 820,
      "os": 821,
      "ence": 822,
      "vel": 823,
      "ress": 824,
      "****": 825,
      "base": 826,
      "ix": 827,
      "return": 828,
      "Ġurl": 829,
      "ster": 830,
      "odule": 831,
      "Ġ)": 832,
      "field": 833,
      "RE": 834,
      "cont": 835,
      "da": 836,
      "Ġhas": 837,
      "Ġstart": 838,
      "ost": 839,
      "Key": 840,
      "sert": 841,
      "Ġapp": 842,
      "nd": 843,
      "Ġ3": 844,
      "ec": 845,
      "Ġso": 846,
      "ok": 847,
      "ting": 848,
      "ree": 849,
      "Ġ/": 850,
      "ersion": 851,
      "Ġcontain": 852,
      "ard": 853,
      "Ġgiven": 854,
      "max": 855,
      "ĠValue": 856,
      "ich": 857,
      "Ġyou": 858,
      "\"]": 859,
      "Ġno": 860,
      "Ġoutput": 861,
      "sk": 862,
      "obj": 863,
      "ask": 864,
      ":`": 865,
      "uple": 866,
      "rst": 867,
      "ĠĠĠĠĠĠĠĠĠĠĠĠĠĠĠĠĠĠĠĠĠĠĠĠĠĠĠ": 868,
      "Ġmax": 869,
      "sub": 870,
      "Ġone": 871,
      ".__": 872,
      "Ġimport": 873,
      "its": 874,
      "Ġarray": 875,
      "lient": 876,
      "ines": 877,
      "back": 878,
      "em": 879,
      "Ġcreate": 880,
      "Ġrange": 881,
      "Ġ}": 882,
      "arget": 883,
      "shape": 884,
      "ould": 885,
      "tern": 886,
      "Ġmust": 887,
      "IN": 888,
      "not": 889,
      "split": 890,
      "ang": 891,
      "ab": 892,
      "group": 893,
      "scri": 894,
      "Ġwhich": 895,
      "Ġerror": 896,
      "count": 897,
      "ĠEx": 898,
      "np": 899,
      "gth": 900,
      "ual": 901,
      "[:": 902,
      "ach": 903,
      "Ġcall": 904,
      "\".": 905,
      "Ġattrib": 906,
      "rans": 907,
      "bug": 908,
      "Ġ\\": 909,
      "Ġend": 910,
      "lic": 911,
      "ound": 912,
      "feren": 913,
      "sing": 914,
      "Ġ!": 915,
      "Ġ--------": 916,
      "ll": 917,
      "==": 918,
      "ps": 919,
      "Ġla": 920,
      "model": 921,
      "Ġz": 922,
      "Ġpass": 923,
      "ĠValueError": 924,
      "ĠPar": 925,
      "Ġ...": 926,
      "Ġrun": 927,
      "Ġused": 928,
      "'s": 929,
      "ts": 930,
      "we": 931,
      "Ġbase": 932,
      "ĠDe": 933,
      "late": 934,
      "ream": 935,
      "row": 936,
      "pos": 937,
      "Ġser": 938,
      "viron": 939,
      "Ġ!=": 940,
      "ses": 941,
      "Ġinput": 942,
      "pect": 943,
      "uration": 944,
      "ote": 945,
      "Ġparameter": 946,
      ".\"\"\"": 947,
      "Ġper": 948,
      "=\"": 949,
      "yn": 950,
      "Ġ.": 951,
      "Ġsu": 952,
      "place": 953,
      "99": 954,
      "ak": 955,
      "ight": 956,
      "uct": 957,
      "so": 958,
      "iter": 959,
      "comp": 960,
      "mb": 961,
      "ĠFor": 962,
      "Ġonly": 963,
      "Type": 964,
      "([": 965,
      "gr": 966,
      "etwork": 967,
      "{}": 968,
      "Ġcurrent": 969,
      "AT": 970,
      "Ġspecified": 971,
      "##": 972,
      "tra": 973,
      "by": 974,
      "ariable": 975,
      "Ġgroup": 976,
      "Ġobj": 977,
      "Ġargument": 978,
      "Set": 979,
      "Ġtext": 980,
      "Ġelement": 981,
      "move": 982,
      "Ġvalid": 983,
      "run": 984,
      "Ġcheck": 985,
      "Ġmatch": 986,
      "Ġformat": 987,
      "ST": 988,
      "ĠCon": 989,
      "Ġfa": 990,
      "Ġli": 991,
      "ations": 992,
      "vert": 993,
      "Ġsup": 994,
      "ding": 995,
      "api": 996,
      "ename": 997,
      "ref": 998,
      "user": 999,
      "ors": 1000,
      "][": 1001,
      "func": 1002,
      "Ġcontent": 1003,
      "var": 1004,
      "Ġdate": 1005,
      "point": 1006,
      "Ġreg": 1007,
      "Ġ->": 1008,
      "Ġca": 1009,
      "Ġversion": 1010,
      "map": 1011,
      "mit": 1012,
      "Ġparam": 1013,
      "option": 1014,
      "values": 1015,
      "utes": 1016,
      "cs": 1017,
      "write": 1018,
      "Ġfloat": 1019,
      "Ġexist": 1020,
      "Ġfirst": 1021,
      "tag": 1022,
      "Ġargs": 1023,
      "Ġcolumn": 1024,
      "vironment": 1025,
      "pi": 1026,
      "with": 1027,
      "())": 1028,
      "cord": 1029,
      "Ġmessage": 1030,
      "lable": 1031,
      "10": 1032,
      "ĠParameters": 1033,
      "Ġcal": 1034,
      "lete": 1035,
      "default": 1036,
      "raw": 1037,
      "Ġcommand": 1038,
      "((": 1039,
      "pen": 1040,
      "ull": 1041,
      "Ġ@": 1042,
      "ink": 1043,
      "'t": 1044,
      "tri": 1045,
      "Ġread": 1046,
      "items": 1047,
      "orm": 1048,
      "ject": 1049,
      "lean": 1050,
      "Ġhave": 1051,
      "unk": 1052,
      "mplate": 1053,
      "ning": 1054,
      "lect": 1055,
      "debug": 1056,
      "result": 1057,
      "atch": 1058,
      "err": 1059,
      "'):": 1060,
      "request": 1061,
      "ference": 1062,
      "sent": 1063,
      "Par": 1064,
      "Ġkwargs": 1065,
      "ĠĠĠĠĠĠĠĠĠ": 1066,
      "Ġinter": 1067,
      "content": 1068,
      "lat": 1069,
      "Ġj": 1070,
      "rame": 1071,
      "quired": 1072,
      "Ġup": 1073,
      "object": 1074,
      "Ġdirect": 1075,
      "Ġquery": 1076,
      "Ġshould": 1077,
      "itle": 1078,
      "Ġac": 1079,
      "Ġeach": 1080,
      "ax": 1081,
      "ical": 1082,
      "Ġchar": 1083,
      "gin": 1084,
      "Ġmin": 1085,
      "filen": 1086,
      "01": 1087,
      "Ġfiles": 1088,
      "Ġimage": 1089,
      "Ġbool": 1090,
      "Ġoptional": 1091,
      "Se": 1092,
      "va": 1093,
      "table": 1094,
      "version": 1095,
      "face": 1096,
      "Ġrow": 1097,
      "from": 1098,
      "Ġclass": 1099,
      "raph": 1100,
      "andle": 1101,
      "filename": 1102,
      "Ġgener": 1103,
      "Ġ{'": 1104,
      "Ġany": 1105,
      "Ġass": 1106,
      "fy": 1107,
      "Ġcode": 1108,
      "Ġother": 1109,
      "ctionary": 1110,
      "Co": 1111,
      "keys": 1112,
      "Ġtable": 1113,
      "ution": 1114,
      "Ġparameters": 1115,
      "idth": 1116,
      "//": 1117,
      "bs": 1118,
      "amples": 1119,
      "Ġbu": 1120,
      "ature": 1121,
      "cket": 1122,
      "Ġtag": 1123,
      "rap": 1124,
      "tes": 1125,
      "Ġinto": 1126,
      "ib": 1127,
      "Ġover": 1128,
      "ide": 1129,
      "oth": 1130,
      "entifi": 1131,
      "Ġsc": 1132,
      "item": 1133,
      "Ġ----------": 1134,
      "ID": 1135,
      "sg": 1136,
      "Ġwhe": 1137,
      "thon": 1138,
      "ay": 1139,
      "reg": 1140,
      "Ġax": 1141,
      "Ġsource": 1142,
      "quence": 1143,
      "command": 1144,
      "chema": 1145,
      "Ġfilename": 1146,
      "old": 1147,
      "main": 1148,
      "Ġ4": 1149,
      "Ġwhen": 1150,
      "ain": 1151,
      "Ġdoes": 1152,
      "lot": 1153,
      "Ġresults": 1154,
      "sum": 1155,
      "uto": 1156,
      "scription": 1157,
      "ĠAr": 1158,
      "be": 1159,
      "ield": 1160,
      "Ġdis": 1161,
      "ĠX": 1162,
      "names": 1163,
      "no": 1164,
      "output": 1165,
      "Ġpos": 1166,
      "lob": 1167,
      "Ġinst": 1168,
      "OR": 1169,
      "andl": 1170,
      "Ġjson": 1171,
      "response": 1172,
      "Ġmore": 1173,
      "(),": 1174,
      "Ġitem": 1175,
      "nection": 1176,
      "new": 1177,
      "pert": 1178,
      "Ġtarget": 1179,
      "onent": 1180,
      "fil": 1181,
      "Ġassert": 1182,
      "Lo": 1183,
      "Ġtoken": 1184,
      "Exception": 1185,
      "PI": 1186,
      "inal": 1187,
      "amb": 1188,
      "ries": 1189,
      "formation": 1190,
      "Ġmo": 1191,
      "Ġtuple": 1192,
      "Ġent": 1193,
      "'])": 1194,
      "ĠSe": 1195,
      "12": 1196,
      "cul": 1197,
      "lection": 1198,
      "ĠĠĠĠĠĠĠĠĠĠ": 1199,
      "LE": 1200,
      "The": 1201,
      "clude": 1202,
      "Ġattribute": 1203,
      "Ġtest": 1204,
      "De": 1205,
      "led": 1206,
      "ils": 1207,
      "ast": 1208,
      "params": 1209,
      "Ġupdate": 1210,
      "lan": 1211,
      "ns": 1212,
      "pr": 1213,
      "column": 1214,
      "Ġusing": 1215,
      "Ġsize": 1216,
      "ats": 1217,
      "Ġsy": 1218,
      "DE": 1219,
      "auth": 1220,
      "Ġwork": 1221,
      "ous": 1222,
      "Ġparams": 1223,
      "Ġbut": 1224,
      "token": 1225,
      "Ġvar": 1226,
      "ging": 1227,
      "ac": 1228,
      "AR": 1229,
      "attern": 1230,
      "Ġfound": 1231,
      "su": 1232,
      "PE": 1233,
      "Ġauth": 1234,
      "ait": 1235,
      "cument": 1236,
      "let": 1237,
      "rc": 1238,
      "Num": 1239,
      "Ġver": 1240,
      "Data": 1241,
      "Ġfol": 1242,
      "---": 1243,
      "luster": 1244,
      "://": 1245,
      "fault": 1246,
      "ĠĠĠĠĠĠĠĠĠĠĠĠĠĠĠĠĠĠĠĠĠĠĠĠĠĠĠĠĠĠĠ": 1247,
      "'],": 1248,
      "Ġopen": 1249,
      "aders": 1250,
      "ched": 1251,
      "vai": 1252,
      "ML": 1253,
      "dic": 1254,
      "ension": 1255,
      "md": 1256,
      "ĠID": 1257,
      "match": 1258,
      "cor": 1259,
      "ft": 1260,
      "ght": 1261,
      "Ġtra": 1262,
      "call": 1263,
      "ong": 1264,
      "adata": 1265,
      "--------": 1266,
      "arge": 1267,
      "imum": 1268,
      "ĠSt": 1269,
      "input": 1270,
      "spa": 1271,
      "Ġpy": 1272,
      "inter": 1273,
      "Ġmodule": 1274,
      "SE": 1275,
      "pty": 1276,
      "::": 1277,
      "yle": 1278,
      "Ġact": 1279,
      "ark": 1280,
      "Ġinformation": 1281,
      "ister": 1282,
      "Ġ5": 1283,
      "Ġevent": 1284,
      "Ġthan": 1285,
      "ved": 1286,
      ")))": 1287,
      "Ġaction": 1288,
      "().": 1289,
      "********": 1290,
      "Ġvariable": 1291,
      "Ġed": 1292,
      "nect": 1293,
      "Ġcor": 1294,
      "ches": 1295,
      "ols": 1296,
      "strip": 1297,
      "Ar": 1298,
      "filter": 1299,
      "create": 1300,
      "mi": 1301,
      "root": 1302,
      "Ġthen": 1303,
      "Ġdictionary": 1304,
      "Ġblock": 1305,
      "com": 1306,
      "files": 1307,
      "Ġlogger": 1308,
      "ĠJ": 1309,
      "are": 1310,
      "List": 1311,
      "ome": 1312,
      "Ġtrans": 1313,
      "status": 1314,
      "idx": 1315,
      "Ġword": 1316,
      "Ġiter": 1317,
      "Ġcontin": 1318,
      "ME": 1319,
      "check": 1320,
      "cls": 1321,
      "Ġorder": 1322,
      "RL": 1323,
      "Ġsort": 1324,
      "queue": 1325,
      "Ġpoint": 1326,
      "Ġsame": 1327,
      "andom": 1328,
      "Ġwas": 1329,
      "entifier": 1330,
      "block": 1331,
      "find": 1332,
      "module": 1333,
      "Ġflu": 1334,
      "conds": 1335,
      "Ġwhile": 1336,
      "[-": 1337,
      "ustom": 1338,
      "igh": 1339,
      "Ġ['": 1340,
      "Ġ-------": 1341,
      "Ġta": 1342,
      "mask": 1343,
      "rix": 1344,
      "imp": 1345,
      "ater": 1346,
      "ict": 1347,
      "ambda": 1348,
      "cy": 1349,
      "ments": 1350,
      "pack": 1351,
      "level": 1352,
      "AN": 1353,
      "fore": 1354,
      "]:": 1355,
      "otif": 1356,
      "Ġlast": 1357,
      "header": 1358,
      "lib": 1359,
      "Ġprovi": 1360,
      "ld": 1361,
      "zon": 1362,
      "cent": 1363,
      "resh": 1364,
      "tadata": 1365,
      "Ġarguments": 1366,
      "Ġcount": 1367,
      "Ġnames": 1368,
      "AL": 1369,
      "Group": 1370,
      "Ġcom": 1371,
      "Ġpart": 1372,
      "xes": 1373,
      "ible": 1374,
      "Ġlabel": 1375,
      "swith": 1376,
      "lication": 1377,
      "qual": 1378,
      "Ġret": 1379,
      "indow": 1380,
      "ody": 1381,
      "Value": 1382,
      "mote": 1383,
      "use": 1384,
      "Ġback": 1385,
      "Ġreturns": 1386,
      "io": 1387,
      "msg": 1388,
      "Ġfilter": 1389,
      "otal": 1390,
      "tings": 1391,
      "cre": 1392,
      "Ġary": 1393,
      "Pro": 1394,
      "Ġmsg": 1395,
      "Ġdirectory": 1396,
      "andler": 1397,
      "host": 1398,
      "iled": 1399,
      "ormal": 1400,
      "Ġsp": 1401,
      "Ġnumpy": 1402,
      "Ġstate": 1403,
      "Ġsearch": 1404,
      "parse": 1405,
      "IT": 1406,
      "ring": 1407,
      "ume": 1408,
      "sy": 1409,
      "number": 1410,
      "ĠDefault": 1411,
      "ixel": 1412,
      "Ġinte": 1413,
      "message": 1414,
      "DO": 1415,
      "mazon": 1416,
      "Ġexample": 1417,
      "icode": 1418,
      "Ġtask": 1419,
      "Ġlines": 1420,
      "gn": 1421,
      "ating": 1422,
      "Ġparent": 1423,
      "Ġroot": 1424,
      "stem": 1425,
      "itial": 1426,
      "ttrib": 1427,
      "space": 1428,
      "nel": 1429,
      "xt": 1430,
      "Ġstatus": 1431,
      "parent": 1432,
      "dis": 1433,
      "Ġspecify": 1434,
      "Ch": 1435,
      "lose": 1436,
      "ĠCo": 1437,
      "Time": 1438,
      "process": 1439,
      "ĠY": 1440,
      "Ġcontinue": 1441,
      ")]": 1442,
      "fields": 1443,
      "File": 1444,
      "element": 1445,
      "Ġì": 1446,
      ")):": 1447,
      "}'.": 1448,
      "Ġheader": 1449,
      "Ġserver": 1450,
      "mail": 1451,
      "Ġcharact": 1452,
      "Ġfollow": 1453,
      "Ġyield": 1454,
      "df": 1455,
      "olean": 1456,
      "image": 1457,
      "reak": 1458,
      "Ġcase": 1459,
      "ility": 1460,
      "Ġfields": 1461,
      "Ġ'.": 1462,
      "quip": 1463,
      "Ġlength": 1464,
      "ized": 1465,
      "cache": 1466,
      "lease": 1467,
      "float": 1468,
      "replace": 1469,
      "55": 1470,
      "Ġq": 1471,
      "WS": 1472,
      "job": 1473,
      "lp": 1474,
      "ived": 1475,
      "length": 1476,
      "coding": 1477,
      "`.": 1478,
      "ĠAmazon": 1479,
      "Ġref": 1480,
      "action": 1481,
      "Ġcache": 1482,
      "lines": 1483,
      "Ġcls": 1484,
      "Ġ('": 1485,
      "To": 1486,
      "ass": 1487,
      "ids": 1488,
      "Ġfind": 1489,
      "Ġfe": 1490,
      "Res": 1491,
      "rtype": 1492,
      "Ġcomm": 1493,
      "Ġoptions": 1494,
      "est": 1495,
      "flow": 1496,
      "Ġallow": 1497,
      "Ġsign": 1498,
      "ped": 1499,
      "Ġoper": 1500,
      "source": 1501,
      "test": 1502,
      "itions": 1503,
      "Ġlevel": 1504,
      "stream": 1505,
      "sign": 1506,
      "fter": 1507,
      "ans": 1508,
      "range": 1509,
      "wo": 1510,
      "Ġenvironment": 1511,
      "arning": 1512,
      "ined": 1513,
      "Ġreturned": 1514,
      "vailable": 1515,
      "core": 1516,
      "Ġload": 1517,
      "ownload": 1518,
      "fg": 1519,
      "ĠKey": 1520,
      "prefix": 1521,
      ".,": 1522,
      "gen": 1523,
      "},": 1524,
      "ĠĠĠĠĠĠĠĠĠĠĠĠĠĠĠĠĠ": 1525,
      "Ġneed": 1526,
      "stamp": 1527,
      "Ġsample": 1528,
      "pression": 1529,
      "ĠReturn": 1530,
      "EN": 1531,
      "direct": 1532,
      "vis": 1533,
      "last": 1534,
      "ify": 1535,
      "search": 1536,
      "event": 1537,
      "Ġsing": 1538,
      "Ġmask": 1539,
      "Ġsys": 1540,
      "Ġchild": 1541,
      "present": 1542,
      "quen": 1543,
      "html": 1544,
      "Ġmult": 1545,
      "AC": 1546,
      "yload": 1547,
      "state": 1548,
      "Ġab": 1549,
      "Ġclient": 1550,
      "Ġhy": 1551,
      ".')": 1552,
      "Ġext": 1553,
      "Ġstream": 1554,
      "types": 1555,
      "nap": 1556,
      "Ġnext": 1557,
      "lay": 1558,
      "ĠCreate": 1559,
      "las": 1560,
      "ĠType": 1561,
      "round": 1562,
      "wise": 1563,
      "Ġ'%": 1564,
      "'))": 1565,
      "Ġparser": 1566,
      "Ġ},": 1567,
      "Ġthere": 1568,
      "Ġlogging": 1569,
      "Un": 1570,
      "exception": 1571,
      "ready": 1572,
      "loc": 1573,
      "rf": 1574,
      "Ġsee": 1575,
      "Ġhtt": 1576,
      "arg": 1577,
      "Ġextra": 1578,
      "ner": 1579,
      "Ġconfiguration": 1580,
      "Ġenum": 1581,
      "of": 1582,
      "Ġdataset": 1583,
      "order": 1584,
      "client": 1585,
      "Ġobjects": 1586,
      "ĠData": 1587,
      "lobal": 1588,
      "tree": 1589,
      "Ġexception": 1590,
      "assed": 1591,
      "Ġsupport": 1592,
      "method": 1593,
      "Ġ12": 1594,
      "ĠĠĠĠĠĠĠĠĠĠĠĠĠĠ": 1595,
      "Ġsequence": 1596,
      "####": 1597,
      "angu": 1598,
      "Ġim": 1599,
      "Ġpage": 1600,
      "SS": 1601,
      "Ġmode": 1602,
      "options": 1603,
      "anguage": 1604,
      "Ġbreak": 1605,
      "htt": 1606,
      "====": 1607,
      "ĠArgs": 1608,
      "og": 1609,
      "ose": 1610,
      "comm": 1611,
      "ĠAn": 1612,
      "pected": 1613,
      "Ġexec": 1614,
      "les": 1615,
      "alid": 1616,
      "Ġmake": 1617,
      "ud": 1618,
      "Ġtitle": 1619,
      "Ġbet": 1620,
      "Ġcluster": 1621,
      "Ġad": 1622,
      "rel": 1623,
      "db": 1624,
      "width": 1625,
      "pts": 1626,
      "Ġprocess": 1627,
      "Ġsingle": 1628,
      "Ġwhere": 1629,
      "Ġtemp": 1630,
      "pass": 1631,
      "returns": 1632,
      "zer": 1633,
      "000": 1634,
      "ĠĠĠĠĠĠĠĠĠĠĠĠĠ": 1635,
      "ĠSet": 1636,
      "mpty": 1637,
      "Ġchange": 1638,
      "Ġtwo": 1639,
      "lower": 1640,
      "av": 1641,
      "ick": 1642,
      "ĠGet": 1643,
      "copy": 1644,
      "open": 1645,
      "]]": 1646,
      "Ġremove": 1647,
      "ĠĠĠĠĠĠĠĠĠĠĠĠ": 1648,
      "ranch": 1649,
      "Ġdatetime": 1650,
      "itor": 1651,
      "ĠName": 1652,
      "Ġ,": 1653,
      "Ġcontaining": 1654,
      "Ġservice": 1655,
      "oci": 1656,
      "Ġ6": 1657,
      "iss": 1658,
      "ification": 1659,
      "erate": 1660,
      "Ġmon": 1661,
      "ween": 1662,
      "(*": 1663,
      "ttribute": 1664,
      "ĠException": 1665,
      "radi": 1666,
      "ĠIP": 1667,
      "bin": 1668,
      "ear": 1669,
      "ures": 1670,
      "init": 1671,
      "Ġtemplate": 1672,
      "ET": 1673,
      "argument": 1674,
      "Ġfunc": 1675,
      "Ġsession": 1676,
      "Ġtimeout": 1677,
      "Ġdep": 1678,
      "ĠRun": 1679,
      "vid": 1680,
      "Ġrequired": 1681,
      "ĠAWS": 1682,
      "rapper": 1683,
      "aint": 1684,
      "meta": 1685,
      "Ġinclude": 1686,
      "man": 1687,
      "store": 1688,
      "right": 1689,
      "std": 1690,
      "ted": 1691,
      "Ġpack": 1692,
      "Ġdtype": 1693,
      "Ġaccess": 1694,
      "access": 1695,
      "Ġits": 1696,
      "actor": 1697,
      "rol": 1698,
      "server": 1699,
      "pop": 1700,
      "[:,": 1701,
      "shot": 1702,
      "large": 1703,
      "net": 1704,
      "Ġchunk": 1705,
      "ists": 1706,
      "Ġoff": 1707,
      "lugin": 1708,
      "Ġpassed": 1709,
      "Ġbefore": 1710,
      "ds": 1711,
      "mt": 1712,
      "Ġdocument": 1713,
      "Ġcontext": 1714,
      "TI": 1715,
      "Ġgen": 1716,
      "Ġpri": 1717,
      "ĠTO": 1718,
      "ng": 1719,
      "Return": 1720,
      "gex": 1721,
      "Get": 1722,
      "Ġdif": 1723,
      "Ġattributes": 1724,
      "TE": 1725,
      "ĠQ": 1726,
      "ĠAPI": 1727,
      "flu": 1728,
      "gh": 1729,
      "Ġdest": 1730,
      "Ġalso": 1731,
      "gram": 1732,
      "Ġbetween": 1733,
      "Ġshape": 1734,
      "Ġsome": 1735,
      "Ġfollowing": 1736,
      "ither": 1737,
      "Ġrepresent": 1738,
      "ique": 1739,
      "annel": 1740,
      ".\")": 1741,
      "ob": 1742,
      "Ġsent": 1743,
      "mission": 1744,
      "Ġprovided": 1745,
      "napshot": 1746,
      "ĠAdd": 1747,
      "DB": 1748,
      "Ġarg": 1749,
      "Ġreference": 1750,
      "tems": 1751,
      "rt": 1752,
      "Ġexp": 1753,
      "Ġ'/": 1754,
      "]))": 1755,
      "mon": 1756,
      "step": 1757,
      "Ġaddress": 1758,
      "ization": 1759,
      "Ġelements": 1760,
      "sample": 1761,
      "Ġwrite": 1762,
      "ful": 1763,
      "Ġqu": 1764,
      "the": 1765,
      "dices": 1766,
      "ĠUser": 1767,
      "Ġnodes": 1768,
      "dition": 1769,
      "has": 1770,
      "link": 1771,
      "Ġcolor": 1772,
      "rit": 1773,
      "river": 1774,
      "view": 1775,
      "Ġman": 1776,
      "struct": 1777,
      "edge": 1778,
      "ordin": 1779,
      "Ġdescription": 1780,
      "Ġkeys": 1781,
      "mary": 1782,
      "title": 1783,
      "tools": 1784,
      "color": 1785,
      "Ġedge": 1786,
      "Ġorig": 1787,
      "Ġ10": 1788,
      "Ġ>=": 1789,
      "Ġavailable": 1790,
      "ĠUn": 1791,
      "perty": 1792,
      "Ġalready": 1793,
      "ative": 1794,
      "Ġbin": 1795,
      "ell": 1796,
      "Ġfla": 1797,
      "64": 1798,
      "style": 1799,
      "loud": 1800,
      "child": 1801,
      "Ġconnection": 1802,
      "ife": 1803,
      "Ġattr": 1804,
      "Ġrecord": 1805,
      "idd": 1806,
      "Ġproject": 1807,
      "target": 1808,
      "cri": 1809,
      "pha": 1810,
      "curity": 1811,
      "32": 1812,
      "Ġparse": 1813,
      "Ġenumerate": 1814,
      "Ġconvert": 1815,
      "Ġ\"\"": 1816,
      "Ġpub": 1817,
      "ĠWe": 1818,
      "startswith": 1819,
      "ward": 1820,
      "Ġhost": 1821,
      "pth": 1822,
      "Me": 1823,
      "ĠĠĠĠĠĠĠĠĠĠĠĠĠĠĠĠĠĠĠĠĠĠĠĠĠĠĠĠĠĠĠĠĠĠĠ": 1824,
      "SON": 1825,
      "Ġhelp": 1826,
      "dpy": 1827,
      "parameters": 1828,
      "bytes": 1829,
      "handle": 1830,
      "ĠList": 1831,
      "Ġnetwork": 1832,
      "Node": 1833,
      "task": 1834,
      "bose": 1835,
      "off": 1836,
      "img": 1837,
      "\"):": 1838,
      "QU": 1839,
      "sq": 1840,
      "Ġsim": 1841,
      "Ġstruct": 1842,
      "quences": 1843,
      "Ġjob": 1844,
      "rection": 1845,
      "straint": 1846,
      "ternal": 1847,
      "like": 1848,
      "post": 1849,
      "ĠXML": 1850,
      "Ġinteger": 1851,
      "Ġpixel": 1852,
      "ĠĠĠĠĠĠĠĠĠĠĠĠĠĠĠĠĠĠĠĠ": 1853,
      "char": 1854,
      "tuple": 1855,
      "abled": 1856,
      "send": 1857,
      "Ġitems": 1858,
      "part": 1859,
      "parser": 1860,
      "gener": 1861,
      "wer": 1862,
      "Ġlocal": 1863,
      "Ġ{\"": 1864,
      "Ġafter": 1865,
      "dim": 1866,
      "bool": 1867,
      "fast": 1868,
      "encode": 1869,
      "Ġrel": 1870,
      "verse": 1871,
      "Ġpassword": 1872,
      "=[": 1873,
      "Ġsend": 1874,
      "Ġ],": 1875,
      "alys": 1876,
      "Ġ&": 1877,
      "Ġmem": 1878,
      "ĠTODO": 1879,
      "ens": 1880,
      "current": 1881,
      "Ġcopy": 1882,
      "Ġdevice": 1883,
      "Ġmatrix": 1884,
      "AM": 1885,
      "\\\\": 1886,
      "trans": 1887,
      "Ġauto": 1888,
      "Ġrandom": 1889,
      "ics": 1890,
      "})": 1891,
      "session": 1892,
      "Ġport": 1893,
      "']:": 1894,
      "service": 1895,
      "ager": 1896,
      "pri": 1897,
      "Ġlink": 1898,
      "ient": 1899,
      "difi": 1900,
      "Ġdel": 1901,
      "template": 1902,
      "Ġlimit": 1903,
      "Ġsum": 1904,
      "ĠURL": 1905,
      "curs": 1906,
      "Ġdatabase": 1907,
      "Ġheaders": 1908,
      "Ġ..": 1909,
      "Ġ<=": 1910,
      "uri": 1911,
      "aml": 1912,
      "ho": 1913,
      "ination": 1914,
      "Ġmap": 1915,
      "term": 1916,
      "9999": 1917,
      "AG": 1918,
      "top": 1919,
      "ariant": 1920,
      "SI": 1921,
      "Ġtop": 1922,
      "CO": 1923,
      "schema": 1924,
      ":]": 1925,
      "Ġsave": 1926,
      "Ġcreated": 1927,
      "du": 1928,
      "nown": 1929,
      "xy": 1930,
      "Ġgetattr": 1931,
      "frame": 1932,
      "page": 1933,
      "Ġempty": 1934,
      "Ġag": 1935,
      "Ġidx": 1936,
      "FI": 1937,
      "ptional": 1938,
      "cept": 1939,
      "Ġyour": 1940,
      "TP": 1941,
      "ities": 1942,
      "mean": 1943,
      "Ġlocation": 1944,
      "ferent": 1945,
      "Ġter": 1946,
      "'),": 1947,
      "fn": 1948,
      "now": 1949,
      "plot": 1950,
      "Ġreplace": 1951,
      "Ġhandle": 1952,
      "'].": 1953,
      "Ġxml": 1954,
      "Ġassoci": 1955,
      "Ġap": 1956,
      "ĠĠĠĠĠĠĠĠĠĠĠĠĠĠĠĠĠĠĠĠĠ": 1957,
      "ĠSee": 1958,
      "Ġpattern": 1959,
      "ays": 1960,
      "tent": 1961,
      "ĠK": 1962,
      "Ġmay": 1963,
      "resp": 1964,
      "Ġrequests": 1965,
      "Ġcalcul": 1966,
      "au": 1967,
      "Ġder": 1968,
      "chunk": 1969,
      "bit": 1970,
      "Ġerr": 1971,
      "Ġwidth": 1972,
      "Ġvi": 1973,
      "section": 1974,
      "loy": 1975,
      "address": 1976,
      "Ġsorted": 1977,
      "hen": 1978,
      "ĠĠĠĠĠĠĠĠĠĠĠĠĠĠĠĠĠĠĠĠĠĠĠĠĠĠ": 1979,
      "Ġboolean": 1980,
      "rial": 1981,
      "reads": 1982,
      "seq": 1983,
      "env": 1984,
      "tocol": 1985,
      "Ġhydpy": 1986,
      "cry": 1987,
      "fla": 1988,
      "ĠLo": 1989,
      "ffix": 1990,
      "ĠNum": 1991,
      "IP": 1992,
      "Ġform": 1993,
      "Ġmeta": 1994,
      "ĠDo": 1995,
      "Ġselect": 1996,
      "Ġlook": 1997,
      "ĠMe": 1998,
      "lt": 1999,
      "sort": 2000,
      "Config": 2001,
      "print": 2002,
      "uid": 2003,
      "Ġtotal": 2004,
      "cho": 2005,
      "Ġraw": 2006,
      "cope": 2007,
      "logger": 2008,
      "ĠĠĠĠĠĠĠĠĠĠĠĠĠĠĠĠĠĠ": 2009,
      "quire": 2010,
      "Item": 2011,
      "function": 2012,
      "utf": 2013,
      "dist": 2014,
      "perties": 2015,
      "xlarge": 2016,
      "ING": 2017,
      "Not": 2018,
      "extend": 2019,
      "ĠRes": 2020,
      "Ġcolumns": 2021,
      "An": 2022,
      "other": 2023,
      "Ġwant": 2024,
      "Ġmultip": 2025,
      "ĠNote": 2026,
      "Ġbytes": 2027,
      "Ġfit": 2028,
      "Ġprefix": 2029,
      "Comp": 2030,
      "ular": 2031,
      "itu": 2032,
      "Ġaxis": 2033,
      "Ġdifferent": 2034,
      "Ġinitial": 2035,
      "Ġstep": 2036,
      "Ġcomponent": 2037,
      "password": 2038,
      "cale": 2039,
      "arn": 2040,
      "Ġinfo": 2041,
      "optional": 2042,
      "ĠTypeError": 2043,
      "ling": 2044,
      "network": 2045,
      "Ġip": 2046,
      "ĠPy": 2047,
      "Ġcharacters": 2048,
      "LO": 2049,
      "Ġmetadata": 2050,
      "Ġ__": 2051,
      "ĠEn": 2052,
      "UT": 2053,
      "Ġ]": 2054,
      "temp": 2055,
      "Ġwhether": 2056,
      "Add": 2057,
      "ĠTo": 2058,
      "Ġdistance": 2059,
      "reshold": 2060,
      "DI": 2061,
      "UL": 2062,
      "pol": 2063,
      "pub": 2064,
      "Ġob": 2065,
      "ĠDB": 2066,
      "derr": 2067,
      "ĠĠĠĠĠĠĠĠĠĠĠĠĠĠĠĠĠĠĠĠĠĠĠĠĠĠĠĠ": 2068,
      "close": 2069,
      "olume": 2070,
      "Ġresource": 2071,
      "RO": 2072,
      "Ġtree": 2073,
      "Ġnormal": 2074,
      "Ġinvalid": 2075,
      "Ġsettings": 2076,
      "register": 2077,
      "spe": 2078,
      "Ġqueue": 2079,
      "remove": 2080,
      "Ġsection": 2081,
      "Ġidentifier": 2082,
      "gress": 2083,
      "Ġmaximum": 2084,
      "Ġactual": 2085,
      "del": 2086,
      "project": 2087,
      "org": 2088,
      "ĠĠĠĠĠĠĠĠĠĠĠĠĠĠĠĠĠĠĠĠĠĠĠĠĠ": 2089,
      "vious": 2090,
      "pare": 2091,
      "ights": 2092,
      "Ġfailed": 2093,
      "Ġschema": 2094,
      "exec": 2095,
      "ources": 2096,
      "Ġinstances": 2097,
      "Ġtrue": 2098,
      "ero": 2099,
      "connect": 2100,
      "ffi": 2101,
      "rou": 2102,
      "Element": 2103,
      "ĠYou": 2104,
      "Ġeither": 2105,
      "Ġbased": 2106,
      "my": 2107,
      "Parameter": 2108,
      "ead": 2109,
      "location": 2110,
      "entic": 2111,
      "Ġstd": 2112,
      "aded": 2113,
      "ament": 2114,
      "ES": 2115,
      "txt": 2116,
      "mem": 2117,
      "utils": 2118,
      "exp": 2119,
      "ffer": 2120,
      "Ġposition": 2121,
      "mode": 2122,
      "bers": 2123,
      "ponse": 2124,
      "vo": 2125,
      "={": 2126,
      "Ġseconds": 2127,
      "Ġ>,": 2128,
      "zeros": 2129,
      "Path": 2130,
      "na": 2131,
      "med": 2132,
      "local": 2133,
      "context": 2134,
      "Ġstop": 2135,
      "Ġtags": 2136,
      "lambda": 2137,
      "lied": 2138,
      "sim": 2139,
      "valu": 2140,
      "cos": 2141,
      "labels": 2142,
      "headers": 2143,
      "script": 2144,
      "bar": 2145,
      "land": 2146,
      "Ġcustom": 2147,
      "Ġnon": 2148,
      "datetime": 2149,
      "vision": 2150,
      "UN": 2151,
      "case": 2152,
      "req": 2153,
      "change": 2154,
      "ice": 2155,
      "series": 2156,
      "pattern": 2157,
      "ĠInvalid": 2158,
      "gre": 2159,
      "delete": 2160,
      "Ġmotif": 2161,
      "Ġbeen": 2162,
      "Ġgraph": 2163,
      "etch": 2164,
      "ync": 2165,
      "http": 2166,
      "xml": 2167,
      "Ġ''": 2168,
      "iste": 2169,
      "ĠPro": 2170,
      "Ġentry": 2171,
      "755": 2172,
      "Life": 2173,
      "exists": 2174,
      "RED": 2175,
      "Ġexisting": 2176,
      "ynam": 2177,
      "Ġexists": 2178,
      "build": 2179,
      "02": 2180,
      "ĠNetwork": 2181,
      "Ġ8": 2182,
      "Ġendpoint": 2183,
      "Ġregion": 2184,
      "Ġframe": 2185,
      "Ġexpression": 2186,
      "words": 2187,
      "REQU": 2188,
      ")[": 2189,
      "ĠCheck": 2190,
      "Ġtypes": 2191,
      "Ġthem": 2192,
      "Ġspa": 2193,
      "`,": 2194,
      "contain": 2195,
      "En": 2196,
      "zip": 2197,
      "very": 2198,
      "eLife": 2199,
      "lex": 2200,
      "pecifi": 2201,
      "columns": 2202,
      "7554": 2203,
      "decode": 2204,
      "ĠAttribute": 2205,
      "vals": 2206,
      "full": 2207,
      "atures": 2208,
      "nder": 2209,
      "').": 2210,
      "Ġdefined": 2211,
      "Ġhttp": 2212,
      "wait": 2213,
      "({": 2214,
      "orage": 2215,
      "Ġoc": 2216,
      "Ġsk": 2217,
      "quipament": 2218,
      "graph": 2219,
      "Ġ',": 2220,
      "play": 2221,
      "****************": 2222,
      "ordinates": 2223,
      "Ġph": 2224,
      "Ġinterface": 2225,
      "gc": 2226,
      "save": 2227,
      "Ġfull": 2228,
      "ĠNot": 2229,
      "Ġfinal": 2230,
      "Ġcons": 2231,
      "Ġgenerate": 2232,
      "ift": 2233,
      "Base": 2234,
      "11": 2235,
      "dl": 2236,
      "pc": 2237,
      "medi": 2238,
      "Ġbody": 2239,
      "Ġcondition": 2240,
      "Ġpair": 2241,
      "Ġpoints": 2242,
      "imple": 2243,
      "For": 2244,
      "cer": 2245,
      "Ġerrors": 2246,
      "apping": 2247,
      "Ġstrings": 2248,
      "vices": 2249,
      "dtype": 2250,
      "ector": 2251,
      "Ġpackage": 2252,
      "Ġold": 2253,
      "Ġdesc": 2254,
      "Ġoffset": 2255,
      "ian": 2256,
      "Ġabout": 2257,
      "issing": 2258,
      "Th": 2259,
      "description": 2260,
      "ically": 2261,
      "ĠJSON": 2262,
      "Ġimg": 2263,
      "device": 2264,
      "Ġencoding": 2265,
      "ĠRuntime": 2266,
      "Up": 2267,
      "MA": 2268,
      "Ġsecond": 2269,
      "ĠHT": 2270,
      "Ġbuild": 2271,
      "lasses": 2272,
      "Ġsuccess": 2273,
      "Ġotherwise": 2274,
      "Po": 2275,
      "cip": 2276,
      "sup": 2277,
      "ww": 2278,
      "olver": 2279,
      "Request": 2280,
      "Ġcontains": 2281,
      "ceived": 2282,
      ")),": 2283,
      "IC": 2284,
      "IRED": 2285,
      "Ġpla": 2286,
      "ily": 2287,
      "models": 2288,
      "Create": 2289,
      "ĠĠĠĠĠĠĠĠĠĠĠĠĠĠĠĠĠĠĠĠĠĠ": 2290,
      "first": 2291,
      "ĠFile": 2292,
      "Ġvariables": 2293,
      "REQUIRED": 2294,
      "PO": 2295,
      "cat": 2296,
      "dum": 2297,
      "istr": 2298,
      "cle": 2299,
      "iod": 2300,
      "Ġmean": 2301,
      "rough": 2302,
      "Ġpayload": 2303,
      ".\"": 2304,
      "Ġtri": 2305,
      "metadata": 2306,
      "Ġthey": 2307,
      "only": 2308,
      "nan": 2309,
      "Ġresp": 2310,
      "ateg": 2311,
      "timeout": 2312,
      "ĠUse": 2313,
      "ground": 2314,
      "Ġhasattr": 2315,
      "axis": 2316,
      "next": 2317,
      "Ġremote": 2318,
      "Ġlike": 2319,
      "results": 2320,
      "variable": 2321,
      "ie": 2322,
      "Ġplot": 2323,
      "``,": 2324,
      "ighb": 2325,
      "(-": 2326,
      "Ġ'-": 2327,
      "stats": 2328,
      "rid": 2329,
      "unter": 2330,
      "Out": 2331,
      "here": 2332,
      "tach": 2333,
      "Ġdim": 2334,
      "Ġzero": 2335,
      "IO": 2336,
      "Ġspe": 2337,
      "ĠIt": 2338,
      "``.": 2339,
      "25": 2340,
      "older": 2341,
      "andard": 2342,
      "Ġfeature": 2343,
      "ĠKeyError": 2344,
      "(_": 2345,
      "/%": 2346,
      "04": 2347,
      "Check": 2348,
      "mod": 2349,
      "entity": 2350,
      "Ġcallback": 2351,
      "itude": 2352,
      "cp": 2353,
      "cmd": 2354,
      "Ġjust": 2355,
      "CON": 2356,
      "Ġdf": 2357,
      "Ġwait": 2358,
      "ĠSer": 2359,
      "Ġwithin": 2360,
      "Ġzip": 2361,
      "ply": 2362,
      "RI": 2363,
      "lice": 2364,
      "Ġrule": 2365,
      "AD": 2366,
      "Ġequal": 2367,
      "tails": 2368,
      "Ġdelete": 2369,
      "Ġinstead": 2370,
      "ely": 2371,
      "bab": 2372,
      "}\".": 2373,
      "Ġind": 2374,
      "ilter": 2375,
      "respon": 2376,
      "ĠValid": 2377,
      "16": 2378,
      "Object": 2379,
      "hed": 2380,
      "conf": 2381,
      "Ġchain": 2382,
      "Ġids": 2383,
      "licy": 2384,
      "exc": 2385,
      "ential": 2386,
      "ssible": 2387,
      "ending": 2388,
      "No": 2389,
      "Ġang": 2390,
      "Ġcollection": 2391,
      "Ġcannot": 2392,
      "ince": 2393,
      "nodes": 2394,
      "Ġsuper": 2395,
      "trie": 2396,
      "Ġ'_": 2397,
      "UB": 2398,
      "upper": 2399,
      "Ġsepar": 2400,
      "ĠString": 2401,
      "URL": 2402,
      "quipamento": 2403,
      "rm": 2404,
      "ĠĠĠĠĠĠĠĠĠĠĠĠĠĠĠĠĠĠĠĠĠĠĠĠĠĠĠĠĠĠĠĠĠĠĠĠĠĠ": 2405,
      "Ġsignal": 2406,
      "EL": 2407,
      "Ġconnect": 2408,
      "serv": 2409,
      "rows": 2410,
      "Ġsupported": 2411,
      "itive": 2412,
      "Ġdownload": 2413,
      "Ġund": 2414,
      "active": 2415,
      "Instance": 2416,
      "ories": 2417,
      "escri": 2418,
      "Ġlay": 2419,
      "objects": 2420,
      "EC": 2421,
      "Ġdon": 2422,
      "offset": 2423,
      "Dict": 2424,
      "Sh": 2425,
      "samples": 2426,
      "ä¸": 2427,
      "Ġpost": 2428,
      "omial": 2429,
      "ĠRuntimeError": 2430,
      "driver": 2431,
      "NA": 2432,
      "loop": 2433,
      "Ġstat": 2434,
      "unicode": 2435,
      "Ġ100": 2436,
      "Ġspecific": 2437,
      "Zone": 2438,
      "dt": 2439,
      "Ġpol": 2440,
      "Ġ123": 2441,
      "Ġmultiple": 2442,
      "Version": 2443,
      "33": 2444,
      "]['": 2445,
      "Ġwindow": 2446,
      "Ġhandler": 2447,
      "Ġsystem": 2448,
      "body": 2449,
      "oc": 2450,
      "Ġcmd": 2451,
      "Ġsa": 2452,
      "Ġprevious": 2453,
      "cli": 2454,
      "Ġforce": 2455,
      "thing": 2456,
      "Ġfix": 2457,
      "Ġdown": 2458,
      "Ġpython": 2459,
      "tml": 2460,
      "Ġauthor": 2461,
      "ier": 2462,
      "LA": 2463,
      "Ġindic": 2464,
      "Ġvalidate": 2465,
      "ĠNumber": 2466,
      "CH": 2467,
      "alcul": 2468,
      "Ġcorrespon": 2469,
      "Ġfluxes": 2470,
      "=(": 2471,
      "stop": 2472,
      "Ġ'\\": 2473,
      "mal": 2474,
      "ĠĠĠĠĠĠĠĠĠĠĠĠĠĠĠĠĠĠĠĠĠĠĠĠĠĠĠĠĠĠĠĠĠĠĠĠĠĠĠ": 2475,
      "strib": 2476,
      "ride": 2477,
      "Ġ\"%": 2478,
      "Ġusername": 2479,
      "erge": 2480,
      "igma": 2481,
      "corator": 2482,
      "Argument": 2483,
      "stit": 2484,
      "Ġmatches": 2485,
      "vars": 2486,
      "ensions": 2487,
      "ĠOptional": 2488,
      "gt": 2489,
      "record": 2490,
      "Ġali": 2491,
      "environment": 2492,
      "Ġsplit": 2493,
      "100": 2494,
      "icle": 2495,
      "Ġ'{": 2496,
      "const": 2497,
      "Ġus": 2498,
      "Ġshow": 2499,
      "itional": 2500,
      "ĠĠĠĠĠĠĠĠĠĠĠĠĠĠĠĠĠĠĠĠĠĠĠĠĠĠĠĠĠĠ": 2501,
      "Status": 2502,
      "verage": 2503,
      "Ġinclu": 2504,
      "Ġday": 2505,
      "201": 2506,
      "cl": 2507,
      "sequences": 2508,
      "Ġexpected": 2509,
      "limit": 2510,
      "connection": 2511,
      "Ġbound": 2512,
      "Ġcalled": 2513,
      "ĠSh": 2514,
      "Ġverbose": 2515,
      "ven": 2516,
      "Ġmark": 2517,
      "Read": 2518,
      "Ġtimestamp": 2519,
      "Sub": 2520,
      "mark": 2521,
      "Ġtheir": 2522,
      "ract": 2523,
      "Ġdt": 2524,
      "Auth": 2525,
      "MP": 2526,
      "ared": 2527,
      "vate": 2528,
      "Ġ7": 2529,
      "Ġboth": 2530,
      "lish": 2531,
      "branch": 2532,
      "ii": 2533,
      "depth": 2534,
      "Ġcontainer": 2535,
      "Ġsamples": 2536,
      "dep": 2537,
      "Ġconst": 2538,
      "termine": 2539,
      "Qu": 2540,
      "sa": 2541,
      "points": 2542,
      "ton": 2543,
      "Ġvec": 2544,
      "Ġthrough": 2545,
      "Ġloc": 2546,
      "tore": 2547,
      "Ġmonth": 2548,
      "ten": 2549,
      "author": 2550,
      "Ġassociated": 2551,
      "Ġcli": 2552,
      "Ġpe": 2553,
      "day": 2554,
      "ulation": 2555,
      "ĠCh": 2556,
      "izer": 2557,
      "Ġwithout": 2558,
      "riter": 2559,
      "seconds": 2560,
      "si": 2561,
      "sys": 2562,
      "Ġlambda": 2563,
      "tags": 2564,
      "Ġloop": 2565,
      "lank": 2566,
      "ĠĠĠĠĠĠĠĠĠĠĠĠĠĠĠĠĠĠĠĠĠĠĠĠĠĠĠĠĠ": 2567,
      "ĠPython": 2568,
      "cfg": 2569,
      "ql": 2570,
      "rest": 2571,
      "Col": 2572,
      "Found": 2573,
      "TY": 2574,
      "reference": 2575,
      "Ġregister": 2576,
      "dn": 2577,
      "íĺ": 2578,
      "Ġ),": 2579,
      "Ġemail": 2580,
      "String": 2581,
      "ferences": 2582,
      "straints": 2583,
      "ored": 2584,
      "cause": 2585,
      "stat": 2586,
      "Ġregex": 2587,
      "State": 2588,
      "Ġglobal": 2589,
      "doc": 2590,
      "posit": 2591,
      "Tag": 2592,
      "eded": 2593,
      "Ġright": 2594,
      "unch": 2595,
      "ĠRequired": 2596,
      "resource": 2597,
      "Ġneg": 2598,
      "try": 2599,
      "sec": 2600,
      "ĠCPE": 2601,
      "Ġcharacter": 2602,
      "loyment": 2603,
      "package": 2604,
      "Ser": 2605,
      "]):": 2606,
      "src": 2607,
      "grid": 2608,
      "Ġrows": 2609,
      "exceptions": 2610,
      "nk": 2611,
      "Ġevery": 2612,
      "stdout": 2613,
      "PC": 2614,
      "TO": 2615,
      "inu": 2616,
      "Ġ((": 2617,
      "Ġhtml": 2618,
      "calc": 2619,
      "Mdl": 2620,
      "side": 2621,
      "Ġunique": 2622,
      "Ġlabels": 2623,
      "duct": 2624,
      "ison": 2625,
      "example": 2626,
      "Invalid": 2627,
      "lative": 2628,
      "Ġtmp": 2629,
      "Ġsrc": 2630,
      "Ġcompar": 2631,
      "ves": 2632,
      "select": 2633,
      "escription": 2634,
      "DF": 2635,
      "gger": 2636,
      "Ġabs": 2637,
      "analys": 2638,
      "Ġgre": 2639,
      "payload": 2640,
      "Run": 2641,
      "zone": 2642,
      "Ġweb": 2643,
      "Ġscan": 2644,
      "'}": 2645,
      "pository": 2646,
      "/'": 2647,
      "warning": 2648,
      "indices": 2649,
      "Ġdir": 2650,
      "Ġapply": 2651,
      "(**": 2652,
      "Per": 2653,
      "af": 2654,
      "dered": 2655,
      "ross": 2656,
      "entry": 2657,
      "motif": 2658,
      "Ġest": 2659,
      "Ġthread": 2660,
      "Frame": 2661,
      "Ġvolume": 2662,
      "Ġstack": 2663,
      "Ġdomain": 2664,
      "Ġhere": 2665,
      "fer": 2666,
      "random": 2667,
      "Ġlower": 2668,
      "Ġdoc": 2669,
      "directory": 2670,
      "pf": 2671,
      "uring": 2672,
      "Ġlst": 2673,
      "socket": 2674,
      "tric": 2675,
      "true": 2676,
      "tail": 2677,
      "validate": 2678,
      ",)": 2679,
      "66": 2680,
      "TER": 2681,
      "alog": 2682,
      "Ġremo": 2683,
      "distance": 2684,
      "asic": 2685,
      "sets": 2686,
      "Ġenv": 2687,
      "crypt": 2688,
      "HT": 2689,
      "Ġdb": 2690,
      "Ġmissing": 2691,
      "Ġproperty": 2692,
      "Ġskip": 2693,
      "fit": 2694,
      "Ġthese": 2695,
      "('/": 2696,
      "istered": 2697,
      "Ġ9": 2698,
      "Ġlanguage": 2699,
      "ĠWhen": 2700,
      "Ġleft": 2701,
      "Ġadded": 2702,
      "ha": 2703,
      "alt": 2704,
      "':'": 2705,
      "----------------": 2706,
      "24": 2707,
      "ED": 2708,
      "can": 2709,
      "fs": 2710,
      "xx": 2711,
      "ason": 2712,
      "Ġstructure": 2713,
      "hour": 2714,
      "ration": 2715,
      "itch": 2716,
      "Ġgenerator": 2717,
      "stribution": 2718,
      "User": 2719,
      "git": 2720,
      "Ġí": 2721,
      "mag": 2722,
      "Ġgo": 2723,
      "where": 2724,
      "alth": 2725,
      "Ġhow": 2726,
      "Ġhigh": 2727,
      "Ġstyle": 2728,
      "'''": 2729,
      "Pre": 2730,
      "hist": 2731,
      "Ġfunctions": 2732,
      "ndarray": 2733,
      ")*": 2734,
      "ipe": 2735,
      "ole": 2736,
      "Ġiss": 2737,
      "Ġalpha": 2738,
      "Ġprotocol": 2739,
      "insert": 2740,
      "parameter": 2741,
      "ĠNo": 2742,
      "spect": 2743,
      "cret": 2744,
      "Ġplace": 2745,
      "Ġvari": 2746,
      "ĠEC": 2747,
      "scan": 2748,
      "leted": 2749,
      "Ġcorrect": 2750,
      "US": 2751,
      "Ġapi": 2752,
      "alk": 2753,
      "channel": 2754,
      "gnore": 2755,
      "Code": 2756,
      "Ġnow": 2757,
      "Ġdec": 2758,
      "python": 2759,
      "empty": 2760,
      "Ġgroups": 2761,
      "Ġassign": 2762,
      "Ġstore": 2763,
      "Ġrout": 2764,
      "Ġ'--": 2765,
      "Ġoccur": 2766,
      "down": 2767,
      "Ġ(\"": 2768,
      "Ġhist": 2769,
      "matrix": 2770,
      "Ġaccount": 2771,
      "tr": 2772,
      "Ġcent": 2773,
      "Ġseq": 2774,
      "make": 2775,
      "Ġbecause": 2776,
      "velo": 2777,
      "Inter": 2778,
      "angle": 2779,
      "Ġoperation": 2780,
      "15": 2781,
      "Store": 2782,
      "dot": 2783,
      "Index": 2784,
      "</": 2785,
      "AB": 2786,
      "Date": 2787,
      "math": 2788,
      "over": 2789,
      "Ġbatch": 2790,
      "handler": 2791,
      "lst": 2792,
      "remote": 2793,
      "Ġbeing": 2794,
      "logy": 2795,
      "Ġmatching": 2796,
      "Ġvert": 2797,
      "Model": 2798,
      "Ġmapping": 2799,
      "']['": 2800,
      "settings": 2801,
      "ĠDi": 2802,
      "fastaccess": 2803,
      "dom": 2804,
      "alle": 2805,
      "lim": 2806,
      "idden": 2807,
      "Ġge": 2808,
      "stack": 2809,
      "Ġplugin": 2810,
      "Ġvector": 2811,
      "olution": 2812,
      "ings": 2813,
      "Ġcomb": 2814,
      "Ġlib": 2815,
      "Ġsix": 2816,
      "Ġscri": 2817,
      "Ġunder": 2818,
      "SC": 2819,
      "sequence": 2820,
      "ĠId": 2821,
      "Ġmain": 2822,
      "ĠComp": 2823,
      "pk": 2824,
      "rop": 2825,
      "Returns": 2826,
      "Ġexceptions": 2827,
      "endswith": 2828,
      "Ġart": 2829,
      "tempt": 2830,
      "Ġsocket": 2831,
      "groups": 2832,
      "123": 2833,
      "her": 2834,
      "missions": 2835,
      "ake": 2836,
      "aise": 2837,
      "ars": 2838,
      "gest": 2839,
      "termin": 2840,
      "Ġpossible": 2841,
      "Ġworkflow": 2842,
      "Ġprovide": 2843,
      "Ġstdout": 2844,
      "Prf": 2845,
      "normal": 2846,
      "year": 2847,
      "inst": 2848,
      "required": 2849,
      "cluster": 2850,
      "Ġagain": 2851,
      "TYPE": 2852,
      "Valid": 2853,
      "bits": 2854,
      "jang": 2855,
      "warn": 2856,
      "ĠIO": 2857,
      "ithub": 2858,
      "Ġdebug": 2859,
      "pair": 2860,
      "condition": 2861,
      "Ġapplication": 2862,
      "[:-": 2863,
      "Ġfail": 2864,
      "container": 2865,
      "RF": 2866,
      "total": 2867,
      "ï¼": 2868,
      "release": 2869,
      "istype": 2870,
      "ĠUp": 2871,
      "Ġsuch": 2872,
      "MM": 2873,
      "Ġfn": 2874,
      "ĠCor": 2875,
      "attrs": 2876,
      "ices": 2877,
      "known": 2878,
      "Ġow": 2879,
      "ORD": 2880,
      "Ġtrace": 2881,
      "Ġra": 2882,
      "until": 2883,
      "jango": 2884,
      "Ġinsert": 2885,
      "Ġele": 2886,
      "ulate": 2887,
      "inte": 2888,
      "istant": 2889,
      "Ġview": 2890,
      "ze": 2891,
      "dest": 2892,
      "left": 2893,
      "util": 2894,
      "Ġexc": 2895,
      "Ġdist": 2896,
      "Ġappro": 2897,
      "Ġderived": 2898,
      "Response": 2899,
      "bg": 2900,
      "gine": 2901,
      "Ġevalu": 2902,
      "Ġcoordinates": 2903,
      "Ġthreshold": 2904,
      "astype": 2905,
      "Ġmodels": 2906,
      "global": 2907,
      "keep": 2908,
      "Ġbest": 2909,
      "ĠCloud": 2910,
      "ĠFunction": 2911,
      "Ġstrip": 2912,
      "Ġrunning": 2913,
      "ffici": 2914,
      "aw": 2915,
      "gor": 2916,
      "Bu": 2917,
      "ru": 2918,
      "ffect": 2919,
      "Ġhash": 2920,
      "Ġoriginal": 2921,
      "dified": 2922,
      "sv": 2923,
      "aly": 2924,
      "sm": 2925,
      "cores": 2926,
      "olve": 2927,
      "Ġparts": 2928,
      "children": 2929,
      "uted": 2930,
      "Ġcould": 2931,
      "Ġlong": 2932,
      "position": 2933,
      "Arn": 2934,
      "========": 2935,
      "gorith": 2936,
      "desc": 2937,
      "FA": 2938,
      "]),": 2939,
      "long": 2940,
      "orig": 2941,
      "Ġdone": 2942,
      "ĠApp": 2943,
      "ynamo": 2944,
      "VER": 2945,
      "Ġbranch": 2946,
      "ilder": 2947,
      "Ġprobab": 2948,
      "ĠRequest": 2949,
      "ĠGu": 2950,
      "Ġhttps": 2951,
      "wd": 2952,
      "reen": 2953,
      "Ġstates": 2954,
      "Ġnamespace": 2955,
      "########": 2956,
      "go": 2957,
      "ured": 2958,
      "Ġencode": 2959,
      "ont": 2960,
      "stderr": 2961,
      "Ġpys": 2962,
      "Ġchannel": 2963,
      "numpy": 2964,
      "atio": 2965,
      "encoding": 2966,
      "Ġignore": 2967,
      "Ġmethods": 2968,
      "Ġinputs": 2969,
      "username": 2970,
      "Ġdoesn": 2971,
      "Ġautomat": 2972,
      "NO": 2973,
      "wi": 2974,
      "less": 2975,
      "member": 2976,
      "ĠInvalidParameter": 2977,
      "Ġgreater": 2978,
      "sep": 2979,
      "0000": 2980,
      "licit": 2981,
      "entication": 2982,
      "Ġclean": 2983,
      "Ġ\".": 2984,
      "Ġ\\\\": 2985,
      "factor": 2986,
      "Ġcre": 2987,
      "component": 2988,
      "ĠAny": 2989,
      "pl": 2990,
      "serve": 2991,
      "Ġ{}\".": 2992,
      "Ġaccept": 2993,
      "ARN": 2994,
      "callback": 2995,
      "By": 2996,
      "GET": 2997,
      "fname": 2998,
      "hit": 2999,
      "plication": 3000,
      "'\"": 3001,
      "wrap": 3002,
      "olute": 3003,
      "ĠOn": 3004,
      "abs": 3005,
      "ĠExample": 3006,
      "Ġangle": 3007,
      "sin": 3008,
      "Ġnd": 3009,
      "Ġnote": 3010,
      "ash": 3011,
      "Ġdestination": 3012,
      "Ġreport": 3013,
      "Ġwords": 3014,
      "IL": 3015,
      "Record": 3016,
      "Iter": 3017,
      "Source": 3018,
      "Ġpresent": 3019,
      ":`~": 3020,
      "elements": 3021,
      "month": 3022,
      "ĠInvalidParameterError": 3023,
      "annot": 3024,
      "Ġscope": 3025,
      "pping": 3026,
      "Ġregistered": 3027,
      "Ġspace": 3028,
      "analysistype": 3029,
      "\"))": 3030,
      "20": 3031,
      "Ġsince": 3032,
      "Ġlists": 3033,
      "Ġunicode": 3034,
      "cker": 3035,
      "Ġconf": 3036,
      "Ġheight": 3037,
      "Ġpixels": 3038,
      "Size": 3039,
      "cc": 3040,
      "Ġduration": 3041,
      "Ġstats": 3042,
      "Ġstandard": 3043,
      "Ġ-=": 3044,
      "raises": 3045,
      "lap": 3046,
      "('\\": 3047,
      "span": 3048,
      "Ġ_,": 3049,
      "Ġyear": 3050,
      "Ġwhat": 3051,
      "Format": 3052,
      ":%": 3053,
      "language": 3054,
      "Ġour": 3055,
      "mooth": 3056,
      "lability": 3057,
      "vailability": 3058,
      "Ġhour": 3059,
      "cimal": 3060,
      "funcs": 3061,
      "Func": 3062,
      "On": 3063,
      "ëĭ": 3064,
      "Ġvis": 3065,
      "Ġlat": 3066,
      "Ġzone": 3067,
      "Ġallowed": 3068,
      "latt": 3069,
      "Ġwrapper": 3070,
      "Ġserial": 3071,
      "attributes": 3072,
      "ĠExamples": 3073,
      "ĠAttributeError": 3074,
      "sl": 3075,
      "ways": 3076,
      "Ġwarning": 3077,
      "ends": 3078,
      "Ġdecorator": 3079,
      "14": 3080,
      "ache": 3081,
      "ë²": 3082,
      "Ġsur": 3083,
      "light": 3084,
      "diff": 3085,
      "Ġ200": 3086,
      "Ġuses": 3087,
      "Info": 3088,
      "Ġcorresponding": 3089,
      "CE": 3090,
      "pNum": 3091,
      "Ġmy": 3092,
      "tered": 3093,
      "okup": 3094,
      "Ġsuffix": 3095,
      "Count": 3096,
      "Gener": 3097,
      "Ġreal": 3098,
      "ulti": 3099,
      "Ġparsed": 3100,
      "ables": 3101,
      "relation": 3102,
      "Ġflag": 3103,
      "ë²Ī": 3104,
      "non": 3105,
      "exit": 3106,
      "served": 3107,
      "Ġextract": 3108,
      "iente": 3109,
      "íĺ¸": 3110,
      "ìĦ": 3111,
      "ert": 3112,
      "Ġindices": 3113,
      "uplic": 3114,
      "aries": 3115,
      "Ġevents": 3116,
      "Ġextension": 3117,
      "commit": 3118,
      "Ġscript": 3119,
      "Tmp": 3120,
      "fin": 3121,
      "ox": 3122,
      "rary": 3123,
      "ĠTime": 3124,
      "Ġcour": 3125,
      "paths": 3126,
      "timestamp": 3127,
      "Ġleast": 3128,
      "Parser": 3129,
      "auss": 3130,
      "ë²Īíĺ¸": 3131,
      "MS": 3132,
      "flag": 3133,
      "ĠNetworkapi": 3134,
      "gorithm": 3135,
      "Ġts": 3136,
      "Ġclose": 3137,
      "formed": 3138,
      "counts": 3139,
      "fetch": 3140,
      "tect": 3141,
      "vlan": 3142,
      "alled": 3143,
      "Ġinit": 3144,
      "ank": 3145,
      "Ġmut": 3146,
      "ilar": 3147,
      "control": 3148,
      "Ġcommands": 3149,
      "edges": 3150,
      "Do": 3151,
      "Text": 3152,
      "ĺì": 3153,
      "ions": 3154,
      "Ġseries": 3155,
      "docs": 3156,
      "Ġassume": 3157,
      "Ġoperator": 3158,
      "API": 3159,
      "Tc": 3160,
      "}}": 3161,
      "Ġrequire": 3162,
      "('-": 3163,
      "Ġprogress": 3164,
      "ĠGener": 3165,
      "ually": 3166,
      "Load": 3167,
      "Number": 3168,
      "Ġcommon": 3169,
      "Ġsentence": 3170,
      "Ġreq": 3171,
      "Ġbot": 3172,
      "diction": 3173,
      "tom": 3174,
      "show": 3175,
      "box": 3176,
      "bove": 3177,
      "fficient": 3178,
      "EX": 3179,
      "ale": 3180,
      "hell": 3181,
      "Ġsnapshot": 3182,
      "latform": 3183,
      "interface": 3184,
      "18": 3185,
      "Ġduring": 3186,
      "tact": 3187,
      "Start": 3188,
      "Ġimages": 3189,
      "Ġmotifs": 3190,
      "classes": 3191,
      "arr": 3192,
      "('%": 3193,
      "shift": 3194,
      "attribute": 3195,
      "Ġindexes": 3196,
      "mbed": 3197,
      "ATE": 3198,
      "Te": 3199,
      "email": 3200,
      "yaml": 3201,
      "Ġmod": 3202,
      "Ġfig": 3203,
      "ĠPop": 3204,
      "Ġproces": 3205,
      "ĠRaise": 3206,
      "ness": 3207,
      "Event": 3208,
      "site": 3209,
      "repo": 3210,
      "alpha": 3211,
      "Ġwrit": 3212,
      "()[": 3213,
      "ĠAl": 3214,
      "Ġdistribution": 3215,
      "Ġdefin": 3216,
      "web": 3217,
      "ĠArgument": 3218,
      "batch": 3219,
      "Ġplt": 3220,
      "chain": 3221,
      "Ġstored": 3222,
      "ublas": 3223,
      "Ġproperties": 3224,
      "ĠGuide": 3225,
      "states": 3226,
      "Ġbg": 3227,
      "Ġ{}'.": 3228,
      "30": 3229,
      "Ġfill": 3230,
      "ision": 3231,
      "commands": 3232,
      "system": 3233,
      "Ġmemory": 3234,
      "delta": 3235,
      "Ġcell": 3236,
      "Ġda": 3237,
      "Ġbyte": 3238,
      "Ġcontrol": 3239,
      "errors": 3240,
      "ĠInstance": 3241,
      "ĠHTTP": 3242,
      "Ġcomparison": 3243,
      "plugin": 3244,
      "hether": 3245,
      "','": 3246,
      "Ġ[\"": 3247,
      "redential": 3248,
      "manager": 3249,
      "From": 3250,
      "ia": 3251,
      "tmp": 3252,
      "Ġop": 3253,
      "ptim": 3254,
      "Ġbeta": 3255,
      "POST": 3256,
      "NAME": 3257,
      "LI": 3258,
      "Ġproble": 3259,
      "Ġbucket": 3260,
      "ĠCorpNum": 3261,
      "ION": 3262,
      "github": 3263,
      "ìŀ": 3264,
      "regex": 3265,
      "Ġsure": 3266,
      "ĠĠĠĠĠĠĠĠĠĠĠĠĠĠĠĠĠĠĠĠĠĠĠĠĠĠĠĠĠĠĠĠĠĠĠĠĠĠĠĠĠĠĠ": 3267,
      "Ġkeyword": 3268,
      "ERR": 3269,
      "Ġsupp": 3270,
      "ĠMethod": 3271,
      "execute": 3272,
      "Py": 3273,
      "wh": 3274,
      "ptions": 3275,
      "ĠRead": 3276,
      "ĠĠĠĠĠĠĠĠĠĠĠĠĠĠĠĠĠĠĠĠĠĠĠĠĠĠĠĠĠĠĠĠĠĠĠĠ": 3277,
      "Ġtimes": 3278,
      "Ġcallable": 3279,
      "Ġndarray": 3280,
      "19": 3281,
      "SH": 3282,
      "Ġtr": 3283,
      "leep": 3284,
      "ĠConfig": 3285,
      "Ġoverride": 3286,
      "https": 3287,
      "Message": 3288,
      "Ġmember": 3289,
      "uture": 3290,
      "upo": 3291,
      "thread": 3292,
      "Reg": 3293,
      "lus": 3294,
      "ively": 3295,
      "sired": 3296,
      "\"],": 3297,
      "rate": 3298,
      "parts": 3299,
      "conn": 3300,
      "ĠĠĠĠĠĠĠĠĠĠĠĠĠĠĠĠĠĠĠĠĠĠĠĠĠĠĠĠĠĠĠĠĠĠ": 3301,
      "hash": 3302,
      "Ġautomatically": 3303,
      "dc": 3304,
      "ram": 3305,
      "sure": 3306,
      "sted": 3307,
      "vip": 3308,
      "ips": 3309,
      "Ġmessages": 3310,
      "vider": 3311,
      "Ġgene": 3312,
      "Class": 3313,
      "just": 3314,
      "Ġsm": 3315,
      "ters": 3316,
      "Ġsecurity": 3317,
      "dify": 3318,
      "ender": 3319,
      "ĠCalcul": 3320,
      "cies": 3321,
      "resses": 3322,
      "Ġlet": 3323,
      "Ġneeded": 3324,
      "akes": 3325,
      "head": 3326,
      "ĠNO": 3327,
      "ified": 3328,
      "ao": 3329,
      "card": 3330,
      "llable": 3331,
      "}\\": 3332,
      "Ġlogin": 3333,
      "Identifier": 3334,
      "Content": 3335,
      "spec": 3336,
      "Al": 3337,
      "MO": 3338,
      "ĠĠĠĠĠĠĠĠĠĠĠĠĠĠĠĠĠĠĠĠĠĠĠĠĠĠĠĠĠĠĠĠĠ": 3339,
      "200": 3340,
      "bind": 3341,
      "hn": 3342,
      "serial": 3343,
      "Ġrepo": 3344,
      "Ġweights": 3345,
      "Ġpaths": 3346,
      "Ġissue": 3347,
      "Cluster": 3348,
      "He": 3349,
      "pu": 3350,
      "Ġfactor": 3351,
      "Ġscale": 3352,
      "Ġrole": 3353,
      "ĠWhether": 3354,
      "Token": 3355,
      "Ġflags": 3356,
      "Ġterm": 3357,
      "dumps": 3358,
      "IG": 3359,
      "ogram": 3360,
      "used": 3361,
      "Ġinternal": 3362,
      "Ġbit": 3363,
      "ĠPo": 3364,
      "actory": 3365,
      "Ġunit": 3366,
      "inputs": 3367,
      "Ġlayer": 3368,
      "gra": 3369,
      "Ġrender": 3370,
      "getLo": 3371,
      "ĠAuto": 3372,
      "Ġdetails": 3373,
      "Ġprepare": 3374,
      "BS": 3375,
      "arm": 3376,
      "Ġmost": 3377,
      "ĠPre": 3378,
      "Ġdefaults": 3379,
      "Ġimplement": 3380,
      "ĠEnvironment": 3381,
      ">`": 3382,
      "Ġrelease": 3383,
      "Ġembed": 3384,
      "Ġwould": 3385,
      "dataset": 3386,
      "cii": 3387,
      "Ġnumbers": 3388,
      "cursive": 3389,
      "Or": 3390,
      "dp": 3391,
      "eric": 3392,
      "duce": 3393,
      "trieve": 3394,
      ":-": 3395,
      "height": 3396,
      "ynch": 3397,
      "Ġtokens": 3398,
      "Ġcommit": 3399,
      "NotFound": 3400,
      "dec": 3401,
      "Ġway": 3402,
      "raction": 3403,
      "Ġgrid": 3404,
      "Ġactive": 3405,
      "Ġfeatures": 3406,
      "ULT": 3407,
      "clean": 3408,
      "divid": 3409,
      "Str": 3410,
      "lastic": 3411,
      "}.": 3412,
      "Ġfname": 3413,
      "Ġet": 3414,
      "idget": 3415,
      "('.": 3416,
      "ĠCol": 3417,
      "__,": 3418,
      "bill": 3419,
      "repr": 3420,
      "Ġabove": 3421,
      "ency": 3422,
      "Ġrelative": 3423,
      "Ġdirection": 3424,
      "Ġarea": 3425,
      "prop": 3426,
      "Ġcalculate": 3427,
      "ynchron": 3428,
      "\"),": 3429,
      "Ġloaded": 3430,
      "Ġrelation": 3431,
      "istry": 3432,
      "allel": 3433,
      "\"])": 3434,
      "NS": 3435,
      "cule": 3436,
      "sw": 3437,
      "ĠZ": 3438,
      "ĠOr": 3439,
      "{}'.": 3440,
      "ek": 3441,
      "fill": 3442,
      "Ġ:]": 3443,
      "ĠTest": 3444,
      "ipv": 3445,
      "Component": 3446,
      ".)": 3447,
      "cf": 3448,
      "ias": 3449,
      "none": 3450,
      "utable": 3451,
      "adding": 3452,
      "Ġsubject": 3453,
      "maining": 3454,
      "ĠDefaults": 3455,
      "Ġedges": 3456,
      "gtKey": 3457,
      "+)": 3458,
      "TH": 3459,
      "ìĿ": 3460,
      "hes": 3461,
      "roll": 3462,
      "ribe": 3463,
      "Ġtake": 3464,
      "Ġbackground": 3465,
      "At": 3466,
      "Attribute": 3467,
      "Client": 3468,
      "pixel": 3469,
      "'][": 3470,
      "cheme": 3471,
      "ives": 3472,
      "Ġsetting": 3473,
      "Ġinstall": 3474,
      "miss": 3475,
      "ynamoDB": 3476,
      "50": 3477,
      "rl": 3478,
      "ams": 3479,
      "strument": 3480,
      "properties": 3481,
      "Ġneighb": 3482,
      "Ġappend": 3483,
      "mbers": 3484,
      "Ġminimum": 3485,
      "Ġpk": 3486,
      "Ġanother": 3487,
      "ific": 3488,
      "TION": 3489,
      "Ġlookup": 3490,
      "ategory": 3491,
      "Ġclick": 3492,
      "Map": 3493,
      "tk": 3494,
      "window": 3495,
      "Ġcfg": 3496,
      "Ġrest": 3497,
      "ged": 3498,
      "ĠDescription": 3499,
      "Ġenable": 3500,
      "ĠInput": 3501,
      "Search": 3502,
      "/{": 3503,
      "Le": 3504,
      "Ġë": 3505,
      "Ġsql": 3506,
      "vec": 3507,
      "ĠĠĠĠĠĠĠĠĠĠĠĠĠĠĠĠĠĠĠĠĠĠĠĠĠĠĠĠĠĠĠĠĠĠĠĠĠ": 3508,
      "Ġadditional": 3509,
      "tract": 3510,
      "KE": 3511,
      "gment": 3512,
      "unique": 3513,
      "Ġcoe": 3514,
      "ĠPer": 3515,
      "ported": 3516,
      "Ġdeployment": 3517,
      "sqrt": 3518,
      "BU": 3519,
      "Ġdesired": 3520,
      "caling": 3521,
      "Ġperform": 3522,
      "Ġselected": 3523,
      "grees": 3524,
      "Ġsuccessful": 3525,
      "pfp": 3526,
      "60": 3527,
      "Ġmeans": 3528,
      "ĠMust": 3529,
      "login": 3530,
      "Ġexecution": 3531,
      "son": 3532,
      "sens": 3533,
      "ately": 3534,
      "Ġsubdom": 3535,
      "boolean": 3536,
      "QL": 3537,
      "]*": 3538,
      "je": 3539,
      "unit": 3540,
      "charge": 3541,
      "ĠMax": 3542,
      "mount": 3543,
      "FAULT": 3544,
      "auto": 3545,
      "vari": 3546,
      "Ġfalse": 3547,
      "ords": 3548,
      "fluxes": 3549,
      "latten": 3550,
      "ĠRaises": 3551,
      "ga": 3552,
      "£o": 3553,
      "Ã£o": 3554,
      "Ġjoin": 3555,
      "Ġuri": 3556,
      "()))": 3557,
      "quires": 3558,
      "Ġapplied": 3559,
      "Ġmove": 3560,
      "Update": 3561,
      "gb": 3562,
      "lin": 3563,
      "Ġradi": 3564,
      "Ġkeep": 3565,
      "Ġnc": 3566,
      "vide": 3567,
      "Ġcho": 3568,
      "Ġwere": 3569,
      "Ġupper": 3570,
      "variables": 3571,
      "uuid": 3572,
      "Ġscore": 3573,
      "loaded": 3574,
      "ĠDynamoDB": 3575,
      "ĠOS": 3576,
      "Ġdisplay": 3577,
      "LAN": 3578,
      "wrapper": 3579,
      "Ġuntil": 3580,
      "Ġ\"\\": 3581,
      "Ġthose": 3582,
      "application": 3583,
      "ĠObject": 3584,
      "dicator": 3585,
      "dividual": 3586,
      "CT": 3587,
      "dat": 3588,
      "âĢ": 3589,
      "Ġrepe": 3590,
      "vers": 3591,
      "ĠImp": 3592,
      "bjct": 3593,
      "Ġperiod": 3594,
      "Ġcontents": 3595,
      "ĠLoad": 3596,
      "stitution": 3597,
      "Fa": 3598,
      "echo": 3599,
      "oper": 3600,
      "ret": 3601,
      "Ġhit": 3602,
      "verbose": 3603,
      "Ġpool": 3604,
      "Ġsubprocess": 3605,
      "ĠIndex": 3606,
      "tries": 3607,
      "Ġiterable": 3608,
      "56": 3609,
      "NT": 3610,
      "lon": 3611,
      "lue": 3612,
      "ystem": 3613,
      "ernel": 3614,
      "Ġwrap": 3615,
      "direction": 3616,
      "tour": 3617,
      "ĠEach": 3618,
      "domain": 3619,
      "Ġfolder": 3620,
      "GroupName": 3621,
      "Ġobserv": 3622,
      "download": 3623,
      "Ġexclude": 3624,
      "Ġdiff": 3625,
      "izes": 3626,
      "ĠQu": 3627,
      "custom": 3628,
      "align": 3629,
      "cell": 3630,
      "ĠVPC": 3631,
      "collection": 3632,
      "dirname": 3633,
      "layer": 3634,
      "generate": 3635,
      "ĠUpdate": 3636,
      "Page": 3637,
      "ond": 3638,
      "ites": 3639,
      "Ids": 3640,
      "Ġatom": 3641,
      "oot": 3642,
      "ä»": 3643,
      "gexes": 3644,
      "Ġdat": 3645,
      "Ġanalys": 3646,
      "Ġstderr": 3647,
      "ressed": 3648,
      "ransp": 3649,
      "addr": 3650,
      "irst": 3651,
      "Ġstarting": 3652,
      "weights": 3653,
      "Ġchecks": 3654,
      "Ġcomment": 3655,
      "Ġfilters": 3656,
      "holder": 3657,
      "sive": 3658,
      "dia": 3659,
      "radient": 3660,
      "Ġrepresenting": 3661,
      "clear": 3662,
      "Ġnx": 3663,
      "Ġsite": 3664,
      "Ġ'')": 3665,
      "coe": 3666,
      "Ġlon": 3667,
      "convert": 3668,
      "peri": 3669,
      "buffer": 3670,
      "Cont": 3671,
      "submit": 3672,
      "csv": 3673,
      "Ġinterval": 3674,
      "Ġsimulation": 3675,
      "pecifies": 3676,
      "Field": 3677,
      "Val": 3678,
      "score": 3679,
      "tip": 3680,
      "ilt": 3681,
      "Ġfast": 3682,
      "www": 3683,
      "13": 3684,
      "ĠClient": 3685,
      "(\"\\": 3686,
      "Ġalways": 3687,
      "Ġident": 3688,
      "Ġexecute": 3689,
      "ĠUserID": 3690,
      "VAL": 3691,
      "_{": 3692,
      "wm": 3693,
      "Ġreverse": 3694,
      "Ġsolver": 3695,
      "Ġmerge": 3696,
      "units": 3697,
      "ish": 3698,
      "Ġ\"/": 3699,
      "Ġmag": 3700,
      "Ġarrays": 3701,
      "quipment": 3702,
      "-%": 3703,
      ">,": 3704,
      "UM": 3705,
      "gate": 3706,
      "ense": 3707,
      "any": 3708,
      "Ġ\"{}": 3709,
      "ivity": 3710,
      "cessary": 3711,
      "Ġkind": 3712,
      "okie": 3713,
      "single": 3714,
      "Ġgenerated": 3715,
      "suffix": 3716,
      "hook": 3717,
      "Min": 3718,
      "sor": 3719,
      "åĲ": 3720,
      "secret": 3721,
      "Ġrepository": 3722,
      "Ġconver": 3723,
      "ĠNode": 3724,
      "OP": 3725,
      "equal": 3726,
      "rand": 3727,
      "real": 3728,
      "utton": 3729,
      "()]": 3730,
      "Ġconn": 3731,
      "'re": 3732,
      "lso": 3733,
      "success": 3734,
      "jection": 3735,
      "80": 3736,
      "oct": 3737,
      "lecule": 3738,
      "Ġbits": 3739,
      "allback": 3740,
      "Ġensure": 3741,
      "feature": 3742,
      "ĠOut": 3743,
      "Ġbox": 3744,
      "ìŀĲ": 3745,
      "Filter": 3746,
      "Ġincre": 3747,
      "Ġwater": 3748,
      "Ġcounter": 3749,
      "ĠFilter": 3750,
      "filepath": 3751,
      "ĠStart": 3752,
      "Ġ$": 3753,
      "separ": 3754,
      "ended": 3755,
      "Ġctypes": 3756,
      "vect": 3757,
      "Ġdisable": 3758,
      "Ġbinary": 3759,
      "Ġindent": 3760,
      "SO": 3761,
      "yp": 3762,
      "reshape": 3763,
      "coder": 3764,
      "Ġexit": 3765,
      "bed": 3766,
      "sur": 3767,
      "Ġct": 3768,
      "Ġeven": 3769,
      "Ġdetermine": 3770,
      "ĠOther": 3771,
      "({'": 3772,
      "DS": 3773,
      "FO": 3774,
      "cv": 3775,
      "Ġ):": 3776,
      "environ": 3777,
      "Ġ'{}": 3778,
      "Ġ::": 3779,
      "()):": 3780,
      "div": 3781,
      "cols": 3782,
      "Ġupdated": 3783,
      "ĠUnicode": 3784,
      "23": 3785,
      "scope": 3786,
      "help": 3787,
      "lour": 3788,
      "Ġ\"-": 3789,
      "contents": 3790,
      "Ġbuffer": 3791,
      "ĠíĮ": 3792,
      "ynchronous": 3793,
      "]])": 3794,
      "Ġblank": 3795,
      "ĠMgtKey": 3796,
      "ASE": 3797,
      "Ġjo": 3798,
      "force": 3799,
      "Ġprofile": 3800,
      "Sets": 3801,
      "gene": 3802,
      "events": 3803,
      "Ġpairs": 3804,
      "Ġremoved": 3805,
      "Ġvertex": 3806,
      "equipamento": 3807,
      "ire": 3808,
      "lper": 3809,
      "Ġsimple": 3810,
      "(\"%": 3811,
      "Ġrot": 3812,
      "basename": 3813,
      "notation": 3814,
      "Ġdisk": 3815,
      "Configuration": 3816,
      "veloper": 3817,
      "report": 3818,
      "ĠFind": 3819,
      "ĠPath": 3820,
      "conditions": 3821,
      "Ġtuples": 3822,
      "theta": 3823,
      "ĠPopbill": 3824,
      "ĠPopbillException": 3825,
      "Work": 3826,
      "cing": 3827,
      "sat": 3828,
      "rompt": 3829,
      "Ġround": 3830,
      "cade": 3831,
      "Ġpartic": 3832,
      "ĠIPv": 3833,
      "cryption": 3834,
      "aussian": 3835,
      "TR": 3836,
      "pars": 3837,
      "tax": 3838,
      "ĠDict": 3839,
      "ĠGroup": 3840,
      "arguments": 3841,
      "redentials": 3842,
      "nc": 3843,
      "Ġshell": 3844,
      "Ġ'['": 3845,
      "Ġvariant": 3846,
      "listRe": 3847,
      "Ġdecode": 3848,
      "Ġroll": 3849,
      "cao": 3850,
      "cript": 3851,
      "ĠArguments": 3852,
      "Job": 3853,
      "ascii": 3854,
      "Ġ20": 3855,
      "sorted": 3856,
      "********************************": 3857,
      "Ġfinally": 3858,
      "Ġdescrib": 3859,
      "Ġspec": 3860,
      "AP": 3861,
      "App": 3862,
      "åı": 3863,
      "allow": 3864,
      "Ġsw": 3865,
      "ulated": 3866,
      "ĠAs": 3867,
      "anced": 3868,
      "icro": 3869,
      "sha": 3870,
      "Ġappropri": 3871,
      "ĠAlso": 3872,
      "ĠIN": 3873,
      "ampling": 3874,
      "cast": 3875,
      "document": 3876,
      "sql": 3877,
      "ĠDictionary": 3878,
      "Ġsupplied": 3879,
      "flat": 3880,
      "ļĮ": 3881,
      "sters": 3882,
      "Ġ'':": 3883,
      "isfile": 3884,
      "extra": 3885,
      "ĠEd": 3886,
      "Ġprev": 3887,
      "ĠBy": 3888,
      "ĠHe": 3889,
      "ttributes": 3890,
      "Child": 3891,
      "Ġmulti": 3892,
      "Ġmany": 3893,
      "safe": 3894,
      "'\\": 3895,
      "03": 3896,
      "losed": 3897,
      "otype": 3898,
      "ravel": 3899,
      "ĠContent": 3900,
      "Ġpositive": 3901,
      "motifs": 3902,
      "Ġagainst": 3903,
      "ĠOutput": 3904,
      "listRegexes": 3905,
      "End": 3906,
      "dct": 3907,
      "gg": 3908,
      "pix": 3909,
      "way": 3910,
      "lookup": 3911,
      "Ġsequences": 3912,
      "apac": 3913,
      "ĠReceived": 3914,
      "faces": 3915,
      "Ġchildren": 3916,
      "zero": 3917,
      "crypted": 3918,
      ".'": 3919,
      "CDF": 3920,
      "Handler": 3921,
      "gz": 3922,
      "Ġ'',": 3923,
      "Ġesc": 3924,
      "ĠTra": 3925,
      "Ġbegin": 3926,
      "imate": 3927,
      "__(": 3928,
      "Ġrequested": 3929,
      "Names": 3930,
      "Ġalign": 3931,
      "Ġcenter": 3932,
      "Custom": 3933,
      "Ġput": 3934,
      "master": 3935,
      "ultip": 3936,
      "article": 3937,
      "indexes": 3938,
      "Ġcompute": 3939,
      "Values": 3940,
      "Result": 3941,
      "Ġneeds": 3942,
      "Address": 3943,
      "}:": 3944,
      "~~": 3945,
      "Ġsigma": 3946,
      "async": 3947,
      "']'.": 3948,
      "havi": 3949,
      "MI": 3950,
      "jor": 3951,
      "Ġnamed": 3952,
      "scale": 3953,
      "irt": 3954,
      "Ġcomplete": 3955,
      "neighb": 3956,
      "DIR": 3957,
      "ĠHTML": 3958,
      ")'": 3959,
      "PRO": 3960,
      "rs": 3961,
      "writ": 3962,
      "initial": 3963,
      "ĠpRF": 3964,
      "Ġbelow": 3965,
      "poch": 3966,
      "ower": 3967,
      "most": 3968,
      "rant": 3969,
      "compile": 3970,
      "Ġanalysis": 3971,
      "75": 3972,
      "eature": 3973,
      "lates": 3974,
      "Ġæ": 3975,
      "atom": 3976,
      "Ġpd": 3977,
      "eds": 3978,
      "pool": 3979,
      "ario": 3980,
      "curityGroup": 3981,
      "Ġrelated": 3982,
      "Ġpoly": 3983,
      "Dis": 3984,
      "PAR": 3985,
      "done": 3986,
      "imat": 3987,
      "wl": 3988,
      "lists": 3989,
      "Ġprogram": 3990,
      "Ġnecessary": 3991,
      "Ġcalc": 3992,
      "Ġtasks": 3993,
      "HE": 3994,
      "Imp": 3995,
      "dr": 3996,
      "Ġnone": 3997,
      "Ġ16": 3998,
      "Ġdetermin": 3999,
      "ĠInte": 4000,
      "Ġcalls": 4001,
      "Ġoverwrite": 4002,
      "flux": 4003,
      "ensity": 4004,
      "apacity": 4005,
      "hing": 4006,
      "rule": 4007,
      "specifi": 4008,
      "tar": 4009,
      "atter": 4010,
      "Ġawait": 4011,
      "Ġrecursive": 4012,
      "ural": 4013,
      "Ġconstruct": 4014,
      "ather": 4015,
      "UR": 4016,
      "strings": 4017,
      "Ġenabled": 4018,
      "fail": 4019,
      "Ġusers": 4020,
      "Ġface": 4021,
      "UE": 4022,
      "cision": 4023,
      "fm": 4024,
      "anager": 4025,
      "Ġmight": 4026,
      "Ġ\"{": 4027,
      "tack": 4028,
      "istics": 4029,
      "ĠRE": 4030,
      "configuration": 4031,
      "Ġpermissions": 4032,
      "Ġsaved": 4033,
      ".*": 4034,
      "22": 4035,
      "eb": 4036,
      "mar": 4037,
      "Ġreferences": 4038,
      "cei": 4039,
      "strict": 4040,
      "ado": 4041,
      "ups": 4042,
      "expected": 4043,
      "ĠDO": 4044,
      "Ġmak": 4045,
      "ĠLog": 4046,
      "Ġpublic": 4047,
      "Ġsimilar": 4048,
      "Quant": 4049,
      "gits": 4050,
      "Ġfmt": 4051,
      "Ġcy": 4052,
      "Ġslice": 4053,
      "ĠSub": 4054,
      "Ġshort": 4055,
      "dirs": 4056,
      "Ġvalidation": 4057,
      "actions": 4058,
      "signal": 4059,
      "Pri": 4060,
      "ele": 4061,
      "uch": 4062,
      "variant": 4063,
      "endpoint": 4064,
      "Ġ201": 4065,
      "Ġattach": 4066,
      "interval": 4067,
      "images": 4068,
      "Ġprivate": 4069,
      "Ġexplicit": 4070,
      "Ġdelta": 4071,
      ")/": 4072,
      "Mo": 4073,
      "counter": 4074,
      "Ġ%(": 4075,
      "prepare": 4076,
      "loads": 4077,
      "bound": 4078,
      "Ġless": 4079,
      "Ġcursor": 4080,
      "Ġconsist": 4081,
      "inux": 4082,
      "\">": 4083,
      "Table": 4084,
      "ìĹ": 4085,
      "atches": 4086,
      "hex": 4087,
      "Ġflat": 4088,
      "Ġnan": 4089,
      "rad": 4090,
      "ĠSpecifies": 4091,
      "INE": 4092,
      "Ġiterator": 4093,
      "Ġappropriate": 4094,
      "Hel": 4095,
      "ios": 4096,
      "ving": 4097,
      "ĠBu": 4098,
      "Ġnested": 4099,
      "import": 4100,
      "Ġcounts": 4101,
      "ĠCommand": 4102,
      "ĠOnly": 4103,
      "KEY": 4104,
      "âĶ": 4105,
      "è¯": 4106,
      "erature": 4107,
      "leaf": 4108,
      "Ġredirect": 4109,
      "Ġsat": 4110,
      "Ġsyn": 4111,
      "Ġtransition": 4112,
      "Timeout": 4113,
      "99999999": 4114,
      "ĠResponse": 4115,
      ")}": 4116,
      "17": 4117,
      "Ġcle": 4118,
      "ssh": 4119,
      "ada": 4120,
      "dian": 4121,
      "ignore": 4122,
      "Ġentity": 4123,
      "ngine": 4124,
      "Ġcomponents": 4125,
      "irtual": 4126,
      "PS": 4127,
      "gan": 4128,
      "ilities": 4129,
      "Ġsets": 4130,
      "Ġpercent": 4131,
      "Ġformatted": 4132,
      "ometry": 4133,
      "Level": 4134,
      "Window": 4135,
      "freq": 4136,
      "snapshot": 4137,
      "zy": 4138,
      "çļ": 4139,
      "Ġast": 4140,
      "Ġside": 4141,
      "unct": 4142,
      "ump": 4143,
      "etCDF": 4144,
      "Ġalgorithm": 4145,
      "\").": 4146,
      "ifact": 4147,
      "SION": 4148,
      "çļĦ": 4149,
      ")])": 4150,
      "=-": 4151,
      "CP": 4152,
      "dm": 4153,
      "yin": 4154,
      "Ġaverage": 4155,
      "rout": 4156,
      "Ġ(%": 4157,
      "expr": 4158,
      "Ġho": 4159,
      "forms": 4160,
      "Ġarr": 4161,
      "Ġmaster": 4162,
      "features": 4163,
      "Ġspecial": 4164,
      "logging": 4165,
      "ĠvarNum": 4166,
      "Ġìķ": 4167,
      "Ġchunks": 4168,
      "ĠDomain": 4169,
      "Ġprobability": 4170,
      "Optional": 4171,
      "ever": 4172,
      "Ġ\",": 4173,
      "Review": 4174,
      "Ġprop": 4175,
      "pace": 4176,
      "cab": 4177,
      "ttp": 4178,
      "days": 4179,
      "ĠXMLError": 4180,
      "variance": 4181,
      "ority": 4182,
      "ones": 4183,
      "Ġanaly": 4184,
      "mac": 4185,
      "andid": 4186,
      "ĠModel": 4187,
      "Ġengine": 4188,
      "Convert": 4189,
      "Ġcalling": 4190,
      "Ġdirectly": 4191,
      "Ġflux": 4192,
      "Ġorigin": 4193,
      "Ġtermin": 4194,
      "(['": 4195,
      "TS": 4196,
      "VE": 4197,
      "]+": 4198,
      "obs": 4199,
      "patch": 4200,
      "Ġinspect": 4201,
      "Ġlgc": 4202,
      "[:]": 4203,
      "Ġtesting": 4204,
      "ĠResource": 4205,
      "integer": 4206,
      "components": 4207,
      "ĠOtherwise": 4208,
      "Nii": 4209,
      "Variable": 4210,
      "greg": 4211,
      "ĽĲ": 4212,
      "meth": 4213,
      "Ġ[[": 4214,
      "Ġproper": 4215,
      "Ġrespect": 4216,
      "press": 4217,
      "Ġleg": 4218,
      "Ġentries": 4219,
      "Default": 4220,
      "ĠDataBase": 4221,
      "cipient": 4222,
      "Ġrules": 4223,
      "Ġproblem": 4224,
      "ĠDataBaseError": 4225,
      "Ass": 4226,
      "Be": 4227,
      "Graph": 4228,
      "Ip": 4229,
      "PAT": 4230,
      "given": 4231,
      "gments": 4232,
      "Ġrecent": 4233,
      "Ġindividual": 4234,
      "Ġtoo": 4235,
      "('<": 4236,
      "spath": 4237,
      "todo": 4238,
      "complete": 4239,
      "Ġminutes": 4240,
      "area": 4241,
      "Ġdocumentation": 4242,
      "Ġrepresentation": 4243,
      "monomial": 4244,
      "Ġsummary": 4245,
      "void": 4246,
      "ìĦľ": 4247,
      "CK": 4248,
      "_(": 4249,
      "game": 4250,
      "ins": 4251,
      "ons": 4252,
      "Ġclasses": 4253,
      "Ġetag": 4254,
      "Ġdst": 4255,
      "ĠAvailability": 4256,
      "ancel": 4257,
      "ĠCall": 4258,
      "Ġproduct": 4259,
      "Ġraised": 4260,
      "ĠĠĠĠĠĠĠĠĠĠĠĠĠĠĠĠĠĠĠĠĠĠĠĠĠĠĠĠĠĠĠĠĠĠĠĠĠĠĠĠ": 4261,
      "ĠBe": 4262,
      "Params": 4263,
      "ORM": 4264,
      "filters": 4265,
      "ĠCreates": 4266,
      "Ġprimary": 4267,
      "Ġvia": 4268,
      "Ġencoded": 4269,
      "35": 4270,
      "Trans": 4271,
      "ags": 4272,
      "Ġkw": 4273,
      "Ġdirectories": 4274,
      "Ġtrack": 4275,
      "Ġchanges": 4276,
      "ĠWeb": 4277,
      "expand": 4278,
      "ERROR": 4279,
      "OL": 4280,
      "mut": 4281,
      "norm": 4282,
      "eno": 4283,
      "Ġmetric": 4284,
      "proxy": 4285,
      "ouble": 4286,
      "ĠConstraints": 4287,
      "Ġtransform": 4288,
      "Ġlinks": 4289,
      "Ġincluded": 4290,
      "*(": 4291,
      "Of": 4292,
      "PER": 4293,
      "oms": 4294,
      "rv": 4295,
      "see": 4296,
      "Ġrevision": 4297,
      "verts": 4298,
      "']))": 4299,
      "Ġonce": 4300,
      "region": 4301,
      "ĠDocument": 4302,
      "PrfTc": 4303,
      "Ġpysat": 4304,
      "hy": 4305,
      "slice": 4306,
      "ĠTe": 4307,
      "ĠTuple": 4308,
      "Ġselection": 4309,
      "Ġsha": 4310,
      "ifier": 4311,
      "workflow": 4312,
      "Ġupload": 4313,
      "best": 4314,
      "modules": 4315,
      "tasks": 4316,
      "Point": 4317,
      "Ġnegative": 4318,
      "ĠQuery": 4319,
      "(?": 4320,
      "85": 4321,
      "uff": 4322,
      "ìĽĲ": 4323,
      "Ġpot": 4324,
      "lahn": 4325,
      "Ġmeas": 4326,
      "ĠReg": 4327,
      "Ġpop": 4328,
      "render": 4329,
      "Ġbasestring": 4330,
      "Parameters": 4331,
      "Ġmodifi": 4332,
      "Array": 4333,
      "Ġrecords": 4334,
      "depend": 4335,
      "Ġabsolute": 4336,
      "Ġoccurren": 4337,
      "ĠImport": 4338,
      "cut": 4339,
      "cum": 4340,
      "sigma": 4341,
      "ware": 4342,
      "alan": 4343,
      "threads": 4344,
      "tab": 4345,
      "Ġstorage": 4346,
      "ibration": 4347,
      "ambiente": 4348,
      "Ġsym": 4349,
      "This": 4350,
      "ļĮìĽĲ": 4351,
      "ler": 4352,
      "Ġreceived": 4353,
      "roles": 4354,
      "Ġuuid": 4355,
      "ĠDE": 4356,
      "Ġaccord": 4357,
      "Ġdepend": 4358,
      "ULL": 4359,
      "ĠOSError": 4360,
      "ĠInteger": 4361,
      "Variant": 4362,
      "rer": 4363,
      "arange": 4364,
      "ceback": 4365,
      "Ġdepth": 4366,
      "ases": 4367,
      "Ġpolicy": 4368,
      "([[": 4369,
      "DEFAULT": 4370,
      "Ġ'/'": 4371,
      "sci": 4372,
      "Ġvlan": 4373,
      "property": 4374,
      "Ġitself": 4375,
      "Ġweight": 4376,
      "Input": 4377,
      "Ġruns": 4378,
      "Session": 4379,
      "Ġblocks": 4380,
      "Chnk": 4381,
      "assword": 4382,
      "flags": 4383,
      "Ġetc": 4384,
      "=['": 4385,
      "NP": 4386,
      "Task": 4387,
      "cloud": 4388,
      "folder": 4389,
      "pad": 4390,
      "eries": 4391,
      "lets": 4392,
      "Ġtheta": 4393,
      "esc": 4394,
      "Ġnothing": 4395,
      "Ġhits": 4396,
      "ĠCan": 4397,
      "Ġparallel": 4398,
      "Ġarch": 4399,
      "ĠRemove": 4400,
      "Ġ*=": 4401,
      "ĠMake": 4402,
      "ront": 4403,
      "ĠConvert": 4404,
      "Ġeditor": 4405,
      "Ġrefresh": 4406,
      "assistant": 4407,
      "locator": 4408,
      "green": 4409,
      "ĠAttributeValue": 4410,
      "missing": 4411,
      "sem": 4412,
      "Ġcat": 4413,
      "Ġsig": 4414,
      "Ġexpect": 4415,
      "ĠRed": 4416,
      "__)": 4417,
      "weight": 4418,
      "Ġsudo": 4419,
      "Parse": 4420,
      "Sequence": 4421,
      "packet": 4422,
      "FILE": 4423,
      "chunks": 4424,
      "Ġwarnings": 4425,
      "grade": 4426,
      "Ġtre": 4427,
      "Ġfin": 4428,
      "Ġns": 4429,
      "Ġnull": 4430,
      "Ġdays": 4431,
      "unic": 4432,
      "ptime": 4433,
      "ĠAll": 4434,
      "Ġ15": 4435,
      "andas": 4436,
      "ĠFirst": 4437,
      "Ġsubnet": 4438,
      "byte": 4439,
      "Ġtrain": 4440,
      "AND": 4441,
      "Ġdimension": 4442,
      "Subnet": 4443,
      "riteria": 4444,
      "=%": 4445,
      "Ġamount": 4446,
      "Ġpr": 4447,
      "Ġbar": 4448,
      "ĠImage": 4449,
      "Reference": 4450,
      "ffff": 4451,
      "defaults": 4452,
      "authors": 4453,
      "tokens": 4454,
      "Meta": 4455,
      "HTTP": 4456,
      "periment": 4457,
      "bam": 4458,
      "ditions": 4459,
      "gy": 4460,
      "}{": 4461,
      "Ġ[(": 4462,
      "bucket": 4463,
      "refresh": 4464,
      "Device": 4465,
      "Unable": 4466,
      "Ġpublish": 4467,
      ">',": 4468,
      "AS": 4469,
      "HO": 4470,
      "sx": 4471,
      "inary": 4472,
      "Ġfraction": 4473,
      "rase": 4474,
      "olved": 4475,
      "Ġrank": 4476,
      "valent": 4477,
      "times": 4478,
      "ĠHow": 4479,
      "sudo": 4480,
      "Ġattrs": 4481,
      "clip": 4482,
      "Could": 4483,
      "ba": 4484,
      "cr": 4485,
      "sleep": 4486,
      "Ġrequires": 4487,
      "ctype": 4488,
      "Ġcos": 4489,
      "matches": 4490,
      "ĠDis": 4491,
      "Ġdefine": 4492,
      "ators": 4493,
      "ĠWORD": 4494,
      "ĠArray": 4495,
      "andling": 4496,
      "Ġverify": 4497,
      "COL": 4498,
      "Ġescape": 4499,
      "Su": 4500,
      "requen": 4501,
      "enabled": 4502,
      "Ġfo": 4503,
      "Ġoptim": 4504,
      "doi": 4505,
      "ATION": 4506,
      "install": 4507,
      "ĠIOError": 4508,
      "Ġown": 4509,
      "Max": 4510,
      "Options": 4511,
      ")).": 4512,
      "Ġlater": 4513,
      "Ġyaml": 4514,
      "Ġidf": 4515,
      "Ġmatched": 4516,
      "ants": 4517,
      "Connection": 4518,
      "\"]:": 4519,
      "LETE": 4520,
      "links": 4521,
      "Ġsmall": 4522,
      "\"},": 4523,
      "=',": 4524,
      "Block": 4525,
      "fmt": 4526,
      "ìķ": 4527,
      "ĠError": 4528,
      "erred": 4529,
      "Ġfuture": 4530,
      "Ġsources": 4531,
      "Ġduplic": 4532,
      "rac": 4533,
      "admin": 4534,
      "SecurityGroup": 4535,
      "comment": 4536,
      "Ġconverted": 4537,
      "Validation": 4538,
      "ï¼Į": 4539,
      "Call": 4540,
      "Wrapper": 4541,
      "dx": 4542,
      "ndim": 4543,
      "ength": 4544,
      "stract": 4545,
      "ntxt": 4546,
      "ipy": 4547,
      "fobject": 4548,
      "profile": 4549,
      "ough": 4550,
      "agent": 4551,
      "rong": 4552,
      "Ġcurrently": 4553,
      "naQuant": 4554,
      "Interface": 4555,
      "Ġparticular": 4556,
      "Test": 4557,
      "home": 4558,
      "iew": 4559,
      "sage": 4560,
      "}\"": 4561,
      "ë¦": 4562,
      "Ġinner": 4563,
      "Ġpipe": 4564,
      "namespace": 4565,
      "agement": 4566,
      "ĠThere": 4567,
      "Ġsetattr": 4568,
      "quivalent": 4569,
      "Ġattempt": 4570,
      "Query": 4571,
      "ABLE": 4572,
      "34": 4573,
      "Manager": 4574,
      "Nao": 4575,
      "Tree": 4576,
      "hmm": 4577,
      "Ġplo": 4578,
      "peting": 4579,
      "strap": 4580,
      "Ġsep": 4581,
      "Ġconfi": 4582,
      "Ġsetup": 4583,
      "logical": 4584,
      "phi": 4585,
      "tty": 4586,
      "ability": 4587,
      "Ġacross": 4588,
      "Ġinstalled": 4589,
      "Ġlocator": 4590,
      "\"%": 4591,
      "][\"": 4592,
      "cats": 4593,
      "ê°": 4594,
      "Ġna": 4595,
      "entries": 4596,
      "pture": 4597,
      "Ġcontact": 4598,
      "Ġthreads": 4599,
      "ĠAd": 4600,
      "foo": 4601,
      "Ġcompare": 4602,
      "Ġparameterstep": 4603,
      "ibling": 4604,
      "chedule": 4605,
      "Ġchanged": 4606,
      "aws": 4607,
      "Ġhours": 4608,
      "tected": 4609,
      "ĠíĮĿ": 4610,
      "TC": 4611,
      "irect": 4612,
      "ë¹": 4613,
      "devices": 4614,
      "itation": 4615,
      "Ġdrop": 4616,
      "ube": 4617,
      "Ġalong": 4618,
      "ĠBase": 4619,
      "oundId": 4620,
      "Ġedit": 4621,
      "Ġtransl": 4622,
      "ACK": 4623,
      "chars": 4624,
      "Ġdimensions": 4625,
      "stitutions": 4626,
      ":\\": 4627,
      "Api": 4628,
      "Oper": 4629,
      "air": 4630,
      "duration": 4631,
      "opt": 4632,
      "enu": 4633,
      "deg": 4634,
      "Ġsqu": 4635,
      "ĠTag": 4636,
      "Ġexclu": 4637,
      "ĠSup": 4638,
      "Ġlow": 4639,
      "Ġknown": 4640,
      "daily": 4641,
      "aving": 4642,
      "TIME": 4643,
      "Ġappe": 4644,
      "rests": 4645,
      "Ġarticle": 4646,
      "Ġcreating": 4647,
      "FF": 4648,
      "_,": 4649,
      "ping": 4650,
      "uble": 4651,
      "Ġ))": 4652,
      "Ġfetch": 4653,
      "Ġreplication": 4654,
      "Ġsun": 4655,
      "ished": 4656,
      "urls": 4657,
      "Ġdouble": 4658,
      "configure": 4659,
      "beam": 4660,
      "Ġfitting": 4661,
      "dump": 4662,
      "PA": 4663,
      "aster": 4664,
      "enance": 4665,
      "metric": 4666,
      "mak": 4667,
      "Ġstill": 4668,
      "keyword": 4669,
      "Ġstrict": 4670,
      "ĠĠĠĠĠĠĠĠĠĠĠĠĠĠĠĠĠĠĠĠĠĠĠĠĠĠĠĠĠĠĠĠĠĠĠĠĠĠĠĠĠĠĠĠĠĠĠ": 4671,
      "curren": 4672,
      "Ġlaunch": 4673,
      "train": 4674,
      "vertex": 4675,
      "Ġpositions": 4676,
      "Ġcomma": 4677,
      "ĠCopy": 4678,
      "Ġhyph": 4679,
      "Ġincludes": 4680,
      "ĠServer": 4681,
      "Ġincluding": 4682,
      "2015": 4683,
      "ĠEditor": 4684,
      "'{": 4685,
      "(\\": 4686,
      ":])": 4687,
      "=_": 4688,
      "Access": 4689,
      "blank": 4690,
      "plus": 4691,
      "include": 4692,
      "ene": 4693,
      "hest": 4694,
      "ctx": 4695,
      "ilent": 4696,
      "Ġcolour": 4697,
      "threshold": 4698,
      "inds": 4699,
      "Ġidentifi": 4700,
      "ffs": 4701,
      "abspath": 4702,
      "mbol": 4703,
      "MENT": 4704,
      "Ġbackend": 4705,
      "Ġpacket": 4706,
      "cu": 4707,
      "pot": 4708,
      "Ħì": 4709,
      "oring": 4710,
      "Ġinv": 4711,
      "Ġwell": 4712,
      "Ġdeleted": 4713,
      "ĠFI": 4714,
      "Ġencryption": 4715,
      "ĠLO": 4716,
      "buf": 4717,
      "Ġtestn": 4718,
      "getLogger": 4719,
      "Reviewing": 4720,
      "ë¹Į": 4721,
      "Cannot": 4722,
      "gno": 4723,
      "}/": 4724,
      "Ġpad": 4725,
      "Ġ''.": 4726,
      "Ġdot": 4727,
      "atest": 4728,
      "rain": 4729,
      "lack": 4730,
      "olr": 4731,
      "ĠMo": 4732,
      "okies": 4733,
      "emon": 4734,
      "summary": 4735,
      "Ġsyllable": 4736,
      "Ġbutton": 4737,
      "hostname": 4738,
      "ĠDataFrame": 4739,
      "Temp": 4740,
      "ĠíĮĿë¹Į": 4741,
      "(',": 4742,
      "44": 4743,
      "89": 4744,
      "CF": 4745,
      "ece": 4746,
      "ression": 4747,
      "enario": 4748,
      "role": 4749,
      "Ġwalk": 4750,
      "edir": 4751,
      "ublic": 4752,
      "ĠPO": 4753,
      "Ġfilepath": 4754,
      "='',": 4755,
      "{}\".": 4756,
      "ATA": 4757,
      "Ġwebdriver": 4758,
      "Ġwritten": 4759,
      "Ġaccording": 4760,
      "Prc": 4761,
      "ki": 4762,
      "wn": 4763,
      "Ġio": 4764,
      "iso": 4765,
      "ĠAN": 4766,
      "cons": 4767,
      "ĠĠĠĠĠĠĠĠĠĠĠĠĠĠĠĠĠĠĠĠĠĠĠĠĠĠĠĠĠĠĠĠĠĠĠĠĠĠĠĠĠĠ": 4768,
      "Ġpreserve": 4769,
      "__.": 4770,
      "trim": 4771,
      "Ġworker": 4772,
      "Ġpartial": 4773,
      "oxel": 4774,
      "65": 4775,
      "Cache": 4776,
      "MD": 4777,
      "YY": 4778,
      "_)": 4779,
      "uint": 4780,
      "Ġopts": 4781,
      "Ġsampling": 4782,
      "Ġexpr": 4783,
      "ollow": 4784,
      "ĠSave": 4785,
      "Ġyet": 4786,
      "ĠElastic": 4787,
      "Ġmac": 4788,
      "ĠĠĠĠĠĠĠĠĠĠĠĠĠĠĠĠĠĠĠĠĠĠĠĠĠĠĠĠĠĠĠĠĠĠĠĠĠĠĠĠĠĠĠĠ": 4789,
      "colors": 4790,
      "ĠWindow": 4791,
      "skip": 4792,
      "varNum": 4793,
      "Ġmodify": 4794,
      "subject": 4795,
      "DataFrame": 4796,
      "Calcul": 4797,
      "GB": 4798,
      "Print": 4799,
      "`:": 4800,
      "bot": 4801,
      "}'": 4802,
      "Ġ~": 4803,
      "dev": 4804,
      "')[": 4805,
      "ĠElement": 4806,
      "Ġpredict": 4807,
      "Ġhead": 4808,
      "``:": 4809,
      "poly": 4810,
      "IS": 4811,
      "Msg": 4812,
      "css": 4813,
      "opts": 4814,
      "tick": 4815,
      "§Ģ": 4816,
      "second": 4817,
      "Ġcir": 4818,
      "ĠĠĠĠĠĠĠĠĠĠĠĠĠĠĠĠĠĠĠĠĠĠĠĠĠĠĠĠĠĠĠĠĠĠĠĠĠĠĠĠĠ": 4819,
      "imer": 4820,
      "ouse": 4821,
      "Existe": 4822,
      "Ġunits": 4823,
      "Ġurls": 4824,
      "ĠDeveloper": 4825,
      "Ġactions": 4826,
      "genome": 4827,
      "scriptor": 4828,
      "Ġspeed": 4829,
      "ĠTestIO": 4830,
      "vector": 4831,
      "NaoExiste": 4832,
      "NaoExisteError": 4833,
      "Back": 4834,
      "Feature": 4835,
      "Ġau": 4836,
      "ropy": 4837,
      "Ġdraw": 4838,
      "Ġ[{": 4839,
      "ectors": 4840,
      "Ġprediction": 4841,
      "ĠOver": 4842,
      "board": 4843,
      "calcul": 4844,
      "Ġcached": 4845,
      "sentence": 4846,
      "andlers": 4847,
      "Ġnormalize": 4848,
      "Ġnormalized": 4849,
      "serialize": 4850,
      "Bst": 4851,
      "Fn": 4852,
      "UP": 4853,
      "aut": 4854,
      "ks": 4855,
      "Ġioc": 4856,
      "Ġcl": 4857,
      "lis": 4858,
      "raps": 4859,
      "ĠAR": 4860,
      "ĠAss": 4861,
      "Remote": 4862,
      "Ġdecimal": 4863,
      "ntry": 4864,
      "shard": 4865,
      "boot": 4866,
      "Ġsignature": 4867,
      "Ġoperations": 4868,
      "testing": 4869,
      "Ġ60": 4870,
      "AGIC": 4871,
      "frames": 4872,
      "Ġcollections": 4873,
      "ĠCPEComponent": 4874,
      ")-": 4875,
      "Function": 4876,
      "Role": 4877,
      "available": 4878,
      "kind": 4879,
      "Ã¡": 4880,
      "Ġcv": 4881,
      "Ġreset": 4882,
      "Ġnorm": 4883,
      "Ġpick": 4884,
      "Ġequ": 4885,
      "defined": 4886,
      "Ġvoxel": 4887,
      "coordinates": 4888,
      "Ġthree": 4889,
      "ĠIter": 4890,
      "Ġord": 4891,
      "Ext": 4892,
      "Ġcompat": 4893,
      "background": 4894,
      "Ġcreates": 4895,
      "Types": 4896,
      "pires": 4897,
      "Ġretry": 4898,
      "Ġcases": 4899,
      "deredDict": 4900,
      "ĠGenerate": 4901,
      "Line": 4902,
      "invalid": 4903,
      "Ġcas": 4904,
      "Ġbind": 4905,
      "lies": 4906,
      "Ġ:,": 4907,
      "Ġbehavi": 4908,
      "database": 4909,
      "ONE": 4910,
      "nsure": 4911,
      "binary": 4912,
      "encoded": 4913,
      "ynamic": 4914,
      "Ġfixed": 4915,
      "FL": 4916,
      "Ġå": 4917,
      "reset": 4918,
      "Ġ'<": 4919,
      "Ġ'__": 4920,
      "Ġmar": 4921,
      "(\"/": 4922,
      "ĠVersion": 4923,
      "cached": 4924,
      "embed": 4925,
      "Ġ---------": 4926,
      "grupo": 4927,
      "dicate": 4928,
      "aves": 4929,
      "cursor": 4930,
      "ĠValidation": 4931,
      "05": 4932,
      "Action": 4933,
      "LINE": 4934,
      "nmb": 4935,
      "sd": 4936,
      "Ġfore": 4937,
      "ally": 4938,
      "Ġretrieve": 4939,
      "ceive": 4940,
      "Ġ':": 4941,
      "Ġtool": 4942,
      "uler": 4943,
      "expression": 4944,
      "Ġexact": 4945,
      "Ġbeam": 4946,
      "Ġrate": 4947,
      "short": 4948,
      "numbers": 4949,
      "Ġ/=": 4950,
      "rowser": 4951,
      "iteritems": 4952,
      "Ġbuf": 4953,
      "olders": 4954,
      "beta": 4955,
      "callsign": 4956,
      "ldap": 4957,
      "Ġtempor": 4958,
      "09": 4959,
      "All": 4960,
      "BO": 4961,
      "require": 4962,
      "ste": 4963,
      "Ġavoid": 4964,
      "mes": 4965,
      "Ġcross": 4966,
      "Ġcublas": 4967,
      "Ġremaining": 4968,
      "Ġdocs": 4969,
      "Ġcurr": 4970,
      "Ġ//": 4971,
      "Change": 4972,
      "issue": 4973,
      "iddle": 4974,
      "Policy": 4975,
      "ĠService": 4976,
      "ificate": 4977,
      "imator": 4978,
      "2000": 4979,
      "_%": 4980,
      "high": 4981,
      "ral": 4982,
      "engine": 4983,
      "leg": 4984,
      "Ġdriver": 4985,
      "live": 4986,
      "mapping": 4987,
      "ĠIAM": 4988,
      "Ġratio": 4989,
      "Ġuseful": 4990,
      "progress": 4991,
      "Ġprecision": 4992,
      "Storage": 4993,
      "sgi": 4994,
      "Ġaxes": 4995,
      "LOG": 4996,
      "Ġpeak": 4997,
      "Ġvisit": 4998,
      "ĠIndexError": 4999,
      "Ġwrapped": 5000,
      "84": 5001,
      "Attributes": 5002,
      "Warning": 5003,
      "Ġtar": 5004,
      "Ġforward": 5005,
      "ider": 5006,
      "asis": 5007,
      "Ġ11": 5008,
      "Ġ[],": 5009,
      "Ġhealth": 5010,
      "__.__": 5011,
      "Exec": 5012,
      "updated": 5013,
      "latest": 5014,
      "refs": 5015,
      "Ġmodified": 5016,
      "Ġauthentication": 5017,
      "Ġallows": 5018,
      "public": 5019,
      "Output": 5020,
      "Ġelem": 5021,
      "Ġprocesses": 5022,
      "67": 5023,
      "urrent": 5024,
      "utc": 5025,
      "isdir": 5026,
      "upload": 5027,
      "diag": 5028,
      "Ġhidden": 5029,
      "extract": 5030,
      "question": 5031,
      "imation": 5032,
      "based": 5033,
      "sock": 5034,
      "Ġspan": 5035,
      "Ġsomething": 5036,
      "ifest": 5037,
      "Ġusage": 5038,
      "Ġhigher": 5039,
      "PATH": 5040,
      "LL": 5041,
      "scheme": 5042,
      "atype": 5043,
      "Ġred": 5044,
      "Ġsmooth": 5045,
      "Ġlarge": 5046,
      "ĠAuth": 5047,
      "forward": 5048,
      "indent": 5049,
      "Ġcollect": 5050,
      "iterable": 5051,
      "ĠIDs": 5052,
      "Ġactiv": 5053,
      "ĠJob": 5054,
      "blocks": 5055,
      "END": 5056,
      "Ġsurface": 5057,
      "Ġprocessed": 5058,
      "86": 5059,
      "II": 5060,
      "Tr": 5061,
      "Ġii": 5062,
      "Ġcsv": 5063,
      "Ġsimp": 5064,
      "Ġbad": 5065,
      "Ġisn": 5066,
      "Ġorbit": 5067,
      "ĠCluster": 5068,
      "ĠNew": 5069,
      "ops": 5070,
      "ĠBinary": 5071,
      "Stream": 5072,
      "tempts": 5073,
      "Ġ30": 5074,
      "disable": 5075,
      "Ġbins": 5076,
      "Ġobtain": 5077,
      "support": 5078,
      "ë¦¬": 5079,
      "Ad": 5080,
      "CS": 5081,
      "cwd": 5082,
      "tn": 5083,
      "wind": 5084,
      "ãĢ": 5085,
      "inx": 5086,
      "setdefault": 5087,
      "ĠNC": 5088,
      "Ġchart": 5089,
      "Ġwhose": 5090,
      "facet": 5091,
      "256": 5092,
      "BUG": 5093,
      "Ġclear": 5094,
      "Image": 5095,
      "Range": 5096,
      "dap": 5097,
      "sig": 5098,
      "sbjct": 5099,
      "Ġful": 5100,
      "Ġrev": 5101,
      "Ġpadding": 5102,
      "Ġvectors": 5103,
      "Ġconditions": 5104,
      "Ġlang": 5105,
      "Ġlinear": 5106,
      "KeyId": 5107,
      "arest": 5108,
      "mediately": 5109,
      "ierarch": 5110,
      "Ġneighbors": 5111,
      "ìĹħ": 5112,
      "AST": 5113,
      "Web": 5114,
      "cublas": 5115,
      "hits": 5116,
      "transp": 5117,
      "vanced": 5118,
      "walk": 5119,
      "Ġ).": 5120,
      "ĠZone": 5121,
      "alias": 5122,
      "Ġcert": 5123,
      "Ġ')": 5124,
      "Ġbig": 5125,
      "lie": 5126,
      "Ġexport": 5127,
      "Ġhal": 5128,
      "ĠAt": 5129,
      "Ġmedia": 5130,
      "pose": 5131,
      "Ġfiltered": 5132,
      "Command": 5133,
      "PIPE": 5134,
      "Ġintegr": 5135,
      "servers": 5136,
      "Ġalias": 5137,
      "Implement": 5138,
      ",'": 5139,
      "RU": 5140,
      "Sign": 5141,
      "wsgi": 5142,
      "inf": 5143,
      "quad": 5144,
      "apply": 5145,
      "Ġmade": 5146,
      "agraph": 5147,
      "ĠWrite": 5148,
      "Ġ})": 5149,
      "notes": 5150,
      "Ġentire": 5151,
      "Ġworking": 5152,
      "Ġqueries": 5153,
      "Ġipv": 5154,
      "caten": 5155,
      "Ġroutine": 5156,
      "Ġcourse": 5157,
      "Ġcoefficient": 5158,
      ".\\": 5159,
      "=\"\"": 5160,
      "after": 5161,
      "wb": 5162,
      "onal": 5163,
      "attach": 5164,
      "Ġtip": 5165,
      "cepts": 5166,
      "Ġmig": 5167,
      "ĠSource": 5168,
      "ighest": 5169,
      "Ġwhites": 5170,
      "Ġshard": 5171,
      "ĠInitial": 5172,
      "Ġpermission": 5173,
      "ALL": 5174,
      "Ġìŀ": 5175,
      "Ġìł": 5176,
      "Ġmonomial": 5177,
      "LAS": 5178,
      "Generator": 5179,
      "IAM": 5180,
      "OK": 5181,
      "ZE": 5182,
      "factory": 5183,
      "hu": 5184,
      "mot": 5185,
      "px": 5186,
      "ui": 5187,
      "redirect": 5188,
      "ctest": 5189,
      "Ġgive": 5190,
      "ised": 5191,
      "viation": 5192,
      "Ġresources": 5193,
      "Ġfails": 5194,
      "requests": 5195,
      "steps": 5196,
      "transform": 5197,
      "Ġhistogram": 5198,
      "JSON": 5199,
      "Port": 5200,
      "Rat": 5201,
      "dst": 5202,
      "final": 5203,
      "ħë": 5204,
      "Ġcriteria": 5205,
      "geo": 5206,
      "ueue": 5207,
      "setup": 5208,
      "Ġouter": 5209,
      "Ġinterpol": 5210,
      "Process": 5211,
      "hours": 5212,
      "Ġdefinition": 5213,
      "naQuantification": 5214,
      "CL": 5215,
      "PU": 5216,
      "Url": 5217,
      "double": 5218,
      "lc": 5219,
      "sn": 5220,
      "oriz": 5221,
      "Ġfg": 5222,
      "als": 5223,
      "Ġnet": 5224,
      "Ġev": 5225,
      "uting": 5226,
      "odename": 5227,
      "actors": 5228,
      "book": 5229,
      "referred": 5230,
      "mitted": 5231,
      "Ġspecifying": 5232,
      "assign": 5233,
      "Ġcalculated": 5234,
      "Ġrouting": 5235,
      "Ġowner": 5236,
      "_.": 5237,
      "cap": 5238,
      "sf": 5239,
      "ws": 5240,
      "åŃ": 5241,
      "orld": 5242,
      "Ġvhost": 5243,
      "('_": 5244,
      "Ref": 5245,
      "Ġparsing": 5246,
      "ĠPage": 5247,
      "found": 5248,
      "proc": 5249,
      "acter": 5250,
      "Ġtrying": 5251,
      "docker": 5252,
      "Ġ{},": 5253,
      "contrib": 5254,
      "utoff": 5255,
      "Ġmolecule": 5256,
      "Ġ'.'": 5257,
      "Ġcommdct": 5258,
      "Ġregions": 5259,
      "Ġseparate": 5260,
      "Ġconnected": 5261,
      "Collection": 5262,
      "Ġmeasure": 5263,
      "requency": 5264,
      "gnored": 5265,
      "FN": 5266,
      "dence": 5267,
      "synchronous": 5268,
      "Ĥ¬": 5269,
      "Ġdid": 5270,
      "Ġborder": 5271,
      "cour": 5272,
      "Ġshared": 5273,
      "anti": 5274,
      "Ġnome": 5275,
      "Ġcallsign": 5276,
      "ĠaryMdl": 5277,
      "ferred": 5278,
      "Ġlibrary": 5279,
      "Ġaccepted": 5280,
      "ëĭ¤": 5281,
      "Ġletter": 5282,
      "Ġexplicitly": 5283,
      "ĠDocumentation": 5284,
      "'},": 5285,
      ">\\": 5286,
      "Cn": 5287,
      "ava": 5288,
      "ftime": 5289,
      "glob": 5290,
      "pwm": 5291,
      "Ġutils": 5292,
      "Ġctxt": 5293,
      "Ġpur": 5294,
      "Ġeffect": 5295,
      "ssl": 5296,
      "Ġ\"_": 5297,
      "ĠStop": 5298,
      "ĠMon": 5299,
      "prec": 5300,
      "Ġroute": 5301,
      "Ġunknown": 5302,
      "INT": 5303,
      "users": 5304,
      "dicates": 5305,
      "Proxy": 5306,
      "Ġterms": 5307,
      "plotlib": 5308,
      "Service": 5309,
      "NotFoundError": 5310,
      "specific": 5311,
      "Cnfg": 5312,
      "39": 5313,
      "EM": 5314,
      "IR": 5315,
      "fits": 5316,
      "wave": 5317,
      "Ġvdn": 5318,
      "Ġcontour": 5319,
      "taint": 5320,
      "Ġhapp": 5321,
      "quent": 5322,
      "ĠStack": 5323,
      "Ġproxy": 5324,
      "percent": 5325,
      "Ġ255": 5326,
      "]).": 5327,
      "ĠOpen": 5328,
      "Ġsubclass": 5329,
      "Ġregular": 5330,
      "Ġcast": 5331,
      "created": 5332,
      "ordinate": 5333,
      "dimension": 5334,
      "Ġactually": 5335,
      "cert": 5336,
      "Description": 5337,
      "So": 5338,
      "font": 5339,
      "flatten": 5340,
      "lgc": 5341,
      "qa": 5342,
      "lip": 5343,
      "Ġisland": 5344,
      "ĠSS": 5345,
      "Ġprovider": 5346,
      "Ġcontract": 5347,
      "ĠOne": 5348,
      "Ġconfigured": 5349,
      "ĠHIT": 5350,
      "backend": 5351,
      "Ġstatistics": 5352,
      "ĠIdentifier": 5353,
      "VERSION": 5354,
      "duced": 5355,
      "ierarchy": 5356,
      "eval": 5357,
      "members": 5358,
      "Ġequivalent": 5359,
      "Ġann": 5360,
      "exist": 5361,
      "('.')": 5362,
      "Remove": 5363,
      "Ġ1000": 5364,
      "ĠCache": 5365,
      "izing": 5366,
      "fobj": 5367,
      "Ġ24": 5368,
      "Ġ-->": 5369,
      "Ġversions": 5370,
      "before": 5371,
      "ĠSearch": 5372,
      "SET": 5373,
      "Ġ50": 5374,
      "AGE": 5375,
      "ELL": 5376,
      "ĠCalculate": 5377,
      "ä»¶": 5378,
      "ê°Ģ": 5379,
      "ĠWindows": 5380,
      "Int": 5381,
      "rupo": 5382,
      "åĪ": 5383,
      "Ġtakes": 5384,
      "ertain": 5385,
      "enum": 5386,
      "Ġvip": 5387,
      "Ġsender": 5388,
      "('--": 5389,
      "Ġ14": 5390,
      "ĠSpeci": 5391,
      "']]": 5392,
      "inder": 5393,
      "ĠMin": 5394,
      "prev": 5395,
      "Ġcontrib": 5396,
      "instances": 5397,
      "loader": 5398,
      "Ġvals": 5399,
      "compat": 5400,
      "Ġqueryset": 5401,
      "Builder": 5402,
      "Failed": 5403,
      "ĠTraceback": 5404,
      "Customer": 5405,
      "lieve": 5406,
      "255": 5407,
      "Form": 5408,
      "Snapshot": 5409,
      "SUB": 5410,
      "bl": 5411,
      "bad": 5412,
      "bib": 5413,
      "dill": 5414,
      "gent": 5415,
      "uses": 5416,
      "Ã§": 5417,
      "Ġturn": 5418,
      "Ġamp": 5419,
      "Ġba": 5420,
      "Ġbro": 5421,
      "verify": 5422,
      "Ġorgan": 5423,
      "power": 5424,
      "Ġ</": 5425,
      "ĠOption": 5426,
      "ĠBo": 5427,
      "Ġdicts": 5428,
      "ibility": 5429,
      "ongo": 5430,
      "ENT": 5431,
      "generator": 5432,
      "seqs": 5433,
      "Ġpotential": 5434,
      "ĠLOG": 5435,
      "31": 5436,
      "Capacity": 5437,
      "FORM": 5438,
      "Write": 5439,
      "cdf": 5440,
      "free": 5441,
      "mma": 5442,
      "Īëĭ¤": 5443,
      "sen": 5444,
      "Ġcloud": 5445,
      "Ġpers": 5446,
      "Ġplatform": 5447,
      "Ġpandas": 5448,
      "Ġ'*": 5449,
      "uess": 5450,
      "Ġbasic": 5451,
      "Ġconstraints": 5452,
      "ĠSo": 5453,
      "prob": 5454,
      "Ġshutil": 5455,
      "ĠGiven": 5456,
      "Ġstarts": 5457,
      "splitext": 5458,
      "some": 5459,
      "Log": 5460,
      "Location": 5461,
      "Resource": 5462,
      "Ġexponent": 5463,
      "Ġquad": 5464,
      "Ġsteps": 5465,
      "Elements": 5466,
      "changed": 5467,
      "Ġnegate": 5468,
      "Ġvolumes": 5469,
      "Ġhistory": 5470,
      "ëĭĪëĭ¤": 5471,
      "Ġimplementation": 5472,
      "36": 5473,
      "Ut": 5474,
      "don": 5475,
      "mk": 5476,
      "png": 5477,
      "ratio": 5478,
      "tz": 5479,
      "íļĮìĽĲ": 5480,
      "Ġqui": 5481,
      "helper": 5482,
      "details": 5483,
      "Ġlatest": 5484,
      "ĠCON": 5485,
      "Ġkeywords": 5486,
      "ĠWork": 5487,
      "Ġunless": 5488,
      "Ġaddresses": 5489,
      "Ġreads": 5490,
      "Ġmodules": 5491,
      "Ġiteration": 5492,
      "GroupSet": 5493,
      "Ġsending": 5494,
      "Ġtrigger": 5495,
      "limiter": 5496,
      "ultiple": 5497,
      "RA": 5498,
      "WORD": 5499,
      "pid": 5500,
      "xs": 5501,
      "µëĭĪëĭ¤": 5502,
      "æĸ": 5503,
      "ìł": 5504,
      "ĬµëĭĪëĭ¤": 5505,
      "delay": 5506,
      "ality": 5507,
      "Ġmime": 5508,
      "identifier": 5509,
      "isnan": 5510,
      "Ġstation": 5511,
      "Ġmembers": 5512,
      "posed": 5513,
      "Ġ------": 5514,
      "Ġkernel": 5515,
      "INS": 5516,
      "sole": 5517,
      "grids": 5518,
      "genus": 5519,
      "Unknown": 5520,
      "ĠCompute": 5521,
      "destination": 5522,
      "ARNING": 5523,
      "iosample": 5524,
      "ĠImportError": 5525,
      "\"].": 5526,
      "27": 5527,
      "Root": 5528,
      "rms": 5529,
      "uous": 5530,
      "Ġum": 5531,
      "ĠâĶ": 5532,
      "repe": 5533,
      "Ġtab": 5534,
      "Ġav": 5535,
      "Ġ=>": 5536,
      "Ġcertain": 5537,
      "Ġreply": 5538,
      "Ġny": 5539,
      "Ġcover": 5540,
      "ĠValues": 5541,
      "byref": 5542,
      "inalg": 5543,
      "sampled": 5544,
      "fastq": 5545,
      "USER": 5546,
      "Ġfailure": 5547,
      "Ġcreation": 5548,
      "VALUE": 5549,
      "Ġrotation": 5550,
      "ĠíĮĿë¹ĮíļĮìĽĲ": 5551,
      "Ġwhitespace": 5552,
      "97": 5553,
      "Json": 5554,
      "PUT": 5555,
      "WA": 5556,
      "`)": 5557,
      "rb": 5558,
      "tle": 5559,
      "relative": 5560,
      "Ġaround": 5561,
      "Ġpix": 5562,
      "Ġpower": 5563,
      "amma": 5564,
      "Ġland": 5565,
      "('#": 5566,
      "ĠFast": 5567,
      "pology": 5568,
      "ĠĠĠĠĠĠĠĠĠĠĠĠĠĠĠĠĠĠĠĠĠĠĠĠĠĠĠĠĠĠĠĠĠĠĠĠĠĠĠĠĠĠĠĠĠ": 5569,
      "proces": 5570,
      "codes": 5571,
      "ĠWh": 5572,
      "ExJ": 5573,
      "Expression": 5574,
      "Ġservices": 5575,
      "soup": 5576,
      "Ġregistry": 5577,
      "Seconds": 5578,
      "ART": 5579,
      "letion": 5580,
      "publish": 5581,
      "ĠAllow": 5582,
      "PY": 5583,
      "Prm": 5584,
      "SP": 5585,
      "ior": 5586,
      "Ĩ¡": 5587,
      "decorator": 5588,
      "leet": 5589,
      "Ġcel": 5590,
      "Ġcategory": 5591,
      "Ġinside": 5592,
      "Ġequipamento": 5593,
      "Ġcores": 5594,
      "tached": 5595,
      "confi": 5596,
      "Ġgot": 5597,
      "ĠEngine": 5598,
      "ĠMark": 5599,
      "ĠUsage": 5600,
      "Ġbuilt": 5601,
      "sumer": 5602,
      "DEBUG": 5603,
      "Ġworks": 5604,
      "Ġtaken": 5605,
      "Ġcountry": 5606,
      "Ġgenome": 5607,
      "ĠNotes": 5608,
      "Ġbounds": 5609,
      "inuous": 5610,
      "ĠìķĬ": 5611,
      "AGICC": 5612,
      "Implemented": 5613,
      "DD": 5614,
      "PRE": 5615,
      "ee": 5616,
      "reverse": 5617,
      "Ġtpl": 5618,
      "defin": 5619,
      "Ġ(-": 5620,
      "idf": 5621,
      "chor": 5622,
      "Ġ\"--": 5623,
      "Ġlogs": 5624,
      "ship": 5625,
      "Ġresolution": 5626,
      "ĠHandle": 5627,
      "Context": 5628,
      "ĠDetermine": 5629,
      "Ġupdates": 5630,
      "Ġtrail": 5631,
      "radians": 5632,
      "Ġmanager": 5633,
      "={'": 5634,
      "ECT": 5635,
      "Authentication": 5636,
      "Ġpeer": 5637,
      "GI": 5638,
      "smooth": 5639,
      "erce": 5640,
      "Ġep": 5641,
      "lict": 5642,
      "strftime": 5643,
      "adir": 5644,
      "getattr": 5645,
      "Ġhp": 5646,
      "etadata": 5647,
      "Ġdegrees": 5648,
      "Ġaspect": 5649,
      "provider": 5650,
      "ildcard": 5651,
      "scricao": 5652,
      "complex": 5653,
      "Ġformats": 5654,
      "ĠaryPrfTc": 5655,
      "################": 5656,
      "cx": 5657,
      "Ġds": 5658,
      "Ġdue": 5659,
      "pter": 5660,
      "Ġconversion": 5661,
      "tailed": 5662,
      "Ġdic": 5663,
      "period": 5664,
      "ĠĠĠĠĠĠĠĠĠĠĠĠĠĠĠĠĠĠĠĠĠĠĠĠĠĠĠĠĠĠĠĠĠĠĠĠĠĠĠĠĠĠĠĠĠĠĠĠĠĠĠ": 5665,
      "Ġlex": 5666,
      "Ġcompress": 5667,
      "nots": 5668,
      "abel": 5669,
      "country": 5670,
      "mbiente": 5671,
      "Server": 5672,
      "Ġvariance": 5673,
      "================": 5674,
      "sensitive": 5675,
      "JobFn": 5676,
      "ĠTemplate": 5677,
      "Ĥ¬ìĹħ": 5678,
      "(__": 5679,
      "border": 5680,
      "href": 5681,
      "lang": 5682,
      "plit": 5683,
      "inner": 5684,
      "inyin": 5685,
      "rev": 5686,
      "enable": 5687,
      "ences": 5688,
      "ancy": 5689,
      "Ġwidget": 5690,
      "Ġvo": 5691,
      "Ġdelay": 5692,
      "Ġdevices": 5693,
      "Ġdigits": 5694,
      "istic": 5695,
      "(\"-": 5696,
      "protocol": 5697,
      "Ġidentity": 5698,
      "Ġhex": 5699,
      "Exp": 5700,
      "Ġ{})": 5701,
      "running": 5702,
      "Ġtables": 5703,
      "Ġstatement": 5704,
      "Ġlevels": 5705,
      "Ġtemperature": 5706,
      "ĠNotImplemented": 5707,
      "ìĿ´": 5708,
      "Ġradius": 5709,
      "ãĢĤ": 5710,
      ")\"": 5711,
      ")**": 5712,
      "1000": 5713,
      "Download": 5714,
      "If": 5715,
      "jac": 5716,
      "multi": 5717,
      "platform": 5718,
      "xdo": 5719,
      "orph": 5720,
      "lev": 5721,
      "Ġcredentials": 5722,
      "utdown": 5723,
      "Ġmis": 5724,
      "dif": 5725,
      "Ġ13": 5726,
      "Ġgra": 5727,
      "readline": 5728,
      "ports": 5729,
      "Ġscreen": 5730,
      "Ġscipy": 5731,
      "acy": 5732,
      "Ġauthors": 5733,
      "Ġprocessing": 5734,
      "Ġphi": 5735,
      "Ġindicating": 5736,
      "Register": 5737,
      "MODE": 5738,
      "ĠPoint": 5739,
      "28": 5740,
      "EE": 5741,
      "TA": 5742,
      "View": 5743,
      "]],": 5744,
      "xpath": 5745,
      "ìĭ": 5746,
      "Ġtb": 5747,
      "degrees": 5748,
      "Ġcp": 5749,
      "rot": 5750,
      "lope": 5751,
      "parsed": 5752,
      "dictionary": 5753,
      "this": 5754,
      "ĠAc": 5755,
      "ĠSend": 5756,
      "Ġcomplex": 5757,
      "Ġauthentic": 5758,
      "Ġhostname": 5759,
      "Ġassigned": 5760,
      "Ġgeometry": 5761,
      "Ġelems": 5762,
      "finite": 5763,
      "ceiver": 5764,
      "catenate": 5765,
      ".'''": 5766,
      "As": 5767,
      "ĩä»¶": 5768,
      "seed": 5769,
      "selection": 5770,
      "sender": 5771,
      "Ġrec": 5772,
      "Ġ'+": 5773,
      "Ġetree": 5774,
      "loco": 5775,
      "lare": 5776,
      "Ġconstraint": 5777,
      "Ġexamples": 5778,
      "ĠPri": 5779,
      "using": 5780,
      "Ġdoing": 5781,
      "modified": 5782,
      "Ġboot": 5783,
      "axes": 5784,
      "begin": 5785,
      "Detail": 5786,
      "acl": 5787,
      "correct": 5788,
      "display": 5789,
      "Ġchains": 5790,
      "UBLAS": 5791,
      "velop": 5792,
      "Control": 5793,
      "alancer": 5794,
      "BE": 5795,
      "You": 5796,
      "kip": 5797,
      "speci": 5798,
      "wt": 5799,
      "yd": 5800,
      "ê³": 5801,
      "Ġfh": 5802,
      "Ġpatch": 5803,
      "Ġobs": 5804,
      "Ġvirtual": 5805,
      "Ġexchange": 5806,
      "Ġdeg": 5807,
      "Ġadding": 5808,
      "Ġspecifies": 5809,
      "subprocess": 5810,
      "Ġmoment": 5811,
      "SECustomer": 5812,
      "related": 5813,
      "sqr": 5814,
      "Ġtopics": 5815,
      "Ġreplacement": 5816,
      "IPv": 5817,
      "Ġpackages": 5818,
      "history": 5819,
      "which": 5820,
      "Calculate": 5821,
      "29": 5822,
      "Match": 5823,
      "bi": 5824,
      "category": 5825,
      "fd": 5826,
      "lint": 5827,
      "uv": 5828,
      "reply": 5829,
      "Ġfs": 5830,
      "Ġren": 5831,
      "Ġmath": 5832,
      "Ġ##": 5833,
      "coords": 5834,
      "Ġsecret": 5835,
      "('{": 5836,
      "versed": 5837,
      "Ġgit": 5838,
      "tology": 5839,
      "ĠĠĠĠĠĠĠĠĠĠĠĠĠĠĠĠĠĠĠĠĠĠĠĠĠĠĠĠĠĠĠĠĠĠĠĠĠĠĠĠĠĠĠĠĠĠ": 5840,
      "actual": 5841,
      "ĠLa": 5842,
      "Ġnoise": 5843,
      "Ġworkers": 5844,
      "account": 5845,
      "findall": 5846,
      "methods": 5847,
      "ĠSets": 5848,
      "observ": 5849,
      "general": 5850,
      "Annotation": 5851,
      "Ġphase": 5852,
      "linspace": 5853,
      "Ġrepeat": 5854,
      "Ġarchive": 5855,
      "Ġcatalog": 5856,
      "Ã§Ã£o": 5857,
      "Pos": 5858,
      "XT": 5859,
      "cad": 5860,
      "hidden": 5861,
      "mer": 5862,
      "ny": 5863,
      "ools": 5864,
      "æľ": 5865,
      "Ġtup": 5866,
      "encies": 5867,
      "ara": 5868,
      "Ġcandid": 5869,
      "Ġpie": 5870,
      "Ġslot": 5871,
      "utor": 5872,
      "Ġmx": 5873,
      "esca": 5874,
      "Ġuid": 5875,
      "Ġloader": 5876,
      "Ġalarm": 5877,
      "Ġyo": 5878,
      "ĠEnd": 5879,
      "ĠLinux": 5880,
      "Ġmatplotlib": 5881,
      "Expr": 5882,
      "note": 5883,
      "ĠParse": 5884,
      "trics": 5885,
      "Ġchars": 5886,
      "registry": 5887,
      "Ġvars": 5888,
      "Ġtopic": 5889,
      "Ġpatterns": 5890,
      "cosmo": 5891,
      "ategories": 5892,
      "cpus": 5893,
      "ĠNOT": 5894,
      "Ġdescribed": 5895,
      "ctypes": 5896,
      "ydPy": 5897,
      "Schema": 5898,
      "Ter": 5899,
      "ege": 5900,
      "merge": 5901,
      "solver": 5902,
      "tot": 5903,
      "ush": 5904,
      "volume": 5905,
      "æķ": 5906,
      "Ġunc": 5907,
      "Ġsx": 5908,
      "Ġdjango": 5909,
      "amo": 5910,
      "Ġreturning": 5911,
      "ĠTags": 5912,
      "reader": 5913,
      "activ": 5914,
      "Ġcurve": 5915,
      "Ġurllib": 5916,
      "nome": 5917,
      "cular": 5918,
      "foreign": 5919,
      "Ġlocations": 5920,
      "ĠEnable": 5921,
      "Ġindicates": 5922,
      "channels": 5923,
      "Ġartifact": 5924,
      "Ġchannels": 5925,
      "Ġidentify": 5926,
      "ĠDOM": 5927,
      "Hrf": 5928,
      "city": 5929,
      "indel": 5930,
      "ertaint": 5931,
      "Ġrep": 5932,
      "Ġrename": 5933,
      "Ġrepr": 5934,
      "Ġpt": 5935,
      "Ġequip": 5936,
      "Ġden": 5937,
      "cover": 5938,
      "getId": 5939,
      "ĠIp": 5940,
      "quote": 5941,
      "ĠSA": 5942,
      "Ġdecor": 5943,
      "Ġalph": 5944,
      "ĠDjango": 5945,
      "Ġwhole": 5946,
      "props": 5947,
      "Ġshift": 5948,
      "epcopy": 5949,
      "positions": 5950,
      "Ġvalidator": 5951,
      "Dataset": 5952,
      "Ġtransaction": 5953,
      "hosts": 5954,
      "Nodes": 5955,
      "CODE": 5956,
      "Ġagent": 5957,
      "ĠMessage": 5958,
      "Pool": 5959,
      "Ġfasta": 5960,
      "Ġconverter": 5961,
      "Ġswitch": 5962,
      "\"}": 5963,
      "$',": 5964,
      ".%": 5965,
      "Lgc": 5966,
      "NE": 5967,
      "syn": 5968,
      "ini": 5969,
      "atoms": 5970,
      "Ġinverse": 5971,
      "Ġplan": 5972,
      "Ġexternal": 5973,
      "Ġdiction": 5974,
      "fileStore": 5975,
      "ĠThese": 5976,
      "Ġwhite": 5977,
      "Ġdoctest": 5978,
      "builder": 5979,
      "Ġreading": 5980,
      "Ġinterpre": 5981,
      "outputs": 5982,
      "Ġtargets": 5983,
      "crement": 5984,
      "layout": 5985,
      "fully": 5986,
      "hood": 5987,
      "choice": 5988,
      "SCII": 5989,
      "neighbors": 5990,
      "ecef": 5991,
      "CC": 5992,
      "DU": 5993,
      "Lay": 5994,
      "System": 5995,
      "XX": 5996,
      "frac": 5997,
      "hland": 5998,
      "pb": 5999,
      "rewrite": 6000,
      "Ġnu": 6001,
      "Ġprom": 6002,
      "rash": 6003,
      "Ġnotification": 6004,
      "assert": 6005,
      "outer": 6006,
      "product": 6007,
      "trace": 6008,
      "assis": 6009,
      "argv": 6010,
      "Ġsafe": 6011,
      "selected": 6012,
      "push": 6013,
      "getLocal": 6014,
      "tipo": 6015,
      "snapshots": 6016,
      "ĠNotImplementedError": 6017,
      "Ac": 6018,
      "Button": 6019,
      "FC": 6020,
      "MIN": 6021,
      "SM": 6022,
      "Ver": 6023,
      "ied": 6024,
      "mime": 6025,
      "¸ìĦľ": 6026,
      "Ġç": 6027,
      "Ġasp": 6028,
      "heet": 6029,
      "Ġclosed": 6030,
      "Ġretrie": 6031,
      "seline": 6032,
      "Ġeq": 6033,
      "peer": 6034,
      "Ġseen": 6035,
      "Ġglob": 6036,
      "ĠST": 6037,
      "chemy": 6038,
      "Ġidd": 6039,
      "joint": 6040,
      "ĠWill": 6041,
      "ird": 6042,
      "curr": 6043,
      "clusters": 6044,
      "Ġfilenames": 6045,
      "syllable": 6046,
      "Ġexecuted": 6047,
      "relations": 6048,
      "ĠGets": 6049,
      "Ġmonitor": 6050,
      "DBInstance": 6051,
      "parsers": 6052,
      "fasta": 6053,
      "ĠChecks": 6054,
      "ĠOrderedDict": 6055,
      "Ġctx": 6056,
      "Ġdetermined": 6057,
      "Ġoccurrences": 6058,
      "semble": 6059,
      "ĠHowever": 6060,
      "76": 6061,
      "linalg": 6062,
      "ple": 6063,
      "inv": 6064,
      "rec": 6065,
      "Ġfm": 6066,
      "Ġscheme": 6067,
      "Ġdates": 6068,
      "edit": 6069,
      "asc": 6070,
      "oute": 6071,
      "owel": 6072,
      "Ġraises": 6073,
      "Ġmagn": 6074,
      "cations": 6075,
      "Ġknow": 6076,
      "Ġoptionally": 6077,
      "DELETE": 6078,
      "sym": 6079,
      "partial": 6080,
      "Ġdownloaded": 6081,
      "Ġgood": 6082,
      "ĠColor": 6083,
      "Ġplott": 6084,
      "Cre": 6085,
      "basic": 6086,
      "¥ë": 6087,
      "ê´": 6088,
      "Ġignored": 6089,
      "Ġfp": 6090,
      "Ġfallback": 6091,
      "Ġsn": 6092,
      "rag": 6093,
      "Ġans": 6094,
      "identity": 6095,
      "ĠTrans": 6096,
      "vest": 6097,
      "ĠCom": 6098,
      "Ġ25": 6099,
      "liter": 6100,
      "ynomial": 6101,
      "visit": 6102,
      "Any": 6103,
      "contains": 6104,
      "Ġtraceback": 6105,
      "Ġfigure": 6106,
      "Ġdaily": 6107,
      "Ġpipeline": 6108,
      "Ġfully": 6109,
      ")+": 6110,
      "90": 6111,
      "Option": 6112,
      "SA": 6113,
      "aa": 6114,
      "eq": 6115,
      "fp": 6116,
      "qs": 6117,
      "wraps": 6118,
      "Ġreason": 6119,
      "Ġscores": 6120,
      "uter": 6121,
      "lihood": 6122,
      "unpack": 6123,
      "digest": 6124,
      "ĠDate": 6125,
      "outine": 6126,
      "scribe": 6127,
      "ranches": 6128,
      "ĠInst": 6129,
      "clusive": 6130,
      "Connect": 6131,
      "sky": 6132,
      "Ġclassifier": 6133,
      "center": 6134,
      "Ġadmin": 6135,
      "ĠIPA": 6136,
      "Ġ\"\":": 6137,
      "functions": 6138,
      "MAX": 6139,
      "Ġauthorization": 6140,
      "operator": 6141,
      "ĠCommandError": 6142,
      "ĦìĨ¡": 6143,
      "edirs": 6144,
      "Ĥ¬ìĹħìŀĲ": 6145,
      ".\",": 6146,
      "Dec": 6147,
      "Length": 6148,
      "NULL": 6149,
      "button": 6150,
      "gradient": 6151,
      "rgb": 6152,
      "sources": 6153,
      "rise": 6154,
      "Ġgradient": 6155,
      "ets": 6156,
      "Ġdescriptor": 6157,
      "ĠFAST": 6158,
      "orders": 6159,
      "ĠEmail": 6160,
      "ĠĠĠĠĠĠĠĠĠĠĠĠĠĠĠĠĠĠĠĠĠĠĠĠĠĠĠĠĠĠĠĠĠĠĠĠĠĠĠĠĠĠĠĠĠĠĠĠĠĠĠĠĠĠĠĠĠĠĠĠĠĠĠĠ": 6161,
      "Ġprevent": 6162,
      "ĠIndicator": 6163,
      "ĠìĤ¬ìĹħìŀĲ": 6164,
      "common": 6165,
      "ĠAdds": 6166,
      "ĠResult": 6167,
      "Ġdistances": 6168,
      "Ġplaceholder": 6169,
      "Iteration": 6170,
      "Formatter": 6171,
      "Ġassumed": 6172,
      "escape": 6173,
      ".],": 6174,
      "Act": 6175,
      "Mode": 6176,
      "Pe": 6177,
      "SD": 6178,
      "Sd": 6179,
      "Tuple": 6180,
      "ball": 6181,
      "django": 6182,
      "eg": 6183,
      "ered": 6184,
      "ov": 6185,
      "remaining": 6186,
      "Ġinformed": 6187,
      "Ġinstrument": 6188,
      "peak": 6189,
      "Ġhref": 6190,
      "Ġhandling": 6191,
      "contour": 6192,
      "ĠSome": 6193,
      "Ġlock": 6194,
      "extension": 6195,
      "Ġ<<": 6196,
      "Ġresulting": 6197,
      "moves": 6198,
      "bins": 6199,
      "Ġrepresents": 6200,
      "Ġrepresented": 6201,
      "transition": 6202,
      "Ġmaps": 6203,
      "Ġlayout": 6204,
      "HTML": 6205,
      "Results": 6206,
      "Ġinterpolation": 6207,
      "precated": 6208,
      "egean": 6209,
      "La": 6210,
      "gers": 6211,
      "ude": 6212,
      "}`": 6213,
      "storage": 6214,
      "pet": 6215,
      "urnal": 6216,
      "Ġ\"'": 6217,
      "major": 6218,
      "ĠAMI": 6219,
      "')]": 6220,
      "ĠPort": 6221,
      "ĠReference": 6222,
      "screen": 6223,
      "Ġpagin": 6224,
      "jectory": 6225,
      "Tools": 6226,
      "ranges": 6227,
      "Ġsupports": 6228,
      "radius": 6229,
      "Ġdifference": 6230,
      "packages": 6231,
      "magic": 6232,
      "Ġbottom": 6233,
      "chains": 6234,
      "Ġembedding": 6235,
      "dependent": 6236,
      "ê´Ģ": 6237,
      "!\")": 6238,
      ")(": 6239,
      "*)": 6240,
      "/',": 6241,
      "IST": 6242,
      "Sup": 6243,
      "Watch": 6244,
      "cles": 6245,
      "security": 6246,
      "Ġaut": 6247,
      "Ġfont": 6248,
      "Ġflatten": 6249,
      "Ġprompt": 6250,
      "Ġsdp": 6251,
      "lio": 6252,
      "strPath": 6253,
      "cogn": 6254,
      "chrom": 6255,
      "Ġcookie": 6256,
      "))))": 6257,
      "ĠScaling": 6258,
      "Ġlocale": 6259,
      "ĠCustom": 6260,
      "***": 6261,
      "vided": 6262,
      "ased": 6263,
      "Ġalt": 6264,
      "ventory": 6265,
      "Ġnever": 6266,
      "Stat": 6267,
      "west": 6268,
      "signature": 6269,
      "media": 6270,
      "ĠSeries": 6271,
      "click": 6272,
      "Ġboundary": 6273,
      "althCheck": 6274,
      "Ġcourses": 6275,
      "Ġsuccessfully": 6276,
      "sensus": 6277,
      "Ġfacet": 6278,
      "Ġappear": 6279,
      "ĠSpecify": 6280,
      "ê´Ģë¦¬": 6281,
      "/(": 6282,
      "KS": 6283,
      "Network": 6284,
      "Vol": 6285,
      "average": 6286,
      "mid": 6287,
      "Ġdum": 6288,
      "idual": 6289,
      "dims": 6290,
      "asarray": 6291,
      "Ġ[])": 6292,
      "timegrids": 6293,
      "ĠMulti": 6294,
      "Ġweek": 6295,
      "aging": 6296,
      "...')": 6297,
      "litude": 6298,
      "Ġresponses": 6299,
      "ĠHttp": 6300,
      "Ġranges": 6301,
      "ĠDelete": 6302,
      "Ġperformed": 6303,
      "compress": 6304,
      "ĠContext": 6305,
      "corr": 6306,
      "Ġ\"\",": 6307,
      "wards": 6308,
      "speed": 6309,
      "memory": 6310,
      "Ġspaces": 6311,
      "Ġconside": 6312,
      "Ġstripped": 6313,
      "Ġobservations": 6314,
      "Dep": 6315,
      "Email": 6316,
      "Mapping": 6317,
      "OF": 6318,
      "Rsp": 6319,
      "TF": 6320,
      "blob": 6321,
      "kg": 6322,
      "padding": 6323,
      "tic": 6324,
      "zed": 6325,
      "âķ": 6326,
      "Ġqual": 6327,
      "internal": 6328,
      "onical": 6329,
      "Ġaffect": 6330,
      "Ġrecur": 6331,
      "Ġnr": 6332,
      "analy": 6333,
      "Ġsolution": 6334,
      "Ġsbjct": 6335,
      "Ġga": 6336,
      "ĠSchema": 6337,
      "Ġrv": 6338,
      "Ġrms": 6339,
      "ippr": 6340,
      "ĠPreferred": 6341,
      "ĠNetCDF": 6342,
      "\")[": 6343,
      "precip": 6344,
      "ĠGit": 6345,
      "phase": 6346,
      "owner": 6347,
      "ĠDevice": 6348,
      "iteral": 6349,
      "Ġgeneral": 6350,
      "ValueError": 6351,
      "ĠaryFunc": 6352,
      "Ġderiv": 6353,
      "supported": 6354,
      "Ġestimator": 6355,
      "('/')": 6356,
      "herit": 6357,
      "lapsed": 6358,
      "Ġsnapshots": 6359,
      "elem": 6360,
      "Ġconsidered": 6361,
      "CUBLAS": 6362,
      "Ĳĺì": 6363,
      "aling": 6364,
      "Ġcla": 6365,
      "Ġnii": 6366,
      "ital": 6367,
      "Ġepoch": 6368,
      "uts": 6369,
      "Ġaltern": 6370,
      "dates": 6371,
      "ivot": 6372,
      "Ġprecip": 6373,
      "Ġadds": 6374,
      "Ġchecking": 6375,
      "STR": 6376,
      "Ġexpand": 6377,
      "ffic": 6378,
      "Ġlonger": 6379,
      "Ġmakes": 6380,
      "Ġhook": 6381,
      "lished": 6382,
      "ĠFastly": 6383,
      "ìĿ´ë": 6384,
      "((\"": 6385,
      ")`": 6386,
      ":],": 6387,
      "Password": 6388,
      "Send": 6389,
      "Tra": 6390,
      "]-": 6391,
      "gpu": 6392,
      "iform": 6393,
      "win": 6394,
      "arger": 6395,
      "Ġeli": 6396,
      "ĠText": 6397,
      "dio": 6398,
      "exclude": 6399,
      "Ġ18": 6400,
      "ryRun": 6401,
      "ĠMotif": 6402,
      "Ġxs": 6403,
      "Ġoutfile": 6404,
      "ĠVIP": 6405,
      "callable": 6406,
      "worker": 6407,
      "Ġends": 6408,
      "ĠFormat": 6409,
      "ATT": 6410,
      "ĠConverts": 6411,
      "Ġscatter": 6412,
      "messages": 6413,
      "connected": 6414,
      "MAP": 6415,
      "1234": 6416,
      "ĺìĬµëĭĪëĭ¤": 6417,
      "ìķĺìĬµëĭĪëĭ¤": 6418,
      "Ġìŀħë": 6419,
      "ĠBoolean": 6420,
      "ĠìķĬìķĺìĬµëĭĪëĭ¤": 6421,
      "Ġdictionaries": 6422,
      "Ġìŀħëł": 6423,
      "Aegean": 6424,
      "CR": 6425,
      "CPE": 6426,
      "mits": 6427,
      "scores": 6428,
      "ĺ¯": 6429,
      "atial": 6430,
      "Ġtick": 6431,
      "route": 6432,
      "lax": 6433,
      "Ġlin": 6434,
      "Ġhdf": 6435,
      "Ġstage": 6436,
      "ĠSQL": 6437,
      "Ġdev": 6438,
      "permission": 6439,
      "Ġdocker": 6440,
      "ĠUsing": 6441,
      "ĠLambda": 6442,
      "ĠWith": 6443,
      "\"][\"": 6444,
      "INFO": 6445,
      "ualification": 6446,
      "STAT": 6447,
      "Ġassistant": 6448,
      "127": 6449,
      "Ġquot": 6450,
      "SIZE": 6451,
      "Ġevaluate": 6452,
      "Header": 6453,
      "lineno": 6454,
      "¥ëĲĺì": 6455,
      "Ġìŀħëł¥ëĲĺì": 6456,
      "Ġìŀħëł¥ëĲĺì§Ģ": 6457,
      "*.": 6458,
      "08": 6459,
      "CI": 6460,
      "HIT": 6461,
      "Module": 6462,
      "Mask": 6463,
      "Pa": 6464,
      "Public": 6465,
      "SER": 6466,
      "XML": 6467,
      "cid": 6468,
      "eo": 6469,
      "mx": 6470,
      "tw": 6471,
      "uca": 6472,
      "xl": 6473,
      "indicator": 6474,
      "Ġcr": 6475,
      "Ġsci": 6476,
      "Ġblue": 6477,
      "comb": 6478,
      "park": 6479,
      "ĠSnapshot": 6480,
      "ĠCurrent": 6481,
      "ĠPrint": 6482,
      "lusters": 6483,
      "Ġxo": 6484,
      "rank": 6485,
      "addChild": 6486,
      "Ġcompleted": 6487,
      "calibration": 6488,
      "verted": 6489,
      "Ġminim": 6490,
      "Ġdisabled": 6491,
      "Ġtail": 6492,
      "Ġdatasets": 6493,
      "Ġgenes": 6494,
      "Ġreplaced": 6495,
      "3333": 6496,
      "ĠShExJ": 6497,
      "åĲį": 6498,
      "~~~~": 6499,
      "ĠARN": 6500,
      "Ġequation": 6501,
      "Ġmargin": 6502,
      "ê´Ģë¦¬ë²Īíĺ¸": 6503,
      "Ang": 6504,
      "Hist": 6505,
      "NG": 6506,
      "PL": 6507,
      "Sur": 6508,
      "yy": 6509,
      "éĢ": 6510,
      "Ġtile": 6511,
      "Ġcap": 6512,
      "anit": 6513,
      "Ġsleep": 6514,
      "Ġ'(": 6515,
      "logs": 6516,
      "lots": 6517,
      "idfobject": 6518,
      "Ġcoordinate": 6519,
      "Ġ\")": 6520,
      "asset": 6521,
      "Ġsta": 6522,
      "Ġdiag": 6523,
      "(\"'": 6524,
      "ĠEnsure": 6525,
      "Ġpretty": 6526,
      "Ġcolors": 6527,
      "iterator": 6528,
      "track": 6529,
      "Ġpylint": 6530,
      "Ġbackups": 6531,
      "TEMP": 6532,
      "LOW": 6533,
      "Environment": 6534,
      "Ġseparator": 6535,
      "records": 6536,
      "Only": 6537,
      "separated": 6538,
      "Ġjobs": 6539,
      "è¯¾": 6540,
      "Ġbehavior": 6541,
      "!')": 6542,
      "/#": 6543,
      "BASE": 6544,
      "CD": 6545,
      "GER": 6546,
      "Mon": 6547,
      "NUM": 6548,
      "PUB": 6549,
      "blue": 6550,
      "cd": 6551,
      "ij": 6552,
      "nu": 6553,
      "æł": 6554,
      "Ġear": 6555,
      "Ġeas": 6556,
      "Ġdy": 6557,
      "Ġblob": 6558,
      "Ġsever": 6559,
      "parison": 6560,
      "ĠItem": 6561,
      "Ġ[-": 6562,
      "Ġloan": 6563,
      "Ġmass": 6564,
      "Ġ|=": 6565,
      "ĠMA": 6566,
      "prediction": 6567,
      "dicts": 6568,
      "ffset": 6569,
      "Ġsubstitutions": 6570,
      "mbols": 6571,
      "ĠCondition": 6572,
      "Ġcapture": 6573,
      "Ġready": 6574,
      "filenames": 6575,
      "disk": 6576,
      "Ġimmediately": 6577,
      "Ġdepends": 6578,
      "private": 6579,
      "valuate": 6580,
      "Ġdocstring": 6581,
      "ĠNOTE": 6582,
      "Ġobservation": 6583,
      "Ġhyphens": 6584,
      "cador": 6585,
      "199": 6586,
      "Missing": 6587,
      "Queue": 6588,
      "\\\"": 6589,
      "ace": 6590,
      "fc": 6591,
      "rstrip": 6592,
      "uation": 6593,
      "zen": 6594,
      "ĦìĿ´ë": 6595,
      "ĶĶ": 6596,
      "stro": 6597,
      "era": 6598,
      "Ġbasis": 6599,
      "lices": 6600,
      "adcast": 6601,
      "ula": 6602,
      "lace": 6603,
      "isfi": 6604,
      "Ġseed": 6605,
      "exe": 6606,
      "ĠSu": 6607,
      "ĠCO": 6608,
      "Ġnumeric": 6609,
      "collect": 6610,
      "aggreg": 6611,
      "Ġ32": 6612,
      "Ġones": 6613,
      "Ġsupply": 6614,
      "Select": 6615,
      "Delete": 6616,
      "Ġpygame": 6617,
      "SECON": 6618,
      "Property": 6619,
      "Ġfeed": 6620,
      "signed": 6621,
      "Ġabstract": 6622,
      "ogle": 6623,
      "Ġtemplates": 6624,
      "Ġassociate": 6625,
      "Ġcalculation": 6626,
      "distances": 6627,
      "Ġcombined": 6628,
      "Ġprovides": 6629,
      "allowed": 6630,
      "icroseconds": 6631,
      "Hello": 6632,
      "makedirs": 6633,
      "ĦìĿ´ëĶĶ": 6634,
      "45": 6635,
      "DATA": 6636,
      "UID": 6637,
      "bro": 6638,
      "gon": 6639,
      "Ġtxt": 6640,
      "cel": 6641,
      "Ġem": 6642,
      "Ġbl": 6643,
      "lica": 6644,
      "()),": 6645,
      "('[": 6646,
      "Repo": 6647,
      "Ġrather": 6648,
      "pointer": 6649,
      "molecule": 6650,
      "Ġhed": 6651,
      "Ġhelper": 6652,
      "irth": 6653,
      "ixed": 6654,
      "sertion": 6655,
      "Ġbases": 6656,
      "Ġinterfaces": 6657,
      "Ġenter": 6658,
      "ARD": 6659,
      "Ġadjust": 6660,
      "flush": 6661,
      "tention": 6662,
      "henotype": 6663,
      "Ġconsider": 6664,
      "connections": 6665,
      "Ġmarker": 6666,
      "Series": 6667,
      "existing": 6668,
      "FORMAT": 6669,
      "95": 6670,
      "Red": 6671,
      "Target": 6672,
      "cm": 6673,
      "ience": 6674,
      "sync": 6675,
      "xi": 6676,
      "remot": 6677,
      "stor": 6678,
      "standard": 6679,
      "orter": 6680,
      "losing": 6681,
      "Ġmiddle": 6682,
      "Ġvery": 6683,
      "coord": 6684,
      "ĠSSH": 6685,
      "ĠCode": 6686,
      "virt": 6687,
      "Ġasync": 6688,
      "pout": 6689,
      "lug": 6690,
      "ĠEquipment": 6691,
      "Ġgets": 6692,
      "readout": 6693,
      "ĠGET": 6694,
      "calar": 6695,
      "neg": 6696,
      "splitlines": 6697,
      "unknown": 6698,
      "Ġanything": 6699,
      "Copy": 6700,
      "Ġiterate": 6701,
      "Ġquant": 6702,
      "Ġaggreg": 6703,
      "Ġhandled": 6704,
      "Ġseparated": 6705,
      "Ġindicator": 6706,
      "Column": 6707,
      "static": 6708,
      "normalize": 6709,
      "ĠApply": 6710,
      "Ġmagic": 6711,
      "surface": 6712,
      "Ġlegend": 6713,
      "'^": 6714,
      "07": 6715,
      "Bad": 6716,
      "Entry": 6717,
      "Row": 6718,
      "With": 6719,
      "cdot": 6720,
      "draw": 6721,
      "drop": 6722,
      "nx": 6723,
      "sibling": 6724,
      "water": 6725,
      "yes": 6726,
      "orth": 6727,
      "Ġflow": 6728,
      "Ġfleet": 6729,
      "Ġpl": 6730,
      "ane": 6731,
      "Ġconsole": 6732,
      "athon": 6733,
      "ĠEBS": 6734,
      "resolve": 6735,
      "cesso": 6736,
      "derived": 6737,
      "Ġ-----": 6738,
      "ĠInter": 6739,
      "ĠBasic": 6740,
      "Sts": 6741,
      "fixed": 6742,
      "contract": 6743,
      "Ġstarted": 6744,
      "coming": 6745,
      "Ġmasked": 6746,
      "templates": 6747,
      "Ġ'-'": 6748,
      "Associ": 6749,
      ".\".": 6750,
      ">'": 6751,
      "AZ": 6752,
      "SU": 6753,
      "SQL": 6754,
      "cntxt": 6755,
      "flo": 6756,
      "tp": 6757,
      "}-": 6758,
      "ë³": 6759,
      "Ġ?": 6760,
      "retries": 6761,
      "Ġastr": 6762,
      "Ġfar": 6763,
      "Ġrelev": 6764,
      "Ġnmb": 6765,
      "Ġpi": 6766,
      "Ġou": 6767,
      "Ġ'\"": 6768,
      "Ġec": 6769,
      "Ġes": 6770,
      "Ġdc": 6771,
      "Ġband": 6772,
      "Ġannotation": 6773,
      "Ġsec": 6774,
      "gether": 6775,
      "Ġthrow": 6776,
      "(':": 6777,
      "Ġhum": 6778,
      "setting": 6779,
      "____": 6780,
      "Ġunpack": 6781,
      "sterior": 6782,
      "anging": 6783,
      "license": 6784,
      "Ġcodes": 6785,
      "Ġscenario": 6786,
      "Period": 6787,
      "Ġcombine": 6788,
      "Ġcombination": 6789,
      "Ġpysv": 6790,
      "plugins": 6791,
      "ĠConfiguration": 6792,
      "virtual": 6793,
      "+\\": 6794,
      "37": 6795,
      "DP": 6796,
      "Sze": 6797,
      "bum": 6798,
      "cce": 6799,
      "hum": 6800,
      "pend": 6801,
      "squ": 6802,
      "xies": 6803,
      "utive": 6804,
      "Ġbel": 6805,
      "terms": 6806,
      "ĠTry": 6807,
      "ĠTarget": 6808,
      "rices": 6809,
      "Ġconv": 6810,
      "Ġdatas": 6811,
      "Ġasset": 6812,
      "ĠPart": 6813,
      "ĠPlease": 6814,
      "ĠNow": 6815,
      "folio": 6816,
      "program": 6817,
      "ĠGaussian": 6818,
      "ĠExpected": 6819,
      "Ġminor": 6820,
      "Ġtests": 6821,
      "aintenance": 6822,
      "Ġargparse": 6823,
      "spection": 6824,
      "Ġocc": 6825,
      "Author": 6826,
      "histogram": 6827,
      "ĠCloudWatch": 6828,
      "Build": 6829,
      "Ġdefinitions": 6830,
      "Ġproblems": 6831,
      "Ġchoices": 6832,
      "versible": 6833,
      "ĠBuild": 6834,
      "Ġduplicate": 6835,
      "Ġuncertaint": 6836,
      ")',": 6837,
      ":.": 6838,
      "DC": 6839,
      "dh": 6840,
      "false": 6841,
      "retry": 6842,
      "recipient": 6843,
      "orn": 6844,
      "orator": 6845,
      "Ġrecomm": 6846,
      "anum": 6847,
      "Ġ'&": 6848,
      "Ġdap": 6849,
      "urname": 6850,
      "examples": 6851,
      "ĠAccess": 6852,
      "Ġoutside": 6853,
      "logl": 6854,
      "...,": 6855,
      "arrays": 6856,
      "minimum": 6857,
      "Ġattached": 6858,
      "Ġinstanti": 6859,
      "Ġprior": 6860,
      "FIEL": 6861,
      "voke": 6862,
      "Ġestimate": 6863,
      "Ġvariability": 6864,
      "origin": 6865,
      "wiki": 6866,
      "Ġpkg": 6867,
      "separator": 6868,
      "AegeanTools": 6869,
      ",\"": 6870,
      "87": 6871,
      "Driver": 6872,
      "Find": 6873,
      "Hub": 6874,
      "URI": 6875,
      "ached": 6876,
      "bd": 6877,
      "equip": 6878,
      "hi": 6879,
      "hs": 6880,
      "pdf": 6881,
      "å¤": 6882,
      "ç»": 6883,
      "segments": 6884,
      "repos": 6885,
      "station": 6886,
      "Ġrecipient": 6887,
      "ptor": 6888,
      "ĠTable": 6889,
      "Ġlda": 6890,
      "Ġexpi": 6891,
      "verter": 6892,
      "concatenate": 6893,
      "etc": 6894,
      "ĠDownload": 6895,
      "permissions": 6896,
      "ĠMAGICC": 6897,
      "ĠVLAN": 6898,
      "ĠURI": 6899,
      "Ġoutputs": 6900,
      "SetName": 6901,
      "pick": 6902,
      "Database": 6903,
      "disabled": 6904,
      "Ġextensions": 6905,
      "pages": 6906,
      "FIG": 6907,
      "Thread": 6908,
      "Ġconstant": 6909,
      "Ġestim": 6910,
      "OPTION": 6911,
      "Ġincrement": 6912,
      "helpers": 6913,
      "neighbor": 6914,
      "uffle": 6915,
      "vancedTag": 6916,
      "=\"\",": 6917,
      "æĸĩä»¶": 6918,
      "([\"": 6919,
      "={}": 6920,
      "Availability": 6921,
      "Cnt": 6922,
      "DT": 6923,
      "Rel": 6924,
      "clog": 6925,
      "hip": 6926,
      "null": 6927,
      "nstates": 6928,
      "sb": 6929,
      "xo": 6930,
      "Ġtyp": 6931,
      "Ġrestore": 6932,
      "Ġpds": 6933,
      "Ġpsf": 6934,
      "Ġdynamic": 6935,
      "ents": 6936,
      "Ġmd": 6937,
      "Ġ(_": 6938,
      "chan": 6939,
      "illi": 6940,
      "exus": 6941,
      "Ġdeviation": 6942,
      "Ġdiv": 6943,
      "ubclass": 6944,
      "policy": 6945,
      "resources": 6946,
      "Ġshare": 6947,
      "Ġnewline": 6948,
      "ĠUsed": 6949,
      "Ġklass": 6950,
      "Ġcorrection": 6951,
      "Ġloading": 6952,
      "DBCluster": 6953,
      "pkg": 6954,
      "small": 6955,
      "Ġjoint": 6956,
      "ĠìĤ¬ìĹħìŀĲë²Īíĺ¸": 6957,
      ">')": 6958,
      "CLA": 6959,
      "IME": 6960,
      "Mem": 6961,
      "Mark": 6962,
      "NI": 6963,
      "ade": 6964,
      "closed": 6965,
      "cwl": 6966,
      "dating": 6967,
      "sun": 6968,
      "writer": 6969,
      "|.": 6970,
      "ê¸": 6971,
      "semb": 6972,
      "hel": 6973,
      "']),": 6974,
      "ĠDec": 6975,
      "Ġ`{": 6976,
      "outfile": 6977,
      "ĠEvent": 6978,
      "ĠĠĠĠĠĠĠĠĠĠĠĠĠĠĠĠĠĠĠĠĠĠĠĠĠĠĠĠĠĠĠĠĠĠĠĠĠĠĠĠĠĠĠĠĠĠĠĠ": 6979,
      "ĠMan": 6980,
      "Ġobjecttools": 6981,
      "ĠUses": 6982,
      "ĠOR": 6983,
      "Contain": 6984,
      "REG": 6985,
      "Ġruntime": 6986,
      "Settings": 6987,
      "competing": 6988,
      "organ": 6989,
      "Ġsky": 6990,
      "ĠCalculated": 6991,
      "coeffs": 6992,
      "Ġidentical": 6993,
      "Ġdecoded": 6994,
      "Endpoint": 6995,
      "ĠStopIteration": 6996,
      "*\\": 6997,
      ".:": 6998,
      "One": 6999,
      "Simple": 7000,
      "]}": 7001,
      "bond": 7002,
      "mis": 7003,
      "Ġincx": 7004,
      "Ġwrong": 7005,
      "Ġms": 7006,
      "ptr": 7007,
      "Retention": 7008,
      "listdir": 7009,
      "ĠSender": 7010,
      "ĠUTC": 7011,
      "ĠGraph": 7012,
      "configobj": 7013,
      "Keys": 7014,
      "linear": 7015,
      "placeholder": 7016,
      "Ġreadout": 7017,
      "Ġpriority": 7018,
      "cursively": 7019,
      "Ġtrim": 7020,
      "Ġstatic": 7021,
      "nkor": 7022,
      "Ġproperly": 7023,
      "Operator": 7024,
      "bottom": 7025,
      "dimensional": 7026,
      "Ġbootstrap": 7027,
      ")\"\"\"": 7028,
      ".',": 7029,
      "26": 7030,
      "Empty": 7031,
      "east": 7032,
      "handlers": 7033,
      "iri": 7034,
      "same": 7035,
      "ìĪ": 7036,
      "ìļ": 7037,
      "Ġatt": 7038,
      "Ġtw": 7039,
      "eros": 7040,
      "erical": 7041,
      "Ġair": 7042,
      "Ġssh": 7043,
      "Ġscaling": 7044,
      "Ġdump": 7045,
      "loan": 7046,
      "Ġmuch": 7047,
      "ados": 7048,
      "Ġnotes": 7049,
      "mainder": 7050,
      "olar": 7051,
      "quis": 7052,
      "Ġlogical": 7053,
      "pared": 7054,
      "ĠVpc": 7055,
      "Ġsubset": 7056,
      "[::-": 7057,
      "ĠParameter": 7058,
      "Ġintervals": 7059,
      "Ġoverlap": 7060,
      "------------": 7061,
      "interp": 7062,
      "ĠblocklistRegexes": 7063,
      "osen": 7064,
      "Ġquote": 7065,
      "COMP": 7066,
      "Compute": 7067,
      "Ġframes": 7068,
      "ategy": 7069,
      "6666": 7070,
      "CESS": 7071,
      "Ġmutation": 7072,
      "Ġrequirements": 7073,
      "Ġneighbor": 7074,
      "âĢĻ": 7075,
      "Ġdescribing": 7076,
      "Ġtraining": 7077,
      "Ġtemporary": 7078,
      "ĠSSL": 7079,
      "ragma": 7080,
      ");": 7081,
      "BY": 7082,
      "Global": 7083,
      "Gtk": 7084,
      "Open": 7085,
      "Please": 7086,
      "Wait": 7087,
      "ired": 7088,
      "Ġao": 7089,
      "Ġclusters": 7090,
      "Ġpb": 7091,
      "Ġpragma": 7092,
      "Ġwarn": 7093,
      "lier": 7094,
      "Ġtogether": 7095,
      "Ġ(:": 7096,
      "Ġcoords": 7097,
      "oly": 7098,
      "Ġgap": 7099,
      "ĠFal": 7100,
      "Ġdefines": 7101,
      "ĠModule": 7102,
      "Ġlogl": 7103,
      "probab": 7104,
      "scrib": 7105,
      "Ġsubscription": 7106,
      "bolic": 7107,
      "ĠBlock": 7108,
      "ĠExpression": 7109,
      "Ġpassing": 7110,
      "runs": 7111,
      "cheduler": 7112,
      "Ġintegers": 7113,
      "ĠallowlistRegexes": 7114,
      "ĠQualification": 7115,
      "SIS": 7116,
      "FIX": 7117,
      "networkapi": 7118,
      "UTH": 7119,
      "ĠProcess": 7120,
      "ĠShould": 7121,
      "Document": 7122,
      "Ġwriting": 7123,
      "pixels": 7124,
      "assistants": 7125,
      "blanks": 7126,
      "AvailabilityZone": 7127,
      "sembly": 7128,
      "\"}}": 7129,
      "+\"": 7130,
      "42": 7131,
      "Tri": 7132,
      "epoch": 7133,
      "kernel": 7134,
      "qd": 7135,
      "}/{": 7136,
      "¾Ħ": 7137,
      "reload": 7138,
      "stage": 7139,
      "Ġaid": 7140,
      "means": 7141,
      "Ġpwm": 7142,
      "Ġdr": 7143,
      "locale": 7144,
      "Ġbs": 7145,
      "Ġbrowser": 7146,
      "ĠASCII": 7147,
      "gsize": 7148,
      "quant": 7149,
      "ĠSSECustomer": 7150,
      "Ġprojection": 7151,
      "Ġmajor": 7152,
      "Ġencrypted": 7153,
      "Ġnearest": 7154,
      "need": 7155,
      "Ġformatter": 7156,
      "ĠStorage": 7157,
      "processing": 7158,
      "Method": 7159,
      "Ġobserved": 7160,
      "locals": 7161,
      "Ġ','.": 7162,
      "stituter": 7163,
      "ĠChange": 7164,
      "Ġlongitude": 7165,
      "567": 7166,
      "HEAD": 7167,
      "Ġconsistent": 7168,
      "Ġtranslation": 7169,
      "Ġexactly": 7170,
      "literal": 7171,
      "Ġelife": 7172,
      ",))": 7173,
      "40": 7174,
      "Http": 7175,
      "Png": 7176,
      "[(": 7177,
      "tup": 7178,
      "venv": 7179,
      "|,": 7180,
      "rep": 7181,
      "Ġtax": 7182,
      "Ġix": 7183,
      "Ġfd": 7184,
      "Release": 7185,
      "Ġguess": 7186,
      "Ġdelimiter": 7187,
      "terer": 7188,
      "tool": 7189,
      "extensions": 7190,
      "isters": 7191,
      "ĠDon": 7192,
      "kwds": 7193,
      "feed": 7194,
      "ysical": 7195,
      "ĠBack": 7196,
      "Ġapps": 7197,
      "lland": 7198,
      "Section": 7199,
      "ORT": 7200,
      "correlation": 7201,
      "comments": 7202,
      "Ġordering": 7203,
      "Files": 7204,
      "rfc": 7205,
      "Ġenums": 7206,
      "Ġ128": 7207,
      "communic": 7208,
      "Ġdepending": 7209,
      "Ġgenus": 7210,
      "styles": 7211,
      "Ġconnections": 7212,
      "median": 7213,
      "medium": 7214,
      "Color": 7215,
      "Ġissubclass": 7216,
      "ĠIdentifi": 7217,
      "Validate": 7218,
      "absolute": 7219,
      "Ġconflict": 7220,
      "webdriver": 7221,
      "Works": 7222,
      "Ġconstructor": 7223,
      "Ġtrailing": 7224,
      "Ġmagnitude": 7225,
      "ĠFalha": 7226,
      ")],": 7227,
      "/.": 7228,
      "Com": 7229,
      "Close": 7230,
      "Direct": 7231,
      "Handle": 7232,
      "Is": 7233,
      "Label": 7234,
      "Multi": 7235,
      "]'": 7236,
      "ares": 7237,
      "sal": 7238,
      "two": 7239,
      "ëª": 7240,
      "sect": 7241,
      "Ġretries": 7242,
      "Ġsync": 7243,
      "Ġsilent": 7244,
      "amily": 7245,
      "isinstance": 7246,
      "distribution": 7247,
      "Ġcovariance": 7248,
      "Ġlarger": 7249,
      "Ġhmat": 7250,
      "Ġhard": 7251,
      "Ġhoriz": 7252,
      "ĠScript": 7253,
      "ĠCH": 7254,
      "Ġproto": 7255,
      "imit": 7256,
      "Ġdoi": 7257,
      "Ġtimedelta": 7258,
      "Expected": 7259,
      "ERS": 7260,
      "Ġsoup": 7261,
      "soft": 7262,
      "([(": 7263,
      "Ġcaption": 7264,
      "Selection": 7265,
      "Ġ404": 7266,
      "letter": 7267,
      "cycle": 7268,
      "Ġpartition": 7269,
      "crete": 7270,
      "Char": 7271,
      "Ġdeploy": 7272,
      "Ġdocuments": 7273,
      "topic": 7274,
      "ituation": 7275,
      "Ġsections": 7276,
      "executable": 7277,
      "mediate": 7278,
      "ĠpostData": 7279,
      "secutive": 7280,
      "Ġoccurred": 7281,
      "normalized": 7282,
      "Ġtruth": 7283,
      "Struct": 7284,
      "ĠPerform": 7285,
      "Ġncvar": 7286,
      "Ġcosmo": 7287,
      "ollowing": 7288,
      "ĠaryMdlParams": 7289,
      "definition": 7290,
      "'ll": 7291,
      "48": 7292,
      "Can": 7293,
      "GE": 7294,
      "Ori": 7295,
      "gid": 7296,
      "ggest": 7297,
      "hal": 7298,
      "nr": 7299,
      "nav": 7300,
      "sdp": 7301,
      "Ġut": 7302,
      "revision": 7303,
      "Ġreceive": 7304,
      "Ġopt": 7305,
      "Ġeps": 7306,
      "Ġdn": 7307,
      "Ġwildcard": 7308,
      "ssue": 7309,
      "digits": 7310,
      "Ġbeco": 7311,
      "Repository": 7312,
      "Ġmetrics": 7313,
      "Ġprodu": 7314,
      "Ġprovision": 7315,
      "Ġenough": 7316,
      "Ġleave": 7317,
      "Ġnest": 7318,
      "scripts": 7319,
      "Ġcaller": 7320,
      "{}\\": 7321,
      "Comm": 7322,
      "WSGI": 7323,
      "Unexpected": 7324,
      "UTC": 7325,
      "patterns": 7326,
      "Ġpolar": 7327,
      "rupt": 7328,
      "Ġhourly": 7329,
      "Ġserializer": 7330,
      "Ġcty": 7331,
      "Ġfinished": 7332,
      "Ġorganization": 7333,
      "WE": 7334,
      "aN": 7335,
      "bloco": 7336,
      "hierarchy": 7337,
      "ium": 7338,
      "ja": 7339,
      "td": 7340,
      "tile": 7341,
      "{'": 7342,
      "Ã©": 7343,
      "Ðµ": 7344,
      "Ġutil": 7345,
      "sequent": 7346,
      "recv": 7347,
      "endian": 7348,
      "allable": 7349,
      "ura": 7350,
      "Ġpid": 7351,
      "Ġspect": 7352,
      "uest": 7353,
      "unded": 7354,
      "chine": 7355,
      "ism": 7356,
      "Ġseason": 7357,
      "Ġgamma": 7358,
      "ĠSE": 7359,
      "')):": 7360,
      "']):": 7361,
      "perm": 7362,
      "ĠMy": 7363,
      "modifi": 7364,
      "phinx": 7365,
      "Ġkma": 7366,
      "REF": 7367,
      "READ": 7368,
      "INTER": 7369,
      "ĠSelect": 7370,
      "ACT": 7371,
      "widths": 7372,
      "TED": 7373,
      "primary": 7374,
      "SIG": 7375,
      "CONN": 7376,
      "CONFIG": 7377,
      "ĠValidate": 7378,
      "venience": 7379,
      "Ġeverything": 7380,
      "ĠDirect": 7381,
      "interests": 7382,
      "ĠexcMsg": 7383,
      "Ġlatitude": 7384,
      "Ġtrunc": 7385,
      "ĠAvailabilityZone": 7386,
      "Ġcompatibility": 7387,
      "ĠFASTA": 7388,
      "Ġrelevant": 7389,
      "CA": 7390,
      "HA": 7391,
      "HER": 7392,
      "LT": 7393,
      "_[": 7394,
      "hdu": 7395,
      "ned": 7396,
      "tend": 7397,
      "widget": 7398,
      "æĪ": 7399,
      "rede": 7400,
      "rename": 7401,
      "relieve": 7402,
      "urther": 7403,
      "rocess": 7404,
      "rozen": 7405,
      "Ġbond": 7406,
      "licies": 7407,
      "Ġtopology": 7408,
      "strptime": 7409,
      "iler": 7410,
      "ising": 7411,
      "Ġlc": 7412,
      "Ġhighest": 7413,
      "Ġdele": 7414,
      "Ġdetected": 7415,
      "Ġpara": 7416,
      "datasets": 7417,
      "\",\"": 7418,
      "ĠĠĠĠĠĠĠĠĠĠĠĠĠĠĠĠĠĠĠĠĠĠĠĠĠĠĠĠĠĠĠĠĠĠĠĠĠĠĠĠĠĠĠĠĠĠĠĠĠ": 7419,
      "ĠĠĠĠĠĠĠĠĠĠĠĠĠĠĠĠĠĠĠĠĠĠĠĠĠĠĠĠĠĠĠĠĠĠĠĠĠĠĠĠĠĠĠĠĠĠĠĠĠĠ": 7420,
      "Ġspecies": 7421,
      "ĠRange": 7422,
      "Ġleaf": 7423,
      "Ġlemma": 7424,
      "Ġcomputed": 7425,
      "queryset": 7426,
      "oked": 7427,
      "{}/": 7428,
      "pipe": 7429,
      "Second": 7430,
      "Ġsymbol": 7431,
      "sumed": 7432,
      "idxPrc": 7433,
      "DOM": 7434,
      "ĠAdditional": 7435,
      "UND": 7436,
      "Ġapprox": 7437,
      "wrapped": 7438,
      "Template": 7439,
      "ĠMaximum": 7440,
      "Ġfoo": 7441,
      "RoleArn": 7442,
      "Ġsimply": 7443,
      "Ġcoefficients": 7444,
      "Ġdecorated": 7445,
      "getLocalId": 7446,
      "Ġanswer": 7447,
      "GR": 7448,
      "LY": 7449,
      "Over": 7450,
      "Pl": 7451,
      "iff": 7452,
      "llab": 7453,
      "six": 7454,
      "simple": 7455,
      "atrix": 7456,
      "Ġable": 7457,
      "Ġfrequency": 7458,
      "Ġpull": 7459,
      "Ġpending": 7460,
      "itter": 7461,
      "Ġok": 7462,
      "rols": 7463,
      "Ġmu": 7464,
      "cookie": 7465,
      "Ġ\"<": 7466,
      "Ġhdu": 7467,
      "ĠAct": 7468,
      "Ġger": 7469,
      "istent": 7470,
      "Ġys": 7471,
      "Ġ*,": 7472,
      "Ġchrom": 7473,
      "ĠMO": 7474,
      "agg": 7475,
      "InSeconds": 7476,
      "Idx": 7477,
      "minute": 7478,
      "Ġcompression": 7479,
      "ttl": 7480,
      "places": 7481,
      "Ġcontained": 7482,
      "START": 7483,
      "ĠCont": 7484,
      "vertices": 7485,
      "Ġcalibration": 7486,
      "LECT": 7487,
      "visible": 7488,
      "Ġ\"\")": 7489,
      "generated": 7490,
      "Ġfitted": 7491,
      "ĠNotification": 7492,
      "ä¸º": 7493,
      "Ġpolynomial": 7494,
      "íĺķ": 7495,
      "Percent": 7496,
      "globals": 7497,
      "coefs": 7498,
      "ĠAssertion": 7499,
      "router": 7500,
      "expanduser": 7501,
      "currency": 7502,
      "Ġclone": 7503,
      "ë³´": 7504,
      "Maintenance": 7505,
      "SV": 7506,
      "Tst": 7507,
      "WN": 7508,
      "rations": 7509,
      "rpc": 7510,
      "war": 7511,
      "è¿": 7512,
      "Ġque": 7513,
      "heta": 7514,
      "Ġcntxt": 7515,
      "Ġincoming": 7516,
      "Ġbra": 7517,
      "ading": 7518,
      "cov": 7519,
      "ket": 7520,
      "oll": 7521,
      "construct": 7522,
      "Ġdigest": 7523,
      "['--": 7524,
      "ĠDesc": 7525,
      "datacats": 7526,
      "Ġcols": 7527,
      "ĠOps": 7528,
      "...\")": 7529,
      "ĠExec": 7530,
      "Ġactivity": 7531,
      "Ġcompeting": 7532,
      "Protocol": 7533,
      "avg": 7534,
      "voice": 7535,
      "ä¸į": 7536,
      "Ġlanguages": 7537,
      "ĠIOC": 7538,
      "Python": 7539,
      "rules": 7540,
      "failure": 7541,
      "Ġfacets": 7542,
      "ĠAttributeValueList": 7543,
      "ĠPOST": 7544,
      "ĠValidationException": 7545,
      "issues": 7546,
      "odenames": 7547,
      "Ġseveral": 7548,
      ")')": 7549,
      "06": 7550,
      "AML": 7551,
      "BER": 7552,
      "Body": 7553,
      "DA": 7554,
      "Dir": 7555,
      "PR": 7556,
      "Pay": 7557,
      "Using": 7558,
      "break": 7559,
      "factors": 7560,
      "kt": 7561,
      "lz": 7562,
      "lun": 7563,
      "mu": 7564,
      "silent": 7565,
      "tf": 7566,
      "uwsgi": 7567,
      "å¼": 7568,
      "ç¬": 7569,
      "çĶ": 7570,
      "ê²": 7571,
      "ë°": 7572,
      "deepcopy": 7573,
      "Ġfour": 7574,
      "Ġfree": 7575,
      "alchemy": 7576,
      "Ġcutoff": 7577,
      "Ġtoy": 7578,
      "ulk": 7579,
      "()])": 7580,
      "rift": 7581,
      "ĠAxes": 7582,
      "blem": 7583,
      "ancet": 7584,
      "ĠClass": 7585,
      "Ġparagraph": 7586,
      "Ġresolve": 7587,
      "msKeyId": 7588,
      "ilest": 7589,
      "ttree": 7590,
      "Style": 7591,
      "validation": 7592,
      "ĠExtract": 7593,
      "Ġ------------------------": 7594,
      "Ġchecked": 7595,
      "Ġchecksum": 7596,
      "Ġacl": 7597,
      "ields": 7598,
      "masks": 7599,
      "Ġbetter": 7600,
      "mtp": 7601,
      "Ġcustomer": 7602,
      "ĠJSONError": 7603,
      "Ġhighlight": 7604,
      "Ġcorrectly": 7605,
      "Ġdeclare": 7606,
      "Generate": 7607,
      "Ġdaemon": 7608,
      "Ġrelationship": 7609,
      "Attempt": 7610,
      "Ġdatatype": 7611,
      "Ġsyntax": 7612,
      "unctuation": 7613,
      "ĠlgcPrint": 7614,
      "cuda": 7615,
      "ĠGitHub": 7616,
      "ĠAssertionError": 7617,
      ")``": 7618,
      "21": 7619,
      "And": 7620,
      "CRE": 7621,
      "KEN": 7622,
      "Language": 7623,
      "Obj": 7624,
      "WARNING": 7625,
      "car": 7626,
      "tspan": 7627,
      "åĽ": 7628,
      "Ġ^": 7629,
      "Ġquestion": 7630,
      "reason": 7631,
      "Ġnor": 7632,
      "ceil": 7633,
      "Ġscalar": 7634,
      "raft": 7635,
      "parallel": 7636,
      "))[": 7637,
      "Ġhaving": 7638,
      "Ġ19": 7639,
      "Ġgist": 7640,
      "Ġgrupo": 7641,
      "Ġdetailed": 7642,
      "Ġprovid": 7643,
      "Ġlisted": 7644,
      "])]": 7645,
      "ĠLine": 7646,
      "Exist": 7647,
      "Contact": 7648,
      "ides": 7649,
      "Ġtrajectory": 7650,
      "Ġbackup": 7651,
      "many": 7652,
      "Ġmanage": 7653,
      "Ġspawn": 7654,
      "Upgrade": 7655,
      "istration": 7656,
      "Ġmeaning": 7657,
      "Ġmarked": 7658,
      "Does": 7659,
      "Ġë°": 7660,
      "written": 7661,
      "mutation": 7662,
      "anumeric": 7663,
      "MaintenanceWindow": 7664,
      "ĠOpsWorks": 7665,
      "')))": 7666,
      ".'.": 7667,
      "96": 7668,
      "Xval": 7669,
      "br": 7670,
      "credentials": 7671,
      "dwave": 7672,
      "ech": 7673,
      "ftype": 7674,
      "gres": 7675,
      "surname": 7676,
      "}_": 7677,
      "rees": 7678,
      "Ġambiente": 7679,
      "detail": 7680,
      "Ġfut": 7681,
      "Ġfurther": 7682,
      "Ġrestart": 7683,
      "Ġ\"+": 7684,
      "Ġloss": 7685,
      "tolist": 7686,
      "Ġdataframe": 7687,
      "Ġask": 7688,
      "])[": 7689,
      "previous": 7690,
      "Inf": 7691,
      "Ġ**********************************": 7692,
      "archive": 7693,
      "Ġspecification": 7694,
      "Ġ36": 7695,
      "embd": 7696,
      "tables": 7697,
      "beat": 7698,
      "ORY": 7699,
      "authentic": 7700,
      "accept": 7701,
      "spaces": 7702,
      "qualified": 7703,
      "itoring": 7704,
      "Ġinitialize": 7705,
      "Ġpositional": 7706,
      "SubElement": 7707,
      "deploy": 7708,
      "Ġvertices": 7709,
      "Ġplugins": 7710,
      "Ġevaluation": 7711,
      "ĠAppend": 7712,
      "unctools": 7713,
      "SecurityGroups": 7714,
      "ValidationError": 7715,
      "stems": 7716,
      "transport": 7717,
      "Ġmigration": 7718,
      "Ġavg": 7719,
      "jacency": 7720,
      "rocessing": 7721,
      "88": 7722,
      ":,": 7723,
      "Down": 7724,
      "IM": 7725,
      "LAT": 7726,
      "Pitch": 7727,
      "USE": 7728,
      "Var": 7729,
      "Vpc": 7730,
      "cmp": 7731,
      "front": 7732,
      "gi": 7733,
      "plica": 7734,
      "watch": 7735,
      "¨ĭ": 7736,
      "Ġcpe": 7737,
      "Ġinds": 7738,
      "Ġpush": 7739,
      "Ġschedule": 7740,
      "Ġecho": 7741,
      "roy": 7742,
      "Ġdd": 7743,
      "Ġbias": 7744,
      "Ġwon": 7745,
      "()}": 7746,
      "digit": 7747,
      "Ġcoerce": 7748,
      "ellow": 7749,
      "Ġdialog": 7750,
      "(\"{": 7751,
      "ĠETag": 7752,
      "Ġposs": 7753,
      "portion": 7754,
      "Ġcompiled": 7755,
      "Ġlazy": 7756,
      "Ġ500": 7757,
      "Ġcontinuous": 7758,
      "Ġspans": 7759,
      "ĠTypes": 7760,
      "imgur": 7761,
      "transaction": 7762,
      "ĠKMS": 7763,
      "Ġmaybe": 7764,
      "Enabled": 7765,
      "Ġphrase": 7766,
      "CheckStatus": 7767,
      "ADD": 7768,
      "Ġpreviously": 7769,
      "analysis": 7770,
      "remoterelieve": 7771,
      "original": 7772,
      "reenode": 7773,
      "Ġvisual": 7774,
      "Allow": 7775,
      "ĠInputs": 7776,
      "Fail": 7777,
      "randint": 7778,
      "Ġrespectively": 7779,
      "monomials": 7780,
      "hydpy": 7781,
      "åŃĹ": 7782,
      "Ġhappen": 7783,
      "æķ°": 7784,
      ":].": 7785,
      "Msk": 7786,
      "SK": 7787,
      "SY": 7788,
      "Tags": 7789,
      "\\.": 7790,
      "fun": 7791,
      "icon": 7792,
      "oauth": 7793,
      "vs": 7794,
      "zi": 7795,
      "Â³": 7796,
      "ç¨ĭ": 7797,
      "Ġreload": 7798,
      "Ġindel": 7799,
      "ingle": 7800,
      "ges": 7801,
      "utation": 7802,
      "Ġmenu": 7803,
      "Ġ({": 7804,
      "rive": 7805,
      "expires": 7806,
      "))]": 7807,
      "ĠAfter": 7808,
      "constraints": 7809,
      "asses": 7810,
      "ĠScan": 7811,
      "ĠuWSGI": 7812,
      "Ġdeprecated": 7813,
      "lying": 7814,
      "ĠPY": 7815,
      "icip": 7816,
      "shared": 7817,
      "formatter": 7818,
      "ĠMap": 7819,
      "Ġxrange": 7820,
      "Ġoutlet": 7821,
      "unding": 7822,
      "Ġidfobj": 7823,
      "Ġpointer": 7824,
      "ĠUS": 7825,
      "Ġ\\`": 7826,
      "125": 7827,
      "There": 7828,
      "---------": 7829,
      "ITY": 7830,
      "Ġsingular": 7831,
      "Ġpages": 7832,
      "Ġexecutable": 7833,
      "structure": 7834,
      "Ġnetworkapi": 7835,
      "ensor": 7836,
      "choices": 7837,
      "LOCK": 7838,
      "reqs": 7839,
      "catalog": 7840,
      "ECKS": 7841,
      "marker": 7842,
      "ĠvecBst": 7843,
      "zones": 7844,
      "ìĿ¼": 7845,
      "âĢĺ": 7846,
      "ĠHealthCheck": 7847,
      "Price": 7848,
      "Ġoccurrence": 7849,
      "ParseError": 7850,
      "currence": 7851,
      "calculate": 7852,
      "Ġpickle": 7853,
      "ELLIP": 7854,
      "Ġretrieved": 7855,
      "49": 7856,
      ":{": 7857,
      "BJ": 7858,
      "Engine": 7859,
      "MAT": 7860,
      "Sy": 7861,
      "\\`": 7862,
      "]',": 7863,
      "qdm": 7864,
      "rat": 7865,
      "snap": 7866,
      "}\")": 7867,
      "ĠÐ": 7868,
      "Ġcube": 7869,
      "Ġrepos": 7870,
      "Ġreversed": 7871,
      "Ġplay": 7872,
      "Ġ'?": 7873,
      "enter": 7874,
      "atell": 7875,
      "lash": 7876,
      "ĠTask": 7877,
      "Ġsear": 7878,
      "Ġconsecutive": 7879,
      "Ġexperiment": 7880,
      "Ġordered": 7881,
      "intenance": 7882,
      "Ġdem": 7883,
      "Ġrm": 7884,
      "Ġymin": 7885,
      "apps": 7886,
      "pacity": 7887,
      "Ġmatrices": 7888,
      "__:": 7889,
      "abc": 7890,
      "Ġsucce": 7891,
      "aking": 7892,
      "ATED": 7893,
      "Ġdischarge": 7894,
      "noun": 7895,
      "DED": 7896,
      "Ġcomments": 7897,
      "manifest": 7898,
      "ĠFileStore": 7899,
      "Ġcomparator": 7900,
      "ï¼ļ": 7901,
      "legend": 7902,
      "Trn": 7903,
      "Ġhalf": 7904,
      "Util": 7905,
      "Ġmimetype": 7906,
      "ĠIndicatorItem": 7907,
      "ELLIPSIS": 7908,
      "atellite": 7909,
      "/')": 7910,
      "77": 7911,
      "Md": 7912,
      "ND": 7913,
      "OS": 7914,
      "\\'": 7915,
      "candid": 7916,
      "cancel": 7917,
      "dit": 7918,
      "mig": 7919,
      "nb": 7920,
      "uz": 7921,
      "Ġam": 7922,
      "Ġcut": 7923,
      "Ġretain": 7924,
      "Ġrestrict": 7925,
      "ĠnÃ£o": 7926,
      "Ġdag": 7927,
      "Ġ(`": 7928,
      "cookies": 7929,
      "Ġcoord": 7930,
      "expect": 7931,
      "ĠISO": 7932,
      "ascript": 7933,
      "Ġpars": 7934,
      "(\"#": 7935,
      "Ġymax": 7936,
      "Ġresolved": 7937,
      "iving": 7938,
      "ĠMem": 7939,
      "ĠMay": 7940,
      "imgs": 7941,
      "Ġxmax": 7942,
      "under": 7943,
      "modify": 7944,
      "ĠGen": 7945,
      "ĠGtk": 7946,
      "ĠGeo": 7947,
      "ĠRoute": 7948,
      "\":\"": 7949,
      "Ġcompressed": 7950,
      "Conv": 7951,
      "Ġurlparse": 7952,
      "Ġsock": 7953,
      "maximum": 7954,
      "Ġaccepts": 7955,
      "ITS": 7956,
      "Ġfollows": 7957,
      "ENV": 7958,
      "Ġsentences": 7959,
      "ĠAddress": 7960,
      "Ġexpressions": 7961,
      "VersionUpgrade": 7962,
      "Ġindicate": 7963,
      "Ġdirname": 7964,
      "hourly": 7965,
      "uplicate": 7966,
      "Ġissues": 7967,
      "customer": 7968,
      "Ġ'{}'": 7969,
      "Ġbeginning": 7970,
      "variants": 7971,
      "Ġpopulate": 7972,
      "ĠDEFAULT": 7973,
      "compatible": 7974,
      "repeat": 7975,
      "Ġrendered": 7976,
      "Parent": 7977,
      "Association": 7978,
      "(('": 7979,
      "/\"": 7980,
      ">{}": 7981,
      "BI": 7982,
      "Box": 7983,
      "CAC": 7984,
      "Dist": 7985,
      "Link": 7986,
      "MR": 7987,
      "Popen": 7988,
      "TL": 7989,
      "acesso": 7990,
      "batches": 7991,
      "hru": 7992,
      "kely": 7993,
      "nm": 7994,
      "qbar": 7995,
      "tc": 7996,
      "}]": 7997,
      "Ġtz": 7998,
      "met": 7999
    },
    "merges": [
      [
        "Ġ",
        "Ġ"
      ],
      [
        "ĠĠ",
        "ĠĠ"
      ],
      [
        "ĠĠ",
        "Ġ"
      ],
      [
        "ĠĠĠĠ",
        "ĠĠĠĠ"
      ],
      [
        "ĠĠĠĠ",
        "ĠĠĠ"
      ],
      [
        "i",
        "n"
      ],
      [
        "s",
        "e"
      ],
      [
        "r",
        "e"
      ],
      [
        "o",
        "n"
      ],
      [
        "a",
        "t"
      ],
      [
        "Ġ",
        "t"
      ],
      [
        "s",
        "t"
      ],
      [
        "e",
        "r"
      ],
      [
        "o",
        "r"
      ],
      [
        "Ġ",
        "a"
      ],
      [
        "e",
        "n"
      ],
      [
        "ĠĠĠĠĠĠĠĠ",
        "ĠĠĠ"
      ],
      [
        "Ġ",
        "="
      ],
      [
        "h",
        "e"
      ],
      [
        "Ġ",
        "i"
      ],
      [
        "d",
        "e"
      ],
      [
        "a",
        "r"
      ],
      [
        "l",
        "e"
      ],
      [
        "Ġ",
        "f"
      ],
      [
        "a",
        "l"
      ],
      [
        "m",
        "e"
      ],
      [
        "Ġ",
        "c"
      ],
      [
        "\"",
        "\""
      ],
      [
        "i",
        "on"
      ],
      [
        "Ġ",
        "re"
      ],
      [
        "u",
        "r"
      ],
      [
        "Ġt",
        "he"
      ],
      [
        "Ġ",
        "n"
      ],
      [
        "se",
        "l"
      ],
      [
        "Ġ",
        "in"
      ],
      [
        "sel",
        "f"
      ],
      [
        "Ġ",
        "p"
      ],
      [
        "a",
        "n"
      ],
      [
        "i",
        "t"
      ],
      [
        "c",
        "e"
      ],
      [
        "Ġ",
        "o"
      ],
      [
        "c",
        "t"
      ],
      [
        "Ġ",
        "s"
      ],
      [
        "in",
        "g"
      ],
      [
        "Ġ",
        "'"
      ],
      [
        "Ġ",
        "e"
      ],
      [
        "a",
        "me"
      ],
      [
        "r",
        "o"
      ],
      [
        "g",
        "e"
      ],
      [
        "u",
        "t"
      ],
      [
        "Ġ",
        "d"
      ],
      [
        "u",
        "e"
      ],
      [
        "l",
        "o"
      ],
      [
        "ĠĠĠĠĠĠĠĠ",
        "ĠĠĠĠĠĠĠĠ"
      ],
      [
        "Ġ",
        "b"
      ],
      [
        "Ġi",
        "f"
      ],
      [
        "p",
        "e"
      ],
      [
        "en",
        "t"
      ],
      [
        "-",
        "-"
      ],
      [
        ")",
        ":"
      ],
      [
        "Ġ",
        "self"
      ],
      [
        "Ġ",
        "w"
      ],
      [
        "ur",
        "n"
      ],
      [
        "\"\"",
        "\""
      ],
      [
        "t",
        "urn"
      ],
      [
        "Ġ",
        "m"
      ],
      [
        "at",
        "e"
      ],
      [
        "ĠĠĠĠĠĠĠĠ",
        "ĠĠĠĠĠĠĠ"
      ],
      [
        "o",
        "t"
      ],
      [
        "l",
        "i"
      ],
      [
        "f",
        "i"
      ],
      [
        "u",
        "n"
      ],
      [
        "s",
        "s"
      ],
      [
        "Ġt",
        "o"
      ],
      [
        "Ġ",
        "\"\"\""
      ],
      [
        "a",
        "m"
      ],
      [
        "st",
        "r"
      ],
      [
        "Ġf",
        "or"
      ],
      [
        "Ġ",
        "#"
      ],
      [
        "Ġ",
        ":"
      ],
      [
        "de",
        "f"
      ],
      [
        "r",
        "a"
      ],
      [
        "on",
        "e"
      ],
      [
        "Ġ",
        "("
      ],
      [
        "Ġi",
        "s"
      ],
      [
        "Ġ",
        "v"
      ],
      [
        "Ġo",
        "f"
      ],
      [
        "e",
        "d"
      ],
      [
        "Ġa",
        "n"
      ],
      [
        "Ġre",
        "turn"
      ],
      [
        "u",
        "m"
      ],
      [
        "a",
        "d"
      ],
      [
        "i",
        "d"
      ],
      [
        "c",
        "o"
      ],
      [
        "u",
        "l"
      ],
      [
        "p",
        "t"
      ],
      [
        "y",
        "pe"
      ],
      [
        "t",
        "er"
      ],
      [
        "at",
        "a"
      ],
      [
        "l",
        "a"
      ],
      [
        "c",
        "h"
      ],
      [
        "e",
        "s"
      ],
      [
        "N",
        "one"
      ],
      [
        "al",
        "ue"
      ],
      [
        "Ġ",
        "T"
      ],
      [
        "i",
        "l"
      ],
      [
        "(",
        ")"
      ],
      [
        "i",
        "s"
      ],
      [
        "u",
        "p"
      ],
      [
        "at",
        "ion"
      ],
      [
        "'",
        ","
      ],
      [
        "r",
        "i"
      ],
      [
        "Ġ",
        "se"
      ],
      [
        "c",
        "k"
      ],
      [
        "ge",
        "t"
      ],
      [
        "p",
        "ar"
      ],
      [
        "d",
        "i"
      ],
      [
        "n",
        "ame"
      ],
      [
        "Ġc",
        "o"
      ],
      [
        "e",
        "l"
      ],
      [
        "Ġ",
        "\""
      ],
      [
        "Ġn",
        "ot"
      ],
      [
        "m",
        "a"
      ],
      [
        "Ġan",
        "d"
      ],
      [
        "e",
        "x"
      ],
      [
        "Ġc",
        "on"
      ],
      [
        "Ġt",
        "h"
      ],
      [
        ".",
        "_"
      ],
      [
        "t",
        "h"
      ],
      [
        "m",
        "p"
      ],
      [
        "k",
        "e"
      ],
      [
        ")",
        ")"
      ],
      [
        "Ġ",
        "l"
      ],
      [
        "(",
        "'"
      ],
      [
        "Ġe",
        "x"
      ],
      [
        "ul",
        "t"
      ],
      [
        "ct",
        "ion"
      ],
      [
        "o",
        "de"
      ],
      [
        "t",
        "a"
      ],
      [
        "ĠĠĠĠĠĠĠĠ",
        "ĠĠĠĠĠĠĠĠĠĠĠ"
      ],
      [
        "at",
        "h"
      ],
      [
        "Ġ",
        "h"
      ],
      [
        "Ġf",
        "i"
      ],
      [
        "--",
        "--"
      ],
      [
        "Ġb",
        "e"
      ],
      [
        "Ġ",
        "A"
      ],
      [
        "r",
        "or"
      ],
      [
        "b",
        "le"
      ],
      [
        "o",
        "l"
      ],
      [
        "v",
        "e"
      ],
      [
        "g",
        "s"
      ],
      [
        "v",
        "er"
      ],
      [
        "c",
        "on"
      ],
      [
        "Ġ",
        "I"
      ],
      [
        "str",
        "ing"
      ],
      [
        "'",
        ":"
      ],
      [
        "t",
        "ype"
      ],
      [
        "se",
        "r"
      ],
      [
        "Ġ",
        "+"
      ],
      [
        "R",
        "e"
      ],
      [
        "Ġ",
        "or"
      ],
      [
        "a",
        "s"
      ],
      [
        "Ġ",
        "1"
      ],
      [
        "Ġ",
        "g"
      ],
      [
        "li",
        "st"
      ],
      [
        "b",
        "j"
      ],
      [
        ">",
        ">"
      ],
      [
        "i",
        "me"
      ],
      [
        "pt",
        "ion"
      ],
      [
        "it",
        "h"
      ],
      [
        "Ġ",
        "["
      ],
      [
        "a",
        "p"
      ],
      [
        "q",
        "u"
      ],
      [
        "Ġ",
        "st"
      ],
      [
        "par",
        "am"
      ],
      [
        "e",
        "ct"
      ],
      [
        "en",
        "d"
      ],
      [
        "e",
        "t"
      ],
      [
        "Ġ",
        "None"
      ],
      [
        "ke",
        "y"
      ],
      [
        "m",
        "at"
      ],
      [
        "Ġ",
        "S"
      ],
      [
        "'",
        ")"
      ],
      [
        "an",
        "d"
      ],
      [
        "in",
        "t"
      ],
      [
        "'",
        "]"
      ],
      [
        "Ġ",
        "u"
      ],
      [
        "f",
        "or"
      ],
      [
        "an",
        "ce"
      ],
      [
        "Ġ",
        "lo"
      ],
      [
        "Ġ",
        "de"
      ],
      [
        "Ġv",
        "alue"
      ],
      [
        "m",
        "ent"
      ],
      [
        "s",
        "p"
      ],
      [
        "Ġ",
        "C"
      ],
      [
        "t",
        "e"
      ],
      [
        "Ġd",
        "i"
      ],
      [
        "*",
        "*"
      ],
      [
        "t",
        "o"
      ],
      [
        "Ġd",
        "ata"
      ],
      [
        "[",
        "'"
      ],
      [
        "Ġ",
        "-"
      ],
      [
        "ro",
        "m"
      ],
      [
        "i",
        "se"
      ],
      [
        "Ġ",
        "{"
      ],
      [
        "ex",
        "t"
      ],
      [
        "Ġ",
        "0"
      ],
      [
        "v",
        "i"
      ],
      [
        "o",
        "d"
      ],
      [
        "i",
        "g"
      ],
      [
        "Ġ",
        "r"
      ],
      [
        "l",
        "y"
      ],
      [
        "u",
        "b"
      ],
      [
        "Ġe",
        "l"
      ],
      [
        "or",
        "t"
      ],
      [
        "Ġp",
        "ar"
      ],
      [
        "E",
        "r"
      ],
      [
        "i",
        "st"
      ],
      [
        "Ġel",
        "se"
      ],
      [
        "n",
        "t"
      ],
      [
        "i",
        "z"
      ],
      [
        "Er",
        "ror"
      ],
      [
        "st",
        "ance"
      ],
      [
        "Ġ",
        "F"
      ],
      [
        "a",
        "ge"
      ],
      [
        "i",
        "p"
      ],
      [
        "Ġa",
        "r"
      ],
      [
        "Ġw",
        "ith"
      ],
      [
        "p",
        "ath"
      ],
      [
        "er",
        "s"
      ],
      [
        "Ġa",
        "s"
      ],
      [
        "se",
        "t"
      ],
      [
        "Ġn",
        "ame"
      ],
      [
        "(",
        "\""
      ],
      [
        "a",
        "se"
      ],
      [
        "or",
        "d"
      ],
      [
        "fi",
        "le"
      ],
      [
        "Ġ",
        "me"
      ],
      [
        "Ġ=",
        "="
      ],
      [
        "r",
        "ue"
      ],
      [
        "Ġ",
        "P"
      ],
      [
        "Ġa",
        "l"
      ],
      [
        "p",
        "ut"
      ],
      [
        "Ġ",
        "%"
      ],
      [
        "Ġ",
        "D"
      ],
      [
        "d",
        "ata"
      ],
      [
        "q",
        "ue"
      ],
      [
        "in",
        "e"
      ],
      [
        "ra",
        "ise"
      ],
      [
        "a",
        "ble"
      ],
      [
        "Ġfi",
        "le"
      ],
      [
        "Ġ",
        "_"
      ],
      [
        "c",
        "he"
      ],
      [
        "ar",
        "gs"
      ],
      [
        ")",
        ","
      ],
      [
        "p",
        "o"
      ],
      [
        "c",
        "i"
      ],
      [
        "Ġp",
        "ro"
      ],
      [
        "Ġ",
        "y"
      ],
      [
        "bj",
        "ect"
      ],
      [
        "Ġ",
        "`"
      ],
      [
        "i",
        "c"
      ],
      [
        ".",
        "."
      ],
      [
        "s",
        "h"
      ],
      [
        "Ġf",
        "rom"
      ],
      [
        "o",
        "ut"
      ],
      [
        "it",
        "e"
      ],
      [
        "Ġ",
        "Re"
      ],
      [
        "l",
        "u"
      ],
      [
        "ĠT",
        "he"
      ],
      [
        "e",
        "w"
      ],
      [
        "de",
        "x"
      ],
      [
        "ame",
        "ter"
      ],
      [
        "o",
        "w"
      ],
      [
        "el",
        "d"
      ],
      [
        "Ġre",
        "s"
      ],
      [
        "r",
        "y"
      ],
      [
        "Ġ",
        "list"
      ],
      [
        "at",
        "t"
      ],
      [
        "am",
        "p"
      ],
      [
        "al",
        "se"
      ],
      [
        "ar",
        "t"
      ],
      [
        "p",
        "er"
      ],
      [
        "Ġ",
        "str"
      ],
      [
        "al",
        "l"
      ],
      [
        "a",
        "ck"
      ],
      [
        "Ġ",
        "E"
      ],
      [
        "Ġ",
        "*"
      ],
      [
        "Ġ",
        "on"
      ],
      [
        "o",
        "ur"
      ],
      [
        "re",
        "d"
      ],
      [
        "v",
        "alue"
      ],
      [
        "fi",
        "g"
      ],
      [
        "ur",
        "l"
      ],
      [
        "ap",
        "p"
      ],
      [
        "Ġ",
        "raise"
      ],
      [
        "iz",
        "e"
      ],
      [
        "Ġ",
        ">>"
      ],
      [
        "a",
        "ult"
      ],
      [
        "Ġ",
        "N"
      ],
      [
        "ĠĠĠĠĠĠĠĠĠĠĠĠĠĠĠĠ",
        "ĠĠĠĠĠĠĠ"
      ],
      [
        "Ġ>>",
        ">"
      ],
      [
        "\"",
        ","
      ],
      [
        "Ġc",
        "h"
      ],
      [
        "Ġth",
        "at"
      ],
      [
        "u",
        "s"
      ],
      [
        "f",
        "o"
      ],
      [
        "Ġ",
        "def"
      ],
      [
        "v",
        "al"
      ],
      [
        "m",
        "m"
      ],
      [
        "for",
        "mat"
      ],
      [
        "que",
        "st"
      ],
      [
        "Ġw",
        "h"
      ],
      [
        "ra",
        "y"
      ],
      [
        "p",
        "y"
      ],
      [
        "Ġn",
        "p"
      ],
      [
        "Ġm",
        "a"
      ],
      [
        "t",
        "ime"
      ],
      [
        "re",
        "nt"
      ],
      [
        "0",
        "0"
      ],
      [
        "re",
        "s"
      ],
      [
        "m",
        "s"
      ],
      [
        "Ġ",
        "2"
      ],
      [
        "ĠĠĠĠĠĠĠĠĠĠĠĠĠĠĠĠ",
        "ĠĠĠĠĠĠĠĠĠĠĠĠĠĠĠĠ"
      ],
      [
        "d",
        "ate"
      ],
      [
        "Ġ",
        "|"
      ],
      [
        "in",
        "d"
      ],
      [
        "]",
        ","
      ],
      [
        "ĠĠĠĠ",
        "Ġ"
      ],
      [
        "i",
        "v"
      ],
      [
        "Ġ",
        "M"
      ],
      [
        "ro",
        "up"
      ],
      [
        "ode",
        "l"
      ],
      [
        "i",
        "m"
      ],
      [
        "Ġth",
        "is"
      ],
      [
        "b",
        "er"
      ],
      [
        "Ġlo",
        "g"
      ],
      [
        "Ġ",
        "get"
      ],
      [
        "]",
        ")"
      ],
      [
        "Ġ",
        "string"
      ],
      [
        "Ġse",
        "t"
      ],
      [
        "an",
        "ge"
      ],
      [
        "\"",
        ")"
      ],
      [
        "Ġ",
        "x"
      ],
      [
        "ce",
        "ss"
      ],
      [
        "amp",
        "le"
      ],
      [
        "il",
        "l"
      ],
      [
        "k",
        "w"
      ],
      [
        "Ġt",
        "ype"
      ],
      [
        "Ġa",
        "re"
      ],
      [
        "Ġl",
        "en"
      ],
      [
        "Ġ",
        "key"
      ],
      [
        "ce",
        "s"
      ],
      [
        "Ġu",
        "se"
      ],
      [
        "lo",
        "w"
      ],
      [
        "la",
        "ss"
      ],
      [
        "p",
        "ro"
      ],
      [
        "Ġ",
        "en"
      ],
      [
        "s",
        "c"
      ],
      [
        "h",
        "t"
      ],
      [
        "Ġo",
        "ut"
      ],
      [
        "Ġd",
        "o"
      ],
      [
        "Ġn",
        "um"
      ],
      [
        "um",
        "ent"
      ],
      [
        "ri",
        "b"
      ],
      [
        "=",
        "'"
      ],
      [
        "re",
        "ate"
      ],
      [
        "Ġi",
        "t"
      ],
      [
        "p",
        "re"
      ],
      [
        "Ġ",
        "<"
      ],
      [
        "un",
        "d"
      ],
      [
        "Ġi",
        "d"
      ],
      [
        "Ġt",
        "ime"
      ],
      [
        "f",
        "e"
      ],
      [
        "pe",
        "ci"
      ],
      [
        "u",
        "re"
      ],
      [
        "on",
        "se"
      ],
      [
        "co",
        "de"
      ],
      [
        "p",
        "a"
      ],
      [
        "u",
        "st"
      ],
      [
        "kw",
        "args"
      ],
      [
        "Ġ",
        "V"
      ],
      [
        "Ġb",
        "y"
      ],
      [
        "i",
        "le"
      ],
      [
        "ar",
        "y"
      ],
      [
        "Ġres",
        "ult"
      ],
      [
        "it",
        "y"
      ],
      [
        "Ġex",
        "ce"
      ],
      [
        "m",
        "o"
      ],
      [
        "Ġp",
        "a"
      ],
      [
        "l",
        "en"
      ],
      [
        "'",
        "'"
      ],
      [
        "Ġcon",
        "t"
      ],
      [
        "j",
        "o"
      ],
      [
        "d",
        "d"
      ],
      [
        "Ġo",
        "bject"
      ],
      [
        "un",
        "t"
      ],
      [
        "app",
        "end"
      ],
      [
        "g",
        "er"
      ],
      [
        "ut",
        "e"
      ],
      [
        "un",
        "ction"
      ],
      [
        "Ġp",
        "o"
      ],
      [
        "o",
        "m"
      ],
      [
        "Ġs",
        "h"
      ],
      [
        "turn",
        "s"
      ],
      [
        "or",
        "k"
      ],
      [
        "Ġ",
        "ro"
      ],
      [
        "re",
        "ad"
      ],
      [
        "it",
        "ion"
      ],
      [
        "ĠI",
        "f"
      ],
      [
        ")",
        "."
      ],
      [
        "le",
        "ment"
      ],
      [
        "d",
        "er"
      ],
      [
        "i",
        "ve"
      ],
      [
        "ĠT",
        "rue"
      ],
      [
        "our",
        "ce"
      ],
      [
        "Ġn",
        "ew"
      ],
      [
        "Ġ",
        "U"
      ],
      [
        "sp",
        "onse"
      ],
      [
        "at",
        "or"
      ],
      [
        "er",
        "ror"
      ],
      [
        "ameter",
        "s"
      ],
      [
        "in",
        "stance"
      ],
      [
        "co",
        "l"
      ],
      [
        "o",
        "p"
      ],
      [
        "li",
        "f"
      ],
      [
        "Ġp",
        "re"
      ],
      [
        "Ġ",
        "he"
      ],
      [
        "Ġs",
        "peci"
      ],
      [
        "a",
        "ct"
      ],
      [
        "lo",
        "g"
      ],
      [
        "di",
        "ct"
      ],
      [
        "th",
        "od"
      ],
      [
        "r",
        "an"
      ],
      [
        "Ġe",
        "lif"
      ],
      [
        "in",
        "dex"
      ],
      [
        "c",
        "a"
      ],
      [
        "Ġ",
        "G"
      ],
      [
        "u",
        "le"
      ],
      [
        "'",
        "."
      ],
      [
        "ar",
        "i"
      ],
      [
        "Ġw",
        "ill"
      ],
      [
        "Ġco",
        "l"
      ],
      [
        "Ġal",
        "l"
      ],
      [
        "f",
        "f"
      ],
      [
        "Ġ",
        "R"
      ],
      [
        "Ġt",
        "ry"
      ],
      [
        "ad",
        "d"
      ],
      [
        "o",
        "u"
      ],
      [
        "di",
        "r"
      ],
      [
        "Ġin",
        "t"
      ],
      [
        "Ġ",
        ">"
      ],
      [
        "\"",
        ":"
      ],
      [
        "j",
        "s"
      ],
      [
        "lo",
        "ad"
      ],
      [
        "r",
        "int"
      ],
      [
        "Ġexce",
        "pt"
      ],
      [
        "`",
        "`"
      ],
      [
        "c",
        "ation"
      ],
      [
        "y",
        "s"
      ],
      [
        "Ġ",
        "L"
      ],
      [
        "Ġ",
        "O"
      ],
      [
        "Ġ'",
        "''"
      ],
      [
        "i",
        "f"
      ],
      [
        "Ġw",
        "e"
      ],
      [
        "ta",
        "in"
      ],
      [
        "Ġm",
        "at"
      ],
      [
        "ss",
        "ion"
      ],
      [
        "a",
        "g"
      ],
      [
        "p",
        "h"
      ],
      [
        "_",
        "_"
      ],
      [
        "t",
        "ext"
      ],
      [
        "b",
        "u"
      ],
      [
        "a",
        "ve"
      ],
      [
        "Ġ",
        "----"
      ],
      [
        "mm",
        "and"
      ],
      [
        "re",
        "n"
      ],
      [
        "ig",
        "n"
      ],
      [
        "p",
        "p"
      ],
      [
        "Ġ",
        "W"
      ],
      [
        "or",
        "y"
      ],
      [
        "I",
        "n"
      ],
      [
        "o",
        "re"
      ],
      [
        "de",
        "d"
      ],
      [
        "Ġ",
        "**"
      ],
      [
        "g",
        "ument"
      ],
      [
        "ate",
        "d"
      ],
      [
        "Ġ`",
        "`"
      ],
      [
        "a",
        "pe"
      ],
      [
        "Ġc",
        "an"
      ],
      [
        "js",
        "on"
      ],
      [
        "re",
        "ct"
      ],
      [
        "er",
        "y"
      ],
      [
        "F",
        "alse"
      ],
      [
        "ut",
        "h"
      ],
      [
        "la",
        "b"
      ],
      [
        "Ġs",
        "ub"
      ],
      [
        "Ġin",
        "stance"
      ],
      [
        "an",
        "t"
      ],
      [
        "att",
        "r"
      ],
      [
        "|",
        "'"
      ],
      [
        "un",
        "c"
      ],
      [
        "'",
        "|'"
      ],
      [
        "..",
        "."
      ],
      [
        "Ġf",
        "unction"
      ],
      [
        "k",
        "en"
      ],
      [
        "Ġdef",
        "ault"
      ],
      [
        "il",
        "d"
      ],
      [
        "vi",
        "ce"
      ],
      [
        "Ġ",
        "--"
      ],
      [
        "um",
        "n"
      ],
      [
        "i",
        "r"
      ],
      [
        "Ġre",
        "quest"
      ],
      [
        "c",
        "ur"
      ],
      [
        "ss",
        "age"
      ],
      [
        "w",
        "ord"
      ],
      [
        "ĠRe",
        "turns"
      ],
      [
        "l",
        "s"
      ],
      [
        "b",
        "o"
      ],
      [
        "Ġp",
        "ath"
      ],
      [
        "Ġt",
        "e"
      ],
      [
        "l",
        "it"
      ],
      [
        "Ġfi",
        "eld"
      ],
      [
        "Ġb",
        "o"
      ],
      [
        "ĠF",
        "alse"
      ],
      [
        "T",
        "rue"
      ],
      [
        "ĠĠĠĠĠĠĠĠĠĠĠĠĠĠĠĠ",
        "ĠĠĠĠĠĠĠĠ"
      ],
      [
        "Ġo",
        "ption"
      ],
      [
        "ce",
        "ption"
      ],
      [
        "i",
        "fi"
      ],
      [
        "I",
        "d"
      ],
      [
        "ĠĠĠĠ",
        "ĠĠ"
      ],
      [
        "f",
        "a"
      ],
      [
        "Ġis",
        "instance"
      ],
      [
        "E",
        "x"
      ],
      [
        "ĠI",
        "n"
      ],
      [
        "Ġ",
        "le"
      ],
      [
        "ĠT",
        "h"
      ],
      [
        "Ġo",
        "s"
      ],
      [
        "jo",
        "in"
      ],
      [
        "for",
        "m"
      ],
      [
        "ar",
        "ray"
      ],
      [
        "Ġ+",
        "="
      ],
      [
        "ma",
        "ge"
      ],
      [
        "Ġ",
        "B"
      ],
      [
        "en",
        "er"
      ],
      [
        "att",
        "rib"
      ],
      [
        "c",
        "lass"
      ],
      [
        "s",
        "ize"
      ],
      [
        "p",
        "ort"
      ],
      [
        "Ġvalue",
        "s"
      ],
      [
        "in",
        "fo"
      ],
      [
        "up",
        "date"
      ],
      [
        "s",
        "ion"
      ],
      [
        "lo",
        "ck"
      ],
      [
        "Ġn",
        "ode"
      ],
      [
        "Ġ",
        "un"
      ],
      [
        "m",
        "in"
      ],
      [
        "qu",
        "i"
      ],
      [
        "se",
        "d"
      ],
      [
        "Ġco",
        "mp"
      ],
      [
        "he",
        "ck"
      ],
      [
        "]",
        "."
      ],
      [
        "c",
        "al"
      ],
      [
        "Ġi",
        "mp"
      ],
      [
        "d",
        "o"
      ],
      [
        "Ġa",
        "dd"
      ],
      [
        "Ġv",
        "al"
      ],
      [
        "v",
        "ent"
      ],
      [
        "Ġdi",
        "ct"
      ],
      [
        "[",
        "\""
      ],
      [
        "(",
        "):"
      ],
      [
        "n",
        "um"
      ],
      [
        "r",
        "on"
      ],
      [
        "st",
        "art"
      ],
      [
        "r",
        "ite"
      ],
      [
        "Ġ",
        "at"
      ],
      [
        "Ġn",
        "e"
      ],
      [
        "t",
        "t"
      ],
      [
        "Ġ{",
        "}"
      ],
      [
        "th",
        "er"
      ],
      [
        "lo",
        "at"
      ],
      [
        "Ġ",
        "k"
      ],
      [
        "n",
        "e"
      ],
      [
        "iv",
        "en"
      ],
      [
        "Ġcon",
        "fig"
      ],
      [
        "S",
        "t"
      ],
      [
        "ĠTh",
        "is"
      ],
      [
        "m",
        "l"
      ],
      [
        "ow",
        "n"
      ],
      [
        "Ġl",
        "ine"
      ],
      [
        "Ġp",
        "rint"
      ],
      [
        "Ġf",
        "il"
      ],
      [
        "i",
        "es"
      ],
      [
        "p",
        "la"
      ],
      [
        "Ġre",
        "sponse"
      ],
      [
        "E",
        "R"
      ],
      [
        "Ġm",
        "odel"
      ],
      [
        "val",
        "id"
      ],
      [
        "N",
        "ame"
      ],
      [
        "c",
        "lu"
      ],
      [
        "O",
        "N"
      ],
      [
        "e",
        "p"
      ],
      [
        "Ġme",
        "thod"
      ],
      [
        "n",
        "ode"
      ],
      [
        "Ġ",
        "H"
      ],
      [
        "w",
        "ork"
      ],
      [
        "Ġ[",
        "]"
      ],
      [
        "i",
        "al"
      ],
      [
        "lab",
        "el"
      ],
      [
        "ate",
        "s"
      ],
      [
        "Ġnum",
        "ber"
      ],
      [
        "qu",
        "ery"
      ],
      [
        "con",
        "d"
      ],
      [
        "c",
        "cess"
      ],
      [
        "te",
        "m"
      ],
      [
        "at",
        "us"
      ],
      [
        "Ġu",
        "ser"
      ],
      [
        "ar",
        "ch"
      ],
      [
        "Ġspeci",
        "fi"
      ],
      [
        "Ġc",
        "ur"
      ],
      [
        "ul",
        "d"
      ],
      [
        "con",
        "fig"
      ],
      [
        "K",
        "e"
      ],
      [
        "l",
        "ine"
      ],
      [
        "C",
        "on"
      ],
      [
        "Ġin",
        "dex"
      ],
      [
        "fi",
        "x"
      ],
      [
        "ad",
        "er"
      ],
      [
        "o",
        "s"
      ],
      [
        "en",
        "ce"
      ],
      [
        "v",
        "el"
      ],
      [
        "re",
        "ss"
      ],
      [
        "**",
        "**"
      ],
      [
        "b",
        "ase"
      ],
      [
        "i",
        "x"
      ],
      [
        "re",
        "turn"
      ],
      [
        "Ġ",
        "url"
      ],
      [
        "st",
        "er"
      ],
      [
        "od",
        "ule"
      ],
      [
        "Ġ",
        ")"
      ],
      [
        "fi",
        "eld"
      ],
      [
        "R",
        "E"
      ],
      [
        "con",
        "t"
      ],
      [
        "d",
        "a"
      ],
      [
        "Ġh",
        "as"
      ],
      [
        "Ġst",
        "art"
      ],
      [
        "o",
        "st"
      ],
      [
        "Ke",
        "y"
      ],
      [
        "ser",
        "t"
      ],
      [
        "Ġa",
        "pp"
      ],
      [
        "n",
        "d"
      ],
      [
        "Ġ",
        "3"
      ],
      [
        "e",
        "c"
      ],
      [
        "Ġs",
        "o"
      ],
      [
        "o",
        "k"
      ],
      [
        "t",
        "ing"
      ],
      [
        "re",
        "e"
      ],
      [
        "Ġ",
        "/"
      ],
      [
        "ers",
        "ion"
      ],
      [
        "Ġcon",
        "tain"
      ],
      [
        "ar",
        "d"
      ],
      [
        "Ġg",
        "iven"
      ],
      [
        "ma",
        "x"
      ],
      [
        "ĠV",
        "alue"
      ],
      [
        "i",
        "ch"
      ],
      [
        "Ġy",
        "ou"
      ],
      [
        "\"",
        "]"
      ],
      [
        "Ġn",
        "o"
      ],
      [
        "Ġout",
        "put"
      ],
      [
        "s",
        "k"
      ],
      [
        "o",
        "bj"
      ],
      [
        "as",
        "k"
      ],
      [
        ":",
        "`"
      ],
      [
        "up",
        "le"
      ],
      [
        "r",
        "st"
      ],
      [
        "ĠĠĠĠĠĠĠĠĠĠĠĠĠĠĠĠ",
        "ĠĠĠĠĠĠĠĠĠĠĠ"
      ],
      [
        "Ġma",
        "x"
      ],
      [
        "s",
        "ub"
      ],
      [
        "Ġ",
        "one"
      ],
      [
        "._",
        "_"
      ],
      [
        "Ġimp",
        "ort"
      ],
      [
        "it",
        "s"
      ],
      [
        "Ġar",
        "ray"
      ],
      [
        "li",
        "ent"
      ],
      [
        "in",
        "es"
      ],
[...]
