{
  "\u0120word": 1316,
  "hed": 2380,
  "\u0120')": 5124,
  "scan": 2748,
  "\u0120rather": 6648,
  "((": 1039,
  "ither": 1737,
  "nd": 843,
  "())": 1028,
  "'\"": 3001,
  "\u0120seen": 6035,
  "\u0120ncvar": 7286,
  "\">": 4083,
  "\u0120Send": 5756,
  "\u0120tip": 5165,
  "fileStore": 5975,
  "\u0120<<": 6196,
  "\u0120''.": 4726,
  "\u0120struct": 1842,
  "ases": 4367,
  "ale": 3180,
  "contains": 6104,
  "constraints": 7809,
  "hland": 5998,
  "straint": 1846,
  "shift": 3194,
  "\u0120\u00ec\u0140\u0127\u00eb\u0142\u00a5\u00eb\u0132\u013a\u00ec": 6456,
  "\u0120Add": 1747,
  "oms": 4294,
  "\u0120te": 712,
  "CH": 2467,
  "idxPrc": 7433,
  "GR": 7448,
  "\u0120None": 370,
  "content": 1068,
  "policy": 6945,
  "\u0120\u0120\u0120\u0120\u0120\u0120\u0120\u0120\u0120\u0120\u0120\u0120\u0120\u0120\u0120\u0120\u0120\u0120\u0120\u0120\u0120\u0120\u0120": 492,
  "\u0120dd": 7743,
  "\u0120HealthCheck": 7847,
  "cab": 4177,
  "\u0120ms": 7006,
  "\u00c3\u00a7": 5417,
  "\u0120project": 1807,
  "\u0120poly": 3983,
  "cessary": 3711,
  "packet": 4422,
  "\u0120tab": 5534,
  "\u0120get": 529,
  "=',": 4524,
  "\u0120DynamoDB": 3575,
  "CONFIG": 7377,
  "DBCluster": 6953,
  "URI": 6875,
  "\u0120src": 2630,
  "\u0120corresponding": 3089,
  "qa": 5342,
  "\u0120d": 242,
  "\u0120\u0120\u0120\u0120\u0120\u0120\u0120\u0120": 195,
  "\u0120enums": 7206,
  "}-": 6758,
  "md": 1256,
  "\u0120correctly": 7605,
  "molecule": 6650,
  "origin": 6865,
  "operator": 6141,
  "\u0120pk": 3486,
  "\u0120relevant": 7389,
  "entifi": 1131,
  "\u0120serial": 3071,
  "\u0120nan": 4089,
  "im": 525,
  "\u0120large": 5046,
  "WORD": 5499,
  "\u0120relation": 3431,
  "high": 4981,
  "\u0120pysv": 6790,
  "\u0120stored": 3222,
  "Annotation": 5851,
  "Valid": 2853,
  "\u0120Adds": 6166,
  "credentials": 7671,
  "Par": 1064,
  "\u0120hdu": 7467,
  "conf": 2381,
  "activ": 5914,
  "\u0120static": 7021,
  "\u0120ordering": 7203,
  "\u0120kwargs": 1065,
  "\u00b8\u00ec\u0126\u013e": 6026,
  "\u0120parameter": 946,
  "reg": 1140,
  "\u0120'--": 2765,
  "ital": 6367,
  "********************************": 3857,
  "####": 1597,
  "'),": 1947,
  "rac": 4533,
  "ran": 625,
  "\u0120sat": 4110,
  "ps": 919,
  "unding": 7822,
  "msKeyId": 7588,
  "'|'": 694,
  "\u0120is": 276,
  "qual": 1378,
  "\u0120Query": 4319,
  "swith": 1376,
  "PA": 4663,
  "\u0120matrix": 1884,
  "\u0120web": 2643,
  "signature": 6269,
  "orator": 6845,
  "unch": 2595,
  "\u0120entity": 4123,
  "\u0120ver": 1240,
  "lean": 1050,
  "\u0120other": 1109,
  "\u0120Me": 1998,
  "('\\": 3047,
  "\u0120P": 432,
  "chain": 3221,
  "\u0120exchange": 5806,
  "\u0120Read": 3276,
  "ext": 397,
  "mbols": 6571,
  "\u0120facet": 6278,
  "\u0120sort": 1324,
  "idd": 1806,
  "outfile": 6977,
  "\u0120adjust": 6660,
  "\u0120here": 2665,
  "\u0120service": 1655,
  "\u0120customer": 7602,
  "\u0120generator": 2717,
  "UID": 6637,
  "etwork": 967,
  "Window": 4135,
  "deepcopy": 7573,
  "\u00bb": 124,
  "nder": 2209,
  "res": 512,
  "\u0120select": 1996,
  "\u0120genome": 5607,
  "\u0120identify": 5926,
  "\u0120much": 7047,
  "members": 5358,
  "\u0120environment": 1511,
  "groups": 2832,
  "AP": 3861,
  "\u0120q": 1471,
  "\u0120Build": 6834,
  "oot": 3642,
  "jo": 585,
  "son": 3532,
  "\u0120(\"": 2768,
  "\u0120retain": 7924,
  "WE": 7334,
  "\u0120\"{}": 3709,
  "\u0120{}'.": 3228,
  "\u00ea\u00b0\u0122": 5379,
  "plica": 7734,
  "\u0120selection": 4309,
  "fully": 5986,
  "itch": 2716,
  "entic": 2111,
  "tml": 2460,
  "\u0120Up": 2871,
  "\u0120summary": 4245,
  "('#": 5566,
  "\u0120Error": 4528,
  "import": 4100,
  "\u0120x": 535,
  "\u0120Cluster": 5068,
  "settings": 2801,
  "Imp": 3995,
  "\u0120track": 4275,
  "hn": 3342,
  "loader": 5398,
  "\u0120shift": 5948,
  "squ": 6802,
  "Parent": 7977,
  "Connect": 6131,
  "Cnfg": 5312,
  "\u0120white": 5977,
  "\u0120networkapi": 7835,
  "page": 1933,
  "defaults": 4452,
  "inv": 6064,
  "Parameter": 2108,
  "okup": 3094,
  "exit": 3106,
  "ata": 290,
  "pa": 570,
  "\u0120man": 1776,
  "R": 54,
  "\u0120desc": 2254,
  "nodes": 2394,
  "links": 4521,
  "lusters": 6483,
  "label": 801,
  "\u0120smooth": 5045,
  "\u0120!=": 940,
  "Request": 2280,
  "gment": 3512,
  "\u0120they": 2307,
  "\u0120upper": 3570,
  "ers": 421,
  "recv": 7347,
  "enu": 4633,
  "\u0120compare": 4602,
  "tail": 2677,
  "\u0120loading": 6952,
  "\u0120cublas": 4967,
  "edge": 1778,
  "\u0120\u0120\u0120\u0120\u0120\u0120\u0120\u0120\u0120\u0120\u0120\u0120\u0120\u0120\u0120\u0120\u0120\u0120\u0120\u0120\u0120\u0120\u0120\u0120\u0120\u0120\u0120\u0120\u0120\u0120\u0120\u0120\u0120\u0120\u0120": 1824,
  "remaining": 6186,
  "55": 1470,
  "\u0120added": 2702,
  "ER": 788,
  "fficient": 3178,
  "\u0120asp": 6028,
  ");": 7081,
  "\u0120answer": 7447,
  "Root": 5528,
  "\u0120y": 450,
  "\u0120sentences": 7959,
  "dim": 1866,
  "\u0120task": 1419,
  "ARD": 6659,
  "node": 796,
  "\u0120signature": 4867,
  "</": 2785,
  "')": 374,
  "\u012016": 3998,
  "log": 622,
  "REQU": 2188,
  "aise": 2837,
  "\u0120lon": 3667,
  "ons": 4252,
  "\u0120idd": 6039,
  "sect": 7241,
  "\u0120setattr": 4568,
  "atures": 2208,
  "don": 5475,
  "\u0120XMLError": 4180,
  "\u0120supports": 6228,
  "(',": 4742,
  "',": 302,
  "9999": 1917,
  "\u0120profile": 3800,
  "funcs": 3061,
  "ssh": 4119,
  "block": 1331,
  "\u0120PO": 4753,
  "ml": 780,
  "comp": 960,
  "selection": 5770,
  "\u0120$": 3753,
  "\",": 494,
  "abel": 5669,
  "ensions": 2487,
  "\u0120probability": 4170,
  "logging": 4165,
  "\u0120finally": 3858,
  "andlers": 4847,
  "Pitch": 7727,
  "\u0120latest": 5484,
  "cce": 6799,
  "\u0120overwrite": 4002,
  "one": 274,
  "\u0120behavior": 6541,
  "CESS": 7071,
  "ams": 3479,
  "\u0120beco": 7311,
  "\u0120\u0120\u0120\u0120\u0120\u0120\u0120\u0120\u0120\u0120\u0120\u0120\u0120\u0120\u0120\u0120\u0120\u0120\u0120\u0120\u0120\u0120\u0120\u0120\u0120\u0120\u0120": 868,
  "True": 717,
  "\u0120visit": 4998,
  "\u0120resp": 2310,
  "\u0120prior": 6860,
  "\u0120account": 2771,
  "'\\": 3895,
  "weight": 4418,
  "yd": 5800,
  "category": 5825,
  "oth": 1130,
  "\u0120uses": 3087,
  "ically": 2261,
  "\"},": 4523,
  "\u0120Handle": 5627,
  "Mdl": 2620,
  "iteral": 6349,
  "nown": 1929,
  "zon": 1362,
  "\u0120configuration": 1580,
  "24": 2707,
  "imation": 5032,
  "uth": 686,
  "\u012a\u00eb\u012d\u00a4": 5443,
  "\u0120logger": 1308,
  "ution": 1114,
  "\u0120NotImplementedError": 6017,
  "\u0120gap": 7099,
  "vals": 2206,
  "Port": 5200,
  "\u0120my": 3092,
  "('%": 3193,
  "ele": 4061,
  "7554": 2203,
  "application": 3583,
  "icode": 1418,
  "confi": 5596,
  "\u0120proto": 7255,
  "parallel": 7636,
  "\u0120them": 2192,
  "\u0120provi": 1360,
  "vi": 399,
  "mac": 4185,
  "\u0120proxy": 5324,
  "\u0120exists": 2178,
  "sudo": 4480,
  "\u0120Mon": 5299,
  "\u0120nodes": 1768,
  "headers": 2143,
  "scripts": 7319,
  "AD": 2366,
  "full": 2207,
  "acy": 5732,
  "ES": 2115,
  "\u0120trace": 2881,
  "screen": 6223,
  "pointer": 6649,
  "']),": 6974,
  "\u0120edges": 3456,
  "getLocalId": 7446,
  "\u0120like": 2319,
  "\u0120schema": 2094,
  "wrapped": 7438,
  "\u0120power": 5563,
  "\u0120highest": 7413,
  "\u0120scores": 6120,
  "ators": 4493,
  "[\"": 762,
  "\u0120commdct": 5258,
  "\u0120OrderedDict": 6055,
  "\u0120events": 3116,
  "grupo": 4927,
  "\u0120\u00ec\u0124\u00ac\u00ec\u0139\u0127\u00ec\u0140\u0132": 6164,
  "zy": 4138,
  "\u0120words": 3014,
  "\u0120owner": 5236,
  "\u0120runtime": 6986,
  "Copy": 6700,
  "mplate": 1053,
  "\u0120polynomial": 7494,
  "\u0120{\"": 1864,
  "\u0120scope": 3025,
  "'][": 3470,
  "strument": 3480,
  "post": 1849,
  "Fail": 7777,
  "'": 11,
  "\u0142": 190,
  "\u0120On": 3004,
  "istry": 3432,
  "\u0120tests": 6821,
  "bers": 2123,
  "send": 1857,
  "ic": 453,
  "\u0120truth": 7283,
  "inux": 4082,
  "distance": 2684,
  "extensions": 7190,
  "\u0120media": 5130,
  "\u0120Inst": 6129,
  "\u0120characters": 2048,
  "\u0120[[": 4214,
  "\u0120plot": 2323,
  "pk": 2824,
  "et": 369,
  "sequences": 2508,
  "\u0120define": 4492,
  "lio": 6252,
  "\u0120exist": 1020,
  "\u0120auto": 1888,
  "\u0120security": 3317,
  "\u0120Job": 5054,
  "\u0120readout": 7017,
  "marker": 7842,
  "\u0120half": 7904,
  "radi": 1666,
  "ParseError": 7850,
  "e": 73,
  "\u0120ta": 1342,
  "Availability": 6921,
  "]-": 6391,
  "\u0120if": 247,
  "gsize": 7148,
  "\u0120parameters": 1115,
  "scribe": 6127,
  "]*": 3538,
  "open": 1645,
  "self": 227,
  "naQuant": 4554,
  "ation": 301,
  "entity": 2350,
  "=_": 4688,
  "RE": 834,
  "array": 733,
  "\u0120pa": 581,
  "\u0120Di": 2802,
  "\u0120checks": 3654,
  "VE": 4197,
  "\u0120workers": 5844,
  "Template": 7439,
  "\u0120ad": 1622,
  "mtp": 7601,
  "\u0120pre": 618,
  "\u0120\u0120\u0120\u0120\u0120\u0120": 723,
  "dc": 3304,
  "\u0120recomm": 6846,
  "ize": 488,
  "line": 816,
  "dom": 2804,
  "\u0120|=": 6565,
  "cord": 1029,
  "\u0120fitted": 7491,
  "fi": 262,
  "\u0120sub": 688,
  "ies": 785,
  "poly": 4810,
  "\u0120but": 1224,
  "ul": 286,
  "\u0120positional": 7706,
  "best": 4314,
  "batches": 7991,
  "scrib": 7105,
  "\u0120tuples": 3822,
  "if": 655,
  "ull": 1041,
  "month": 3022,
  "He": 3349,
  "\u0120properties": 3224,
  "\u0120unique": 2622,
  "\u0120needed": 3324,
  "\u0120path": 711,
  "uto": 1156,
  "henotype": 6663,
  "\u0120optim": 4504,
  "\u0120Bo": 5427,
  "Ac": 6018,
  "\u0120cas": 4904,
  "in": 197,
  "\u0120lst": 2673,
  "\u0120magnitude": 7225,
  "dwave": 7672,
  "\u0120data": 391,
  "Custom": 3933,
  "\u0120object": 587,
  "\u0120\"\\": 3581,
  "\u0120HTML": 3958,
  "\u0120...": 926,
  "\u0120RuntimeError": 2430,
  "database": 4909,
  "\u0120far": 6763,
  "\u0120consecutive": 7879,
  "YY": 4778,
  "\u0120PopbillException": 3825,
  "\u0120types": 2191,
  "adata": 1265,
  "iving": 7938,
  "fp": 6116,
  "trics": 5885,
  "Ver": 6023,
  "\u0120charact": 1452,
  "\u0120ap": 1956,
  "transp": 5117,
  "\u0120bro": 5421,
  "\u0120iterate": 6701,
  "work": 798,
  "ntry": 4864,
  "\u0120pick": 4884,
  "\u0120echo": 7741,
  "Of": 4292,
  "Location": 5461,
  "cles": 6245,
  "\u0120lists": 3033,
  "\u0120bit": 3363,
  "\u0120\u00ed\u012e\u013f\u00eb\u00b9\u012e\u00ed\u013c\u012e\u00ec\u013d\u0132": 5551,
  "labels": 2142,
  "nk": 2611,
  "Values": 3940,
  "\u0120safe": 6011,
  "lax": 6433,
  "\u0120subnet": 4438,
  "lug": 6690,
  "ox": 3122,
  "return": 828,
  "filename": 1102,
  "prob": 5454,
  "\u0120sky": 6990,
  "00": 511,
  "AN": 1353,
  "\u0120potential": 5434,
  "default": 1036,
  "ptional": 1938,
  "\u0120wrong": 7005,
  "template": 1902,
  "\u0120quote": 7065,
  "\u0120receive": 7304,
  "BUG": 5093,
  "\u0120\u00ec\u0137\u012c": 5611,
  "\u0120cons": 2231,
  "\u0120inds": 7738,
  "\u0120needs": 3942,
  "cheme": 3471,
  "\u0120group": 976,
  "\u0120dec": 2758,
  "\u0120bool": 1090,
  "\u0120second": 2269,
  "back": 878,
  "uble": 4651,
  "\u0120modify": 4794,
  "\u0120NC": 5088,
  "history": 5819,
  "Calcul": 4797,
  "\u0120fully": 6109,
  "erce": 5640,
  "lo": 244,
  "TEMP": 6532,
  "gnored": 5265,
  "Pro": 1394,
  "randint": 7778,
  "\u0120shape": 1734,
  "lambda": 2137,
  "html": 1544,
  ".)": 3447,
  "\u0120low": 4639,
  "top": 1919,
  "gate": 3706,
  "Mask": 6463,
  "disable": 5075,
  "rozen": 7405,
  "user": 999,
  "\u0120({": 7804,
  "sq": 1840,
  "board": 4843,
  "\u0120Parameters": 1033,
  "]),": 2939,
  "\u0120adds": 6374,
  "ellow": 7749,
  "batch": 3219,
  "pt": 287,
  "ability": 4587,
  "\u0120about": 2257,
  "\u0120module": 1274,
  "\u0120multi": 3892,
  "\u0120into": 1126,
  "\u0120pipe": 4564,
  "\u0120Domain": 4169,
  "ambda": 1348,
  "\u0120parse": 1813,
  "nav": 7300,
  "all": 476,
  "testing": 4869,
  "\u0120Q": 1726,
  "\u00e2\u0136": 4105,
  "faces": 3915,
  "ware": 4342,
  "\u0120incre": 3747,
  "synchronous": 5268,
  "parsers": 6052,
  "\u013d": 185,
  "rupo": 5382,
  "dify": 3318,
  "je": 3539,
  "config": 814,
  "\u0120und": 2414,
  "Empty": 7031,
  "stor": 6678,
  "sive": 3658,
  "\u0120\"/": 3699,
  "\u0120Server": 4681,
  "sentence": 4846,
  "\u0120wrapped": 5000,
  "\u0120Work": 5487,
  "\u0120ret": 1379,
  "\u0120Tags": 5912,
  "\u0120ne": 769,
  "):": 251,
  "Reg": 3293,
  "spection": 6824,
  "\u0120prepare": 3374,
  "lit": 713,
  "\u0120made": 5146,
  "Com": 7229,
  "\u0120domain": 2664,
  "\u0120cache": 1482,
  "-%": 3703,
  "connection": 2511,
  "PY": 5583,
  "reqs": 7839,
  "\u0120caller": 7320,
  "\u0130": 172,
  "RA": 5498,
  "LOG": 4996,
  "[-": 1337,
  "Build": 6829,
  "N": 50,
  "cations": 6075,
  "\u0120called": 2513,
  "\u00eb\u00b2\u012a\u00ed\u013a\u00b8": 3131,
  "\u0120roll": 3849,
  "motifs": 3902,
  "\u0120platform": 5447,
  "IRED": 2285,
  "Hist": 6505,
  "____": 6780,
  "FI": 1937,
  "\u0120longitude": 7165,
  "\u0120pygame": 6617,
  "states": 3226,
  "\u0120regular": 5330,
  "tree": 1589,
  "\u0120timestamp": 2519,
  "edir": 4751,
  "\u00e7\u0136": 7570,
  "Md": 7912,
  "|": 96,
  "\u0120approx": 7437,
  "lose": 1436,
  "ier": 2462,
  "ouble": 4286,
  "xpath": 5745,
  "state": 1548,
  "\u00ec\u013d\u0132": 4323,
  "\u0120Trans": 6096,
  "(*": 1663,
  "7": 27,
  "serialize": 4850,
  "\u0120states": 2954,
  "\u0120same": 1327,
  "Mo": 4073,
  "KeyId": 5107,
  "icro": 3869,
  "\u0120workflow": 2842,
  "\u0120\u00ec\u0140\u0127\u00eb\u0142\u00a5\u00eb\u0132\u013a\u00ec\u00a7\u0122": 6457,
  "('.')": 5362,
  "analys": 2638,
  "ORM": 4264,
  "nu": 6553,
  "hell": 3181,
  "go": 2957,
  "sbjct": 5099,
  "ranges": 6227,
  "right": 1689,
  "ynchronous": 3793,
  "\u0120NO": 3327,
  "vertex": 4675,
  "rent": 510,
  "odule": 831,
  "\u0120Editor": 4684,
  "etc": 6894,
  "Sd": 6179,
  "\u0120J": 1309,
  "layer": 3634,
  "\u0120Wh": 5572,
  "omial": 2429,
  "ose": 1610,
  "pth": 1822,
  "/',": 6241,
  "\u0120bucket": 3260,
  "\u0120still": 4668,
  "ience": 6674,
  "\u0120Method": 3271,
  "orter": 6680,
  "\u0120conside": 6312,
  "urname": 6850,
  "urn": 254,
  "boolean": 3536,
  "\u0120aryPrfTc": 5655,
  "pfp": 3526,
  "\u0120,": 1653,
  "ignore": 4122,
  "\u0120read": 1046,
  "ending": 2388,
  "CT": 3587,
  "gent": 5415,
  "\u0120'/'": 4371,
  "Pa": 6464,
  "hash": 3302,
  "DEBUG": 5603,
  "semble": 6059,
  "\u0120publish": 4467,
  "\u00e6\u0138": 5503,
  "\u0120-": 393,
  "Protocol": 7533,
  "DBInstance": 6051,
  "--------": 1266,
  "\u0120Ass": 4861,
  "raw": 1037,
  "select": 2633,
  "\u0120VLAN": 6898,
  "auth": 1220,
  "arm": 3376,
  "observ": 5849,
  "\u0120With": 6443,
  "cut": 4339,
  "\u0120phase": 5852,
  "Sign": 5141,
  "mit": 1012,
  "ferred": 5278,
  "\u0126\u00ec\u0128\u00a1": 6143,
  "angle": 2779,
  "Author": 6826,
  "oci": 1656,
  "rout": 4156,
  "ATT": 6410,
  ")}": 4116,
  "ard": 853,
  "\u0120null": 4430,
  "need": 7155,
  "i": 77,
  "bl": 5411,
  "\u0120CommandError": 6142,
  ":`": 865,
  "posit": 2591,
  ")),": 2283,
  "\u00d0": 135,
  "vide": 3567,
  "\u0120target": 1179,
  "ray": 505,
  "\u0120amp": 5419,
  "orth": 6727,
  "\u0120\u0120\u0120\u0120\u0120\u0120\u0120\u0120\u0120\u0120\u0120\u0120\u0120\u0120\u0120\u0120\u0120\u0120\u0120\u0120\u0120\u0120\u0120\u0120\u0120\u0120\u0120\u0120\u0120\u0120\u0120\u0120\u0120\u0120\u0120\u0120\u0120\u0120\u0120\u0120\u0120\u0120\u0120\u0120\u0120\u0120\u0120\u0120\u0120\u0120\u0120\u0120\u0120\u0120\u0120\u0120\u0120\u0120\u0120\u0120\u0120\u0120\u0120\u0120": 6161,
  "created": 5332,
  "uts": 6369,
  "late": 934,
  "\u0120draw": 4838,
  "\u0120allows": 5018,
  ".\\": 5159,
  "\u0120Configuration": 6792,
  "ulk": 7579,
  "\u00b4": 117,
  "ility": 1460,
  "...,": 6855,
  "\u00b3": 116,
  "alpha": 3211,
  "\u0120dataframe": 7687,
  "\u0120','.": 7162,
  "\u0120SE": 7359,
  "\u0120having": 7638,
  "]))": 1755,
  "\u0120state": 1403,
  "ublic": 4752,
  "96": 7668,
  "buffer": 3670,
  "mp": 321,
  "\u0120dic": 5663,
  "\u0120widget": 5690,
  "ments": 1350,
  "pixel": 3469,
  "iled": 1399,
  "\u0120week": 6295,
  "BU": 3519,
  "Do": 3151,
  "dirs": 4056,
  "atest": 4728,
  "\u0120dap": 6849,
  "WARNING": 7625,
  "\u0120outfile": 6404,
  "\u0120co": 310,
  "\u0120done": 2942,
  "lun": 7563,
  "\u0120form": 1993,
  "REQUIRED": 2294,
  "olved": 4475,
  "\u0120cur": 812,
  "\u0120Gets": 6049,
  "roy": 7742,
  "gument": 677,
  "\u0120Identifi": 7217,
  "Column": 6707,
  "\u0120User": 1767,
  "\u0120exceptions": 2827,
  "system": 3233,
  "ast": 1208,
  "\u0120won": 7745,
  "MR": 7987,
  "\u0120speci": 620,
  "Con": 817,
  "RI": 2363,
  "\u0120yaml": 4514,
  "IT": 1406,
  "\u0120\"\",": 6307,
  "\u0120protocol": 2739,
  "Failed": 5403,
  "devices": 4614,
  "Query": 4571,
  "thod": 624,
  "ID": 1135,
  "dec": 3401,
  "lihood": 6122,
  "\u0120coordinate": 6519,
  "tes": 1125,
  "\u0120monitor": 6050,
  "\u0120left": 2701,
  "ORT": 7200,
  "\u0120vip": 5387,
  "\u0120pid": 7351,
  "task": 1834,
  "\u0126": 162,
  "scope": 3786,
  "Char": 7271,
  "Endpoint": 6995,
  "\u0120[-": 6562,
  "dev": 4804,
  "\u0120dif": 1723,
  "\u0120repeat": 5854,
  "simple": 7455,
  "SIS": 7116,
  "Fn": 4852,
  "}]": 7997,
  "\u0120\u0120\u0120\u0120\u0120\u0120\u0120\u0120\u0120\u0120\u0120\u0120\u0120\u0120\u0120\u0120\u0120\u0120\u0120\u0120\u0120\u0120\u0120\u0120\u0120\u0120\u0120\u0120\u0120\u0120\u0120\u0120\u0120\u0120": 3301,
  "ssl": 5296,
  "warn": 2856,
  "writer": 6969,
  "profile": 4549,
  "vip": 3308,
  "!": 5,
  "\u0120never": 6266,
  "fter": 1507,
  "gr": 966,
  "\u0120Not": 2229,
  "\u0120sc": 1132,
  "=\"": 949,
  "()),": 6645,
  "acl": 5787,
  "arr": 3192,
  "ategory": 3491,
  "\u0120wait": 2358,
  "filters": 4265,
  "ww": 2278,
  "\u0120fore": 4937,
  "variants": 7971,
  "\u0120remove": 1647,
  "reverse": 5617,
  "\u0120due": 5659,
  "Size": 3039,
  "lis": 4858,
  "cx": 5657,
  "vate": 2528,
  "\u0120rename": 5933,
  "FORM": 5438,
  "\u0120constraint": 5777,
  "linspace": 5853,
  "\u012010": 1788,
  "Argument": 2483,
  "\u0120email": 2580,
  "\u0120pd": 3977,
  "\u0120MA": 6566,
  "walk": 5119,
  "\u0120Scan": 7811,
  "\u0120Inte": 4000,
  "context": 2134,
  "pol": 2063,
  "\u0120\u0120\u0120\u0120\u0120\u0120\u0120\u0120\u0120\u0120\u0120\u0120\u0120\u0120\u0120\u0120\u0120\u0120\u0120\u0120\u0120\u0120\u0120\u0120\u0120\u0120\u0120\u0120\u0120\u0120": 2501,
  "0": 20,
  "child": 1801,
  "\u0120valid": 983,
  "the": 1765,
  "rou": 2102,
  "cle": 2299,
  "\u0120along": 4618,
  "radians": 5632,
  "\u0120\u00e6": 3975,
  "\u0120including": 4682,
  "ene": 4693,
  "\u0120#": 270,
  "Lgc": 5966,
  "scale": 3953,
  "\u0120201": 4065,
  "filen": 1086,
  "proc": 5249,
  "ine": 439,
  "\u00c7": 134,
  "memory": 6310,
  "ane": 6731,
  "ix": 827,
  "host": 1398,
  "/'": 2647,
  "sy": 1409,
  "\u0120Git": 6345,
  "rst": 867,
  "ower": 3967,
  "\u0120compatibility": 7387,
  "\u0120'.'": 5257,
  "\u0120because": 2776,
  "utils": 2118,
  ">',": 4468,
  "\u0120orig": 1787,
  "TYPE": 2852,
  "[:-": 2863,
  "min": 749,
  "\u0120constant": 6909,
  "\u00c5": 132,
  "04": 2347,
  "clip": 4482,
  "mazon": 1416,
  "\u0120\u0120\u0120\u0120\u0120\u0120\u0120\u0120\u0120\u0120\u0120\u0120\u0120\u0120\u0120\u0120\u0120\u0120\u0120\u0120\u0120\u0120\u0120\u0120\u0120": 2089,
  "uv": 5828,
  "false": 6841,
  "\u0120*,": 7472,
  "\u0120details": 3373,
  "\u0120version": 1010,
  "\u0120evaluation": 7711,
  "\u0120NetCDF": 6342,
  "ut": 241,
  "()": 298,
  "\u0120assistant": 6448,
  "parser": 1860,
  "\u0120line": 782,
  "\u0120common": 3169,
  "US": 2751,
  "\u0120interfaces": 6657,
  "\u0120expr": 4783,
  "\u0120((": 2617,
  "\u0120rot": 3812,
  "\u0120rotation": 5550,
  "\u0120const": 2538,
  "Works": 7222,
  "quipamento": 2403,
  "\u0120aggreg": 6703,
  "derr": 2067,
  "tri": 1045,
  "\u0120altern": 6370,
  "uct": 957,
  "unique": 3513,
  "\u0120hook": 6381,
  "CS": 5081,
  "Res": 1491,
  ":]": 1925,
  "'t": 1044,
  "stat": 2586,
  ":\\": 4627,
  "yn": 950,
  "AT": 970,
  "\u00ec\u0140": 3264,
  "ener": 737,
  "\u0120signal": 2406,
  "\u0120https": 2951,
  "\u0120Num": 1991,
  "\u0120Guide": 3225,
  "\u0120topology": 7408,
  "\u0120Re": 459,
  "mk": 5476,
  "her": 2834,
  "\u0120---------": 4926,
  "agraph": 5147,
  "tt": 770,
  "\u0120makes": 6380,
  "\u0120fig": 3203,
  "splitext": 5458,
  "Level": 4134,
  "\u0120diction": 5974,
  "\u0120range": 881,
  "rewrite": 6000,
  "env": 1984,
  "12": 1196,
  "\u0120start": 838,
  "fin": 3121,
  "()[": 3213,
  "\u0120zip": 2361,
  "feren": 913,
  "watch": 7735,
  "\u0120sender": 5388,
  "sd": 4936,
  "\u0120parser": 1566,
  "\",\"": 7418,
  "\u0120true": 2098,
  "ater": 1346,
  "\u0120Tag": 4636,
  "\u0120next": 1557,
  "\u0120internal": 3362,
  "\u0120inspect": 4201,
  "\u0120sure": 3266,
  "(\"\\": 3686,
  "\u0120Will": 6041,
  "Q": 53,
  "\u0120client": 1550,
  "\u0120uWSGI": 7812,
  "\u0120iss": 2737,
  "ngine": 4124,
  "tered": 3093,
  "ratio": 5478,
  "fault": 1246,
  "sumer": 5602,
  "lu": 460,
  "\u0120Also": 3872,
  "\u0120variance": 5673,
  "asc": 6070,
  "Data": 1241,
  "*\\": 6997,
  "\u0120namespace": 2955,
  "Info": 3088,
  "\u013a\u00ec\u012c\u00b5\u00eb\u012d\u012a\u00eb\u012d\u00a4": 6417,
  "\u0120main": 2822,
  "rfc": 7205,
  "qdm": 7864,
  "bg": 2900,
  "\u0120supplied": 3879,
  "\u0120::": 3779,
  "city": 5929,
  "\u0120syllable": 4736,
  "\u0120inside": 5592,
  "tem": 807,
  "\u0120ph": 2224,
  "26": 7030,
  "east": 7032,
  "\u0120exponent": 5463,
  "\u0120full": 2228,
  "\u0120everything": 7380,
  "organ": 6989,
  "imit": 7256,
  "\u0120these": 2695,
  "tr": 2772,
  "\u0120``": 679,
  "identity": 6095,
  "\u0120eas": 6556,
  "\u0120URI": 6899,
  "Command": 5133,
  "\u0120cover": 5540,
  "\u0128": 164,
  "napshot": 1746,
  "load": 646,
  "GroupSet": 5493,
  "\u0120substitutions": 6570,
  "\u0120ob": 2065,
  "exception": 1571,
  "\u0120vari": 2746,
  "\u0120vertex": 3806,
  "\u0120xrange": 7820,
  "\u0120doc": 2669,
  "50": 3477,
  "sur": 3767,
  "ir": 703,
  "formatter": 7818,
  "\u013a": 182,
  "\u0120exc": 2895,
  "\u0120font": 6248,
  "\u0120bs": 7145,
  "calcul": 4844,
  "django": 6182,
  "obs": 4199,
  "\u0120Ch": 2556,
  "permissions": 6896,
  "PE": 1233,
  "cing": 3827,
  "hood": 5987,
  "\u0120\u0120\u0120\u0120\u0120\u0120\u0120\u0120\u0120\u0120\u0120\u0120\u0120": 1635,
  "wo": 1510,
  "\u0120Axes": 7582,
  "\u0120At": 5129,
  "std": 1690,
  "dit": 7918,
  "private": 6579,
  "mig": 7919,
  "TS": 4196,
  "\u0120field": 714,
  "\u0120Process": 7120,
  "\u0120local": 1863,
  "\u0120plo": 4578,
  "\u0120mu": 7464,
  "\u0120\u0120\u0120\u0120\u0120\u0120\u0120\u0120\u0120\u0120\u0120\u0120\u0120\u0120\u0120\u0120\u0120\u0120\u0120\u0120\u0120\u0120\u0120\u0120\u0120\u0120\u0120\u0120\u0120\u0120\u0120\u0120\u0120\u0120\u0120\u0120\u0120\u0120\u0120\u0120\u0120\u0120\u0120\u0120\u0120\u0120\u0120\u0120\u0120\u0120": 7420,
  "\u0120it": 559,
  "\u0120window": 2446,
  ")`": 6386,
  "(':": 6777,
  "conds": 1335,
  "\u0120option": 719,
  "alys": 1876,
  "\u0120a": 206,
  "\u0120statement": 5704,
  "\u0120device": 1883,
  "cade": 3831,
  "\u0120seconds": 2127,
  "Address": 3943,
  "NI": 6963,
  "urnal": 6216,
  "#": 7,
  "\u0120NotImplemented": 5707,
  "{}\\": 7321,
  "\u0120datatype": 7611,
  "indow": 1380,
  "abs": 3005,
  "comm": 1611,
  "\u0120visual": 7774,
  "region": 4301,
  "Version": 2443,
  "Engine": 7859,
  "\u0120chart": 5089,
  "Parameters": 4331,
  "USE": 7728,
  "\u00af": 112,
  "Start": 3188,
  "\u0120distribution": 3215,
  "isfi": 6604,
  "\u0120action": 1288,
  "]],": 5744,
  "LAN": 3578,
  "\u0120callable": 3279,
  "\u0120Elastic": 4787,
  "Util": 7905,
  "bond": 7002,
  "Process": 5211,
  "ordinates": 2223,
  "currence": 7851,
  "\u0120gre": 2639,
  "\u0120rm": 7884,
  "\u0120exception": 1590,
  "virt": 6687,
  "\u0120sing": 1538,
  "\u0120DataFrame": 4739,
  "ceived": 2282,
  "double": 5218,
  "amma": 5564,
  "\u0120mult": 1545,
  "short": 4948,
  "lace": 6603,
  "Job": 3853,
  "turn": 256,
  "CA": 7390,
  "\u0120duration": 3041,
  "}\\": 3332,
  "Collection": 5262,
  "results": 2320,
  "NG": 6506,
  "ded": 675,
  "State": 2588,
  "aa": 6114,
  "\u0120Condition": 6572,
  ">{}": 7981,
  "oked": 7427,
  "endpoint": 4064,
  "eded": 2593,
  "ves": 2632,
  "hing": 4006,
  "\"\"": 219,
  "\u0120part": 1372,
  "msg": 1388,
  "\u0120scri": 2817,
  "\u0120csv": 5063,
  "ver": 343,
  "\u0120created": 1927,
  "replace": 1469,
  "'ll": 7291,
  "ordinate": 5333,
  "\u0120vlan": 4373,
  "reshold": 2060,
  "stitution": 3597,
  "linalg": 6062,
  "+": 15,
  "\u0120float": 1019,
  "Check": 2348,
  "\u0120tre": 4427,
  "\u0120input": 942,
  "\u0120Lo": 1989,
  "fname": 2998,
  "Session": 4379,
  "seq": 1983,
  "\u0120verbose": 2515,
  "\u0120higher": 5039,
  "\u0120cols": 7527,
  "'re": 3732,
  "!\")": 6238,
  "\u0120lock": 6194,
  "\u00c2\u00b3": 7796,
  "\u0120\u00ec\u0137\u012c\u00ec\u0137\u013a\u00ec\u012c\u00b5\u00eb\u012d\u012a\u00eb\u012d\u00a4": 6421,
  "score": 3679,
  "\u0120specific": 2437,
  "\u0120their": 2522,
  "anumeric": 7663,
  "\u0123": 159,
  "\u0120Write": 5148,
  "\u0120Raises": 3551,
  "DEFAULT": 4370,
  "=(": 2471,
  "\u0120complex": 5757,
  "inst": 2848,
  "\u0120Arguments": 3852,
  "CON": 2356,
  "sen": 5444,
  "and": 375,
  "code": 569,
  "lim": 2806,
  "remot": 6677,
  "\u011b": 156,
  "\u0120repo": 3344,
  ":-": 3395,
  "Find": 6873,
  "\u00ea\u00b8": 6971,
  "\u00a4": 102,
  "\u0120branch": 2946,
  "Calculate": 5821,
  "atoms": 5970,
  "olr": 4731,
  "\u0120numpy": 1402,
  "om": 594,
  "loy": 1975,
  "Var": 7729,
  "\u00eb\u00a6": 4562,
  "\u0120sm": 3315,
  "car": 7626,
  "start": 766,
  "\u0120Runtime": 2266,
  "pping": 3026,
  "\u0120insert": 2885,
  "ather": 4015,
  "tag": 1022,
  "\u0120mem": 1878,
  "xlarge": 2016,
  "timegrids": 6293,
  "With": 6719,
  "\u0120requirements": 7073,
  "HE": 3994,
  "\u00e7\u00ac": 7569,
  "\")[": 6343,
  "\u0120sudo": 4419,
  "ute": 591,
  "View": 5743,
  "\u0120decoded": 6994,
  "writ": 3962,
  "verted": 6489,
  "feed": 7194,
  "\u0120clean": 2983,
  "\u0120OR": 6983,
  "\u0120previous": 2453,
  "FA": 2938,
  "FIEL": 6861,
  "met": 7999,
  "stract": 4545,
  "<|indent|>": 4,
  "=%": 4445,
  "ra": 273,
  "ib": 1127,
  "18": 3185,
  "\u0120O": 653,
  "SV": 7506,
  "uch": 4062,
  "generated": 7490,
  "de": 212,
  "fast": 1868,
  "abspath": 4702,
  "\u00eb\u012d": 3064,
  "\u0120Ar": 1158,
  "\u0120catalog": 5856,
  "\u0120span": 5035,
  "\u00d3": 137,
  "latt": 3069,
  "fix": 819,
  "\u0120permissions": 4032,
  "\u0120->": 1008,
  "\u0120Gen": 7945,
  "contain": 2195,
  "\u012013": 5726,
  "Using": 7558,
  "(('": 7979,
  "\u0120Append": 7712,
  "\u0120body": 2239,
  "ON": 793,
  "que": 438,
  "enario": 4748,
  "peting": 4579,
  "find": 1332,
  "ssue": 7309,
  "\u0120Ad": 4600,
  "Handle": 7232,
  "elements": 3021,
  "redirect": 5188,
  "\u0120calls": 4001,
  "\u0120tri": 2305,
  "\u0120pe": 2553,
  "\u0120dialog": 7750,
  "\u0120Set": 1636,
  "cell": 3630,
  "\u0120headers": 1908,
  "ad": 283,
  "\u0120force": 2455,
  "\u0120topics": 5815,
  "ory": 672,
  "AegeanTools": 6869,
  "INE": 4092,
  "conditions": 3821,
  "\u0120external": 5973,
  "ValueError": 6351,
  "\u012032": 6612,
  "\u0120subset": 7056,
  "\u0120schedule": 7740,
  "pert": 1178,
  "coder": 3764,
  ".\"": 2304,
  "front": 7732,
  "ground": 2314,
  "\u0120CloudWatch": 6828,
  "ouse": 4821,
  "flow": 1496,
  "uous": 5530,
  "analy": 6333,
  "ql": 2570,
  "\u00a3o": 3553,
  "\u00b5": 118,
  "\u0120cntxt": 7515,
  "02": 2180,
  "peci": 566,
  "\u0120prevent": 6162,
  "ich": 857,
  "actor": 1697,
  "\u00eb\u00b2": 3082,
  "\u0120call": 904,
  "\u0120handler": 2447,
  "listdir": 7009,
  "Vpc": 7730,
  "\u0120appropri": 3871,
  "MI": 3950,
  "schema": 1924,
  "\u0120serializer": 7330,
  "\u0120than": 1285,
  "\u0120>>": 489,
  "\u0120has": 837,
  "handle": 1830,
  "\u0120'-": 2327,
  "include": 4692,
  "facet": 5091,
  "\u0120handle": 1952,
  "IL": 3015,
  "\u0120contract": 5347,
  "\u0120packages": 5818,
  "Snapshot": 5409,
  "\u0120Par": 925,
  "Associ": 6749,
  "\u0120Context": 6305,
  "SecurityGroup": 4535,
  "\u0120real": 3098,
  "ATION": 4506,
  "vices": 2249,
  "validate": 2678,
  "competing": 6988,
  "rash": 6003,
  "']]": 5392,
  "\u0120idfobj": 7823,
  "\u0120Version": 4923,
  "\u0120prop": 4175,
  "tailed": 5662,
  "\u0120cls": 1484,
  "lue": 3612,
  "green": 4409,
  "store": 1688,
  "MODE": 5738,
  "ender": 3319,
  "\u0120backups": 6531,
  "WS": 1472,
  "ring": 1407,
  "\u0120ali": 2491,
  "istant": 2889,
  "\u0120\u00e7": 6027,
  "\u0120ns": 4429,
  "\u0120launch": 4673,
  "Remove": 5363,
  "\u0120Dis": 4491,
  "rad": 4090,
  "\u00c3\u00a1": 4880,
  "\u0120\u00ec": 1446,
  "\u0120ref": 1480,
  "\u0120num": 554,
  "\u0120entries": 4219,
  "\u0120Indicator": 6163,
  "letter": 7267,
  "\u0120eps": 7306,
  "\u0120creating": 4647,
  "\u0120deployment": 3517,
  "odel": 524,
  ",))": 7173,
  "\u00e3": 141,
  "\u0120singular": 7831,
  "onical": 6329,
  "\u0120us": 2498,
  "\u0120cloud": 5445,
  "signal": 4059,
  "29": 5822,
  "cloud": 4388,
  "processing": 7158,
  "\u0120format": 987,
  "Builder": 5402,
  "\u0120train": 4440,
  "\u0120represent": 1738,
  "\u0120boundary": 6273,
  "mapping": 4987,
  "\u0120le": 728,
  ".'": 3919,
  "ality": 5507,
  "\u0120mis": 5724,
  "ATED": 7893,
  "nots": 5668,
  "\u0120determined": 6057,
  "lin": 3563,
  "odenames": 7547,
  "\u00a8\u012d": 7736,
  "\u0128\u00a1": 5587,
  "\u00e2\u0137": 6326,
  "Ref": 5245,
  "tect": 3141,
  ".],": 6174,
  "spa": 1271,
  "orage": 2215,
  "\u0120supply": 6614,
  "\u0120ow": 2879,
  "pose": 5131,
  "\u0120replaced": 6495,
  "\u0120locale": 6259,
  "\u0120Sub": 4054,
  ".%": 5965,
  "ighb": 2325,
  "\u0120Format": 6409,
  "lots": 6517,
  "catalog": 7840,
  "entry": 2657,
  "\u0120500": 7757,
  "\u0120box": 3744,
  "\u0120Required": 2596,
  "={'": 5634,
  "email": 3200,
  "ire": 3808,
  "Status": 2502,
  "Selection": 7265,
  "ro": 239,
  "loco": 5775,
  "sample": 1761,
  "Pay": 7557,
  "(['": 4195,
  "\u0120sorted": 1977,
  "orld": 5242,
  "queryset": 7426,
  "\u0120pro": 449,
  "cre": 1392,
  "\u0120connection": 1802,
  "au": 1967,
  "FC": 6020,
  "atom": 3976,
  "Event": 3208,
  "))": 323,
  "As": 5767,
  "\u0120Out": 3743,
  "\u0120walk": 4750,
  "flat": 3880,
  "du": 1928,
  "Missing": 6587,
  "\u0120hum": 6778,
  "ynch": 3397,
  "\u0120allow": 1497,
  "\u0120run": 927,
  "oper": 3600,
  "\u0120%(": 4075,
  "Nao": 4575,
  "lack": 4730,
  "ulti": 3099,
  "\u0120stage": 6436,
  "\u0120errors": 2246,
  "\u0120tag": 1123,
  "\u0120@": 1042,
  "\u0120sta": 6522,
  "flux": 4003,
  "ays": 1960,
  "Dict": 2424,
  "\u0120dimension": 4442,
  "\u0120basic": 5451,
  "logy": 2795,
  "tention": 6662,
  "ptr": 7007,
  "\u0120Examples": 3073,
  "\u0120member": 3289,
  "Output": 5020,
  "inuous": 5610,
  "\u00e2": 140,
  "\u0120Enable": 5921,
  "]'": 7236,
  "meth": 4213,
  "\u0120write": 1762,
  "\u0120fleet": 6729,
  "direct": 1532,
  "\u0120error": 896,
  "\u0120epoch": 6368,
  "pos": 937,
  "\u0120first": 1021,
  "OS": 7914,
  "classes": 3191,
  "\u0120Integer": 4361,
  "\u0120port": 1893,
  "\u0120Identifier": 5353,
  "htt": 1606,
  "One": 6999,
  "\u0120pending": 7460,
  "CO": 1923,
  "\u0120requested": 3929,
  "\u0120invalid": 2075,
  "\u0120validate": 2465,
  "\u0120extensions": 6905,
  "weights": 3653,
  "\u0120status": 1431,
  "\u0120App": 2943,
  "\u0120fo": 4503,
  "\u0120item": 1175,
  "\u0140": 188,
  "gan": 4128,
  "other": 2023,
  "ceive": 4940,
  "\u0120succe": 7891,
  "LECT": 7487,
  "COMP": 7066,
  "cov": 7519,
  "ups": 4042,
  "****************": 2222,
  "\u0120ga": 6336,
  "aly": 2924,
  "VER": 2945,
  "anit": 6513,
  "ax": 1081,
  "Detail": 5786,
  "vious": 2090,
  "rstrip": 6592,
  "pen": 1040,
  "\u0120snapshot": 3182,
  "\u0120you": 858,
  "auss": 3130,
  "enum": 5386,
  "\u0120article": 4646,
  "iv": 521,
  "CRE": 7621,
  "A": 37,
  "itive": 2412,
  "bins": 6199,
  "\u0120species": 7421,
  "failure": 7541,
  "ports": 5729,
  "\u0120kind": 3712,
  "written": 7661,
  "\u0120Compute": 5521,
  "\u00e9": 147,
  "resp": 1964,
  "\u0120problems": 6831,
  "\u0120regions": 5259,
  "\u0120docs": 4969,
  "release": 2869,
  "service": 1895,
  "channels": 5923,
  "Results": 6206,
  "qualified": 7703,
  "\u0120step": 2036,
  "gorith": 2936,
  "\u0120Used": 6949,
  "ara": 5868,
  "cei": 4039,
  "exec": 2095,
  "86": 5059,
  "alle": 2805,
  "99": 954,
  "1234": 6416,
  "\u0120vectors": 5103,
  "kwds": 7193,
  "RO": 2072,
  "section": 1974,
  "\u0120Sh": 2514,
  "\u0120html": 2618,
  "uple": 866,
  "missing": 4411,
  "logical": 4584,
  "pages": 6906,
  "lay": 1558,
  "ithub": 2858,
  "append": 589,
  "\u0120cpe": 7737,
  "60": 3527,
  "bi": 5824,
  "anguage": 1604,
  "\u0120{}\".": 2992,
  "quires": 3558,
  "\u0120curr": 4970,
  "\u0120four": 7574,
  "box": 3176,
  "dividual": 3586,
  "\u0120'__": 4920,
  "TL": 7989,
  "input": 1270,
  "ges": 7801,
  "\u0120period": 3594,
  "33": 2444,
  "\u0120cle": 4118,
  "__.": 4770,
  "\u0120proces": 3205,
  "\u0120ca": 1009,
  "MaintenanceWindow": 7664,
  "sion": 745,
  "\u0120art": 2829,
  "\u0120Schema": 6337,
  "\u0120Config": 3285,
  "\u0120silent": 7244,
  "td": 7340,
  "\u0120\u0120\u0120\u0120\u0120\u0120\u0120\u0120\u0120\u0120\u0120": 208,
  "MIN": 6021,
  "topic": 7274,
  "n": 82,
  "\u0120configured": 5349,
  "atype": 5043,
  "\u0120ValidationException": 7545,
  "Po": 2275,
  "\u0120o": 232,
  "curs": 1906,
  "fn": 1948,
  "ernel": 3614,
  "choices": 7837,
  "encoding": 2966,
  "low": 546,
  "\u0120\"+": 7684,
  "\u0120s": 234,
  "\u0120pos": 1166,
  "blank": 4690,
  "ight": 956,
  "\u0120sn": 6092,
  "\u0120function": 696,
  "\u0120frames": 7068,
  "\u0120AWS": 1682,
  "\u00ec\u0142": 5504,
  "step": 1757,
  "\u0120'": 236,
  "ure": 567,
  "\u0120hidden": 5029,
  "\u0120happ": 5321,
  "startswith": 1819,
  "eds": 3978,
  "action": 1481,
  "\u00bc": 125,
  "ust": 571,
  "\u0120store": 2763,
  "_[": 7394,
  "List": 1311,
  "agent": 4551,
  "annot": 3024,
  "\u0120order": 1322,
  "\u0120calcul": 1966,
  "200": 3340,
  "dat": 3588,
  "Dir": 7555,
  "\u0120reason": 6119,
  "tolist": 7686,
  "ci": 448,
  "\u0120tree": 2073,
  "sertion": 6655,
  "an": 229,
  "Nodes": 5955,
  "\u0120attribute": 1203,
  "\u0120returned": 1514,
  "Contact": 7648,
  "our": 481,
  "\"]": 859,
  "\u0120j": 1070,
  "\u0120connect": 2408,
  "\u0120Item": 6561,
  "&": 10,
  "cal": 755,
  "distances": 6627,
  "<|bos|>": 2,
  "ultip": 3936,
  "ange": 533,
  "ss": 264,
  "hdu": 7395,
  "\u0120mo": 1191,
  "directory": 2670,
  "\u0120verify": 4497,
  "\u0120got": 5597,
  "IC": 2284,
  "AST": 5113,
  "itle": 1078,
  "indel": 5930,
  "irth": 6653,
  "ken": 697,
  "lect": 1055,
  "\u0120iteration": 5492,
  "sensus": 6277,
  "\u0120Direct": 7381,
  "nome": 5917,
  "('/')": 6356,
  "DATA": 6636,
  "\u0120.": 951,
  "req": 2153,
  "dimensional": 7026,
  "og": 1609,
  "IP": 1992,
  "comb": 6478,
  "``.": 2339,
  "ant": 690,
  "arn": 2040,
  "grade": 4426,
  "\u0120newline": 6948,
  "d": 72,
  "\u0120computed": 7425,
  "win": 6394,
  "\u0120too": 4235,
  "\u0120for": 269,
  "beta": 4955,
  "idget": 3415,
  "\u0120declare": 7606,
  "quence": 1143,
  "\u0120bg": 3227,
  "\u0120glob": 6036,
  "\u0120ny": 5539,
  "\u00ec\u013c": 7037,
  "bool": 1867,
  "tuple": 1855,
  "\u0120cv": 4881,
  "\u0120what": 3051,
  "\u0120connected": 5261,
  "length": 1476,
  "flo": 6756,
  "\u0120\u0120\u0120\u0120": 193,
  "wrapper": 3579,
  "\u00eb\u012d\u012a\u00eb\u012d\u00a4": 5471,
  "=\"\",": 6917,
  "ged": 3498,
  "char": 1854,
  "\u00e2\u0122": 3589,
  "\u0120404": 7266,
  "\u0120evalu": 2902,
  "time": 509,
  "\u0120put": 3934,
  "\u00c3\u00a7\u00c3\u00a3o": 5857,
  "\u0120style": 2728,
  "decode": 2204,
  "In": 673,
  "Could": 4483,
  "\u0120operations": 4868,
  "\u0120setup": 4583,
  "ctest": 5189,
  "\u0120Snapshot": 6480,
  "\u0120rendered": 7976,
  "output": 1165,
  "ache": 3081,
  "angu": 1598,
  "\u0120links": 4289,
  "\u0120create": 880,
  "cookie": 7465,
  "/(": 6282,
  "\u0120\"%": 2478,
  "\u0120\u00ed\u012e\u013f": 4610,
  "B": 38,
  "olar": 7051,
  "light": 3084,
  "\u0120expected": 2509,
  "op": 616,
  "\u0120specifi": 811,
  "\u0120Reference": 6222,
  "\u0120see": 1575,
  "\u0120config": 777,
  "\u0120De": 933,
  "\u0120chunk": 1705,
  "vis": 1533,
  "dum": 2297,
  "atrix": 7456,
  "ONE": 4910,
  "tokens": 4454,
  "\u0120only": 963,
  "dered": 2655,
  "list": 356,
  "08": 6459,
  "\u0120pragma": 7092,
  "\u0120items": 1858,
  "\u0120utils": 5292,
  "25": 2340,
  "\u0120cent": 2773,
  "\u0120SSECustomer": 7150,
  "AC": 1546,
  "\u0120strings": 2248,
  "']": 377,
  "etCDF": 4144,
  "\u0120alias": 5137,
  "pr": 1213,
  "\u0120extract": 3108,
  "Be": 4227,
  "\u0120header": 1449,
  "\u0120specified": 971,
  "\u0120tpl": 5618,
  "\u0120key": 543,
  "gt": 2489,
  "\u0120collections": 4873,
  "Validation": 4538,
  "\u0120dimensions": 4625,
  "tach": 2333,
  "registry": 5887,
  "olution": 2812,
  "\u0120Group": 3840,
  "tipo": 6015,
  "\u0120before": 1710,
  "permission": 6439,
  ":{": 7857,
  "\u0120&": 1877,
  "Ser": 2605,
  "ta": 330,
  "llable": 3331,
  "\u0120Result": 6167,
  "iste": 2169,
  "ameter": 464,
  "ses": 941,
  "\u0120motifs": 3190,
  "bo": 710,
  "\u0120codes": 6785,
  "Thread": 6908,
  "escape": 6173,
  "\u00c3\u00a9": 7343,
  "\u0120\u00eb\u00b0": 7660,
  "ush": 5904,
  "binary": 4912,
  "Search": 3502,
  "\u0120repos": 7870,
  "s": 87,
  "\u0120components": 4125,
  "\u0120equivalent": 5359,
  "rix": 1344,
  "\u0120don": 2422,
  "proces": 5570,
  "param": 366,
  "\u0120scatter": 6412,
  "ving": 4097,
  "test": 1502,
  "\u00e5\u0143\u0139": 7782,
  "\u0120logging": 1569,
  "\u0120example": 1417,
  "\u0120comments": 7897,
  "nb": 7920,
  "cker": 3035,
  "quip": 1463,
  "ank": 3145,
  "iosample": 5524,
  "\u0120nii": 6366,
  "('_": 5244,
  "png": 5477,
  "\u0120poss": 7753,
  "Time": 1438,
  "\u0120\u00ec\u0124\u00ac\u00ec\u0139\u0127\u00ec\u0140\u0132\u00eb\u00b2\u012a\u00ed\u013a\u00b8": 6957,
  "\u0120un": 748,
  "periment": 4457,
  "2015": 4683,
  "\u0120cty": 7331,
  "dependent": 6236,
  "\u00e5\u0132\u012f": 6498,
  "security": 6246,
  "\u0120+": 350,
  "bit": 1970,
  "gc": 2226,
  "\u0120sum": 1904,
  "\u0120turn": 5418,
  "\u0120Page": 5247,
  "ceiver": 5764,
  "cond": 805,
  "\u0120lines": 1420,
  "\u0120cr": 6475,
  "Ter": 5899,
  "'^": 6714,
  "\u0120\u0120\u0120\u0120\u0120": 520,
  "\u0120times": 3278,
  "Open": 7085,
  "\u0120calibration": 7486,
  "ULT": 3407,
  "][\"": 4592,
  "cur": 705,
  "\u0120postData": 7279,
  "\u0120subclass": 5329,
  "\u0120quad": 5464,
  "\u00e6\u0142": 6554,
  "PU": 5216,
  "Storage": 4993,
  "packages": 6231,
  "\u012024": 5368,
  "\u0120JSONError": 7603,
  "ule": 630,
  "value": 483,
  "\u0120are": 541,
  "re": 199,
  "chema": 1145,
  "\u0120Filter": 3750,
  "{}/": 7428,
  "\u0120en": 549,
  "App": 3862,
  "ider": 5006,
  "16": 2378,
  "\u0120column": 1024,
  "\u0120Port": 6221,
  "AZ": 6752,
  "\u0120features": 3406,
  "pect": 943,
  "construct": 7522,
  "\u0120variant": 3846,
  "\u0120pagin": 6224,
  "\u010a": 155,
  "\u0120----------": 1134,
  "ful": 1763,
  "\u0120obj": 977,
  "separator": 6868,
  "mon": 1756,
  "\u0120Use": 2313,
  "date": 516,
  "lability": 3057,
  "las": 1560,
  "\u0120cor": 1294,
  "steps": 5196,
  "SY": 7788,
  "\u0120rest": 3497,
  "sys": 2562,
  "Action": 4933,
  "wb": 5162,
  "\u0120fetch": 4653,
  "AB": 2786,
  "rans": 907,
  "\u0120text": 980,
  "\u0120individual": 4234,
  "ized": 1465,
  "L": 48,
  "\u0120fol": 1242,
  "\u0120Request": 2949,
  "otif": 1356,
  "\u0120Scaling": 6258,
  "\u0120dele": 7414,
  "loat": 773,
  "\u0120description": 1780,
  "\u0120No": 2742,
  "pacity": 7887,
  "aggreg": 6611,
  "\u0120expression": 2186,
  "oriz": 5221,
  "\u0120correction": 6951,
  "\u0120US": 7825,
  "InSeconds": 7476,
  "\u0120sign": 1498,
  "\u0120package": 2252,
  "repo": 3210,
  "\u0120loop": 2565,
  "Key": 840,
  "dicator": 3585,
  "PS": 4127,
  "scriptor": 4828,
  "pology": 5568,
  "\u0120replacement": 5816,
  "leaf": 4108,
  "variance": 4181,
  "\u0120Using": 6441,
  "cookies": 7929,
  "coding": 1477,
  "DB": 1748,
  "assign": 5233,
  "Er": 408,
  "\u0120*=": 4401,
  "create": 1300,
  "PC": 2614,
  "\u0120=>": 5536,
  "\u0126\u00ec\u013f\u00b4\u00eb\u0136\u0136": 6634,
  "ends": 3078,
  "lland": 7198,
  "\u0120output": 861,
  "sub": 870,
  "Qu": 2540,
  "K": 47,
  "\u0120threads": 4599,
  "vel": 823,
  "\u0120merge": 3696,
  "\u0120Pri": 5779,
  "FO": 3774,
  "La": 6210,
  "normalized": 7282,
  "utoff": 5255,
  "par": 307,
  "\u0120further": 7682,
  "assistant": 4407,
  "span": 3048,
  "atch": 1058,
  "\u0120depend": 4358,
  "taint": 5320,
  "\u0120##": 5833,
  "height": 3396,
  "\u0120callback": 2351,
  "\u0120temporary": 7078,
  "onal": 5163,
  "\u0120>": 643,
  "tems": 1751,
  "monomial": 4244,
  "Su": 4500,
  "\u0120para": 7416,
  "Expression": 5574,
  "\u0120cre": 2987,
  "olute": 3003,
  "\u0120'.": 1462,
  "Point": 4317,
  "\u0120retrie": 6031,
  "verage": 2503,
  "\u0120fn": 2874,
  "retries": 6761,
  "wm": 3693,
  "\u0120candid": 5869,
  "indent": 5049,
  "zone": 2642,
  "repr": 3420,
  "do": 757,
  "dn": 2577,
  "\u0120removed": 3805,
  ":],": 6387,
  "\u0120import": 873,
  "\u00be\u0126": 7137,
  "\u0120Py": 2047,
  "rant": 3969,
  "\u0120disable": 3758,
  "\u0120pl": 6730,
  "\u0120duplic": 4532,
  ".:": 6998,
  "\u0120conditions": 5104,
  "erred": 4529,
  "shared": 7817,
  "gon": 6639,
  "\u0120Bu": 4098,
  "\u0138": 180,
  "\u0120esc": 3924,
  "ado": 4041,
  "\u0120ser": 938,
  "\u0120list": 469,
  "\u0120sigma": 3946,
  "client": 1585,
  "')):": 7360,
  "https": 3287,
  "group": 893,
  "56": 3609,
  "provider": 5650,
  "\u0120inner": 4563,
  "ash": 3011,
  "\u0120negative": 4318,
  "\u0120href": 6190,
  "lices": 6600,
  "\u0120..": 1909,
  "\u012060": 4870,
  "\u0120cal": 1034,
  "del": 2086,
  "corator": 2482,
  "listRegexes": 3905,
  "syn": 5968,
  "\u0120Delete": 6302,
  "analysis": 7770,
  "ren": 668,
  "\u0120session": 1676,
  "\"].": 5526,
  "div": 3781,
  "\u0120works": 5604,
  "absolute": 7219,
  "\u0120po": 593,
  "\u0120stripped": 6313,
  "\u0120issue": 3347,
  "imum": 1268,
  "level": 1352,
  "\u0120pi": 6766,
  "\u0120Resource": 4205,
  "://": 1245,
  "\u0120oper": 1500,
  "\u0120not": 313,
  "\u0120classes": 4253,
  "\u0120use": 545,
  "bd": 6877,
  "stituter": 7163,
  "\u0120neg": 2598,
  "\u0120each": 1080,
  "`:": 4800,
  "verbose": 3603,
  "\u00e6\u0137\u00b0": 7784,
  "\u0120\u00ed\u012e\u013f\u00eb\u00b9\u012e": 4741,
  "\u0120optionally": 6077,
  "QL": 3537,
  "queue": 1325,
  "quivalent": 4569,
  "\u0120commit": 3399,
  "\u0120meas": 4326,
  "\u0120precision": 4992,
  "Cn": 5287,
  "\u0120view": 2890,
  "osen": 7064,
  "*": 14,
  "\u0120root": 1424,
  "Ad": 5080,
  "\u0120nome": 5275,
  "anced": 3868,
  "\u0120normalize": 4848,
  "Expected": 7259,
  "\u0120um": 5531,
  "\u0120pairs": 3804,
  "\u0120filtered": 5132,
  "\u00e7\u00bb": 6883,
  "chor": 5622,
  "\u0120strip": 2912,
  "Get": 1722,
  "\u00e4\u00b8\u00ba": 7493,
  "\u0120respectively": 7779,
  "ENT": 5431,
  "80": 3736,
  "rom": 394,
  "thon": 1138,
  "ols": 1296,
  "ED": 2708,
  "Select": 6615,
  "project": 2087,
  "\u0120positive": 3901,
  "mak": 4667,
  "\u0120IndicatorItem": 7907,
  "\u0120statistics": 5352,
  "chunk": 1969,
  "\u0120aut": 6247,
  "\u0120replication": 4654,
  "\u0120sections": 7276,
  "ropy": 4837,
  "assed": 1591,
  "payload": 2640,
  "\u0129\u00e4\u00bb\u00b6": 5768,
  "\u0120give": 5190,
  "\u0120calc": 3992,
  "prop": 3426,
  "\u0120desired": 3520,
  "Control": 5793,
  "distribution": 7247,
  "99999999": 4114,
  "DE": 1219,
  "anum": 6847,
  "Tag": 2592,
  "\u0120something": 5036,
  "\u0120'_": 2397,
  "%": 9,
  "os": 821,
  "sequence": 2820,
  "\u0120'\"": 6768,
  "\u0120row": 1097,
  "cause": 2585,
  "\u0120\"--": 5623,
  "CheckStatus": 7767,
  "pout": 6689,
  "lates": 3974,
  "\u0120Maximum": 7440,
  "lank": 2566,
  "\u0120sk": 2217,
  "\u0120implementation": 5472,
  "\u0120response": 787,
  "Conv": 7951,
  "\u0120was": 1329,
  "ventory": 6265,
  "\u00e6\u013e": 5865,
  "\u0120git": 5838,
  "cached": 4924,
  "\u0120instead": 2370,
  "ite": 458,
  "urrent": 5024,
  "\u0120Ops": 7528,
  "\u0120ident": 3688,
  "\u0120as": 422,
  "refs": 5015,
  "\u0120container": 2535,
  "\u0120polar": 7327,
  "unctuation": 7613,
  "model": 921,
  "\u0120Series": 6271,
  "trie": 2396,
  "\\`": 7862,
  "\u00ea\u00b4\u0122\u00eb\u00a6\u00ac\u00eb\u00b2\u012a\u00ed\u013a\u00b8": 6503,
  "submit": 3672,
  "\u0120evaluate": 6452,
  "\u0120Download": 6895,
  "Sur": 6508,
  "issue": 4973,
  "\u0120Import": 4338,
  "tspan": 7627,
  "func": 1002,
  "lookup": 3911,
  "roll": 3462,
  "\u0120later": 4513,
  "\u0120IPv": 3833,
  "formed": 3138,
  "\u0120gradient": 6155,
  "unter": 2330,
  "cursively": 7019,
  "\u0120-->": 5369,
  "Trn": 7903,
  "\u0120If": 601,
  "\u0120product": 4259,
  "vlan": 3142,
  "cope": 2007,
  "ular": 2031,
  "\u0120decode": 3848,
  "times": 4478,
  "ctypes": 5896,
  "\u0120daily": 6107,
  "av": 1641,
  "IO": 2336,
  "lobal": 1588,
  "\u0120separ": 2400,
  "changed": 5467,
  "DD": 5614,
  "65": 4775,
  "\u0120Fastly": 6383,
  "engine": 4983,
  "\u0120tables": 5703,
  "\u0120col": 634,
  "\u0120disabled": 6491,
  "\u0120al": 433,
  "\u0120whether": 2056,
  "uid": 2003,
  "\u0120Note": 2026,
  "NT": 3610,
  "\u0120checksum": 7596,
  "\u0120\u0120\u0120\u0120\u0120\u0120\u0120\u0120\u0120\u0120\u0120\u0120\u0120\u0120\u0120": 259,
  "\\\\": 1886,
  "Field": 3677,
  "\u0120cho": 3568,
  "using": 5780,
  "var": 1004,
  "\u0120hal": 5128,
  "rec": 6065,
  "cogn": 6254,
  "herit": 6357,
  "empty": 2760,
  "\u0120na": 4595,
  "interval": 4067,
  "\u0120))": 4652,
  "\u0120assume": 3157,
  "\u0120lazy": 7756,
  "ffix": 1990,
  "cepts": 5166,
  "\u0120partic": 3832,
  "\u0120JSON": 2262,
  "\u0120Open": 5328,
  "ABLE": 4572,
  "\u0120neighbors": 5111,
  "256": 5092,
  "join": 731,
  "xx": 2711,
  "widths": 7372,
  "\u0120Service": 4976,
  "charge": 3541,
  "\u0120angle": 3007,
  "\u0120defin": 3216,
  "\u0120OSError": 4360,
  "dates": 6371,
  "\u0120Template": 5677,
  "Index": 2784,
  "\u0120doctest": 5978,
  "\u0120dis": 1161,
  "Act": 6175,
  "TH": 3459,
  "LINE": 4934,
  "iteritems": 4952,
  "\u0120provides": 6629,
  "\u0120describing": 7076,
  "\u0120blocks": 4380,
  "\u0120Convert": 4404,
  "\u0120el": 405,
  "hook": 3717,
  "precated": 6208,
  "\\.": 7790,
  "\u0120activ": 5053,
  "Link": 7986,
  "it": 230,
  "\u0120dag": 7927,
  "mediate": 7278,
  "(),": 1174,
  "avg": 7534,
  "upper": 2399,
  "Py": 3273,
  "\u0120{": 396,
  "sqrt": 3518,
  "\u00b6": 119,
  "\u0120reload": 7798,
  "\u0120append": 3483,
  "\u0120courses": 6275,
  "\u0120want": 2024,
  "\u0120metadata": 2050,
  "*.": 6458,
  "mediately": 5109,
  "Pl": 7451,
  "\u0120observation": 6583,
  "\u0120By": 3888,
  "arest": 5108,
  "aint": 1684,
  "ips": 3309,
  "ov": 6185,
  "fluxes": 3549,
  "+\"": 7130,
  "\u0120b": 246,
  "Settings": 6987,
  "\u0120\u0120\u0120\u0120\u0120\u0120\u0120\u0120\u0120\u0120\u0120\u0120\u0120\u0120\u0120\u0120\u0120\u0120\u0120\u0120\u0120\u0120\u0120\u0120\u0120\u0120\u0120\u0120": 2068,
  "bed": 3766,
  "\u0120ch": 495,
  "\u00eb\u00b9": 4613,
  "power": 5424,
  "\u0120sets": 4130,
  "\u0120groups": 2761,
  "ences": 5688,
  "+\\": 6794,
  "inner": 5684,
  "disk": 6576,
  "EE": 5741,
  "DC": 6839,
  "\u0120provide": 2843,
  "num": 764,
  "\u0120token": 1184,
  "ince": 2393,
  "\u0120associated": 2551,
  "\u0120cursor": 4080,
  "\u0120admin": 6135,
  "\u0120plan": 5972,
  "exceptions": 2610,
  "docs": 3156,
  "\u0120Po": 3364,
  "Ang": 6504,
  "\u0120minor": 6820,
  "\u0120represents": 6200,
  "\u00ec\u013f": 3460,
  "alid": 1616,
  "\u0120pla": 2286,
  "\u0120wrapper": 3070,
  "()):": 3780,
  "beam": 4660,
  "leg": 4984,
  "href": 5681,
  "token": 1225,
  "\u0120repe": 3590,
  "varNum": 4793,
  "idth": 1116,
  "\u0120flatten": 6249,
  "OL": 4280,
  "\u0120increment": 6912,
  "\u0120------": 5514,
  "caling": 3521,
  "Allow": 7775,
  "\u0120UserID": 3690,
  "Comp": 2030,
  "raises": 3045,
  "\u0120directories": 4274,
  "ry": 468,
  "]['": 2445,
  "\u0120txt": 6640,
  "\u00e4\u00bb\u00b6": 5378,
  "\u0120converted": 4537,
  "\u0120mut": 3146,
  "\u012020": 3855,
  "\u0120taken": 5605,
  "monomials": 7780,
  "35": 4270,
  "median": 7213,
  "\u0120change": 1638,
  "\u0120motif": 2161,
  "ORY": 7699,
  "art": 473,
  "\u0120clear": 5094,
  "\u00eb\u00b2\u012a": 3104,
  "\":\"": 7949,
  "reader": 5913,
  "$',": 5964,
  "\u0120ShExJ": 6497,
  "digit": 7747,
  "\u0120au": 4836,
  "dap": 5097,
  "\u0120ang": 2390,
  "\u0120frame": 2185,
  "Unknown": 5520,
  "DF": 2635,
  "32": 1812,
  "Implement": 5138,
  "file": 428,
  "datetime": 2149,
  "identifier": 5509,
  "\u0120geometry": 5761,
  "\u0120\"\"": 1816,
  "\u0120flow": 6728,
  "\u0120variability": 6864,
  "latform": 3183,
  "SECustomer": 5812,
  "fc": 6591,
  "ydPy": 5897,
  "\u0120IN": 3873,
  "\u0120happen": 7783,
  "\u0120calling": 4190,
  "REF": 7367,
  "ravel": 3899,
  "\u0120pixel": 1852,
  "\u0120':": 4941,
  "ongo": 5430,
  "given": 4231,
  "\u0120accepts": 7955,
  "\u0120deleted": 4713,
  "kwargs": 572,
  "\u0120Save": 4785,
  "\u0120general": 6350,
  "\u0120partial": 4773,
  "\u0120Address": 7960,
  "Id": 722,
  "\u0120att": 7038,
  "te": 387,
  "\u0120temp": 1630,
  "\u0120during": 3186,
  "Dist": 7985,
  "locals": 7161,
  "\u0120inte": 1413,
  "\u0120sync": 7243,
  "cador": 6585,
  "extra": 3885,
  "\u0120args": 1023,
  "\u0120simple": 3810,
  "('.": 3416,
  "dist": 2014,
  "epcopy": 5949,
  "\u01209": 2698,
  "cs": 1017,
  "\u0120Gu": 2950,
  "\u0120net": 5224,
  "\u0120did": 5270,
  "codes": 5571,
  "\u0120negate": 5468,
  "rols": 7463,
  "\u00ea": 148,
  "Reference": 4450,
  "\u012d": 169,
  "ip": 417,
  "\u0120\u0120\u0120\u0120\u0120\u0120\u0120\u0120\u0120\u0120\u0120\u0120": 1648,
  "\u0120worker": 4772,
  "NE": 5967,
  "ACK": 4623,
  "\u0120Equipment": 6691,
  "'].": 1953,
  "Client": 3468,
  "rompt": 3829,
  "\u0120yield": 1454,
  "\u00ec\u012d": 5746,
  "Child": 3891,
  "\u0120Number": 2466,
  "\u0120pages": 7832,
  "digits": 7310,
  "cess": 536,
  "\u0120Task": 7877,
  "\u0120allowed": 3068,
  "\u0120ep": 5641,
  "\u0120comm": 1493,
  "\u0120req": 3171,
  "foo": 4601,
  "tick": 4815,
  "\u0120----": 666,
  "\"])": 3434,
  "({'": 3772,
  "bj": 357,
  "xes": 1373,
  "lab": 687,
  "Tools": 6226,
  "ysical": 7195,
  "\u0120leave": 7317,
  "many": 7652,
  "\u0120\u00ec\u0140\u0127\u00eb": 6419,
  "ancy": 5689,
  "ece": 4746,
  "\u0120Zone": 5121,
  "pb": 5999,
  "pri": 1897,
  "aging": 6296,
  "ordin": 1779,
  "requests": 5195,
  "\u0120writ": 3212,
  "foreign": 5919,
  "separated": 6538,
  "\u0120hydpy": 1986,
  "\u00e7": 145,
  "local": 2133,
  "\u0120comparator": 7900,
  "\u0120hour": 3059,
  "\u0120sleep": 6514,
  "\u0120Mem": 7939,
  "\u0120definitions": 6830,
  "tected": 4609,
  "8": 28,
  "struct": 1777,
  "SON": 1825,
  "\u0120positions": 4676,
  "\u0120measure": 5263,
  "lection": 1198,
  "\u0120FI": 4714,
  "\u0120Function": 2911,
  "\u00c6": 133,
  "isnan": 5510,
  "\u0120math": 5832,
  "\u0120'/": 1754,
  "route": 6432,
  "\u0120NOTE": 6582,
  "\u0120cutoff": 7577,
  "LI": 3258,
  "\u0120He": 3889,
  "ures": 1670,
  "\u0120vo": 5691,
  "way": 3910,
  "\\\"": 6589,
  "ops": 5070,
  "motif": 2658,
  "Prf": 2845,
  "\u0120compute": 3939,
  "workflow": 4312,
  "enance": 4665,
  "\u0120representing": 3661,
  "MM": 2873,
  "\u0120work": 1221,
  "6": 26,
  "left": 2893,
  "zen": 6594,
  "\u0120There": 4567,
  "\u0120deploy": 7272,
  "\u0120scale": 3352,
  "color": 1785,
  "\u0120may": 1963,
  "older": 2341,
  "UB": 2398,
  "\u00ac": 110,
  "\u0120100": 2436,
  "\u0120year": 3050,
  "31": 5436,
  "lice": 2364,
  "Review": 4174,
  "ancel": 4257,
  "tab": 4345,
  "\u0120system": 2448,
  "\u0120stack": 2663,
  "------------": 7061,
  "ExJ": 5573,
  "/\"": 7980,
  "ade": 6964,
  "\u0120exec": 1614,
  "\u0120align": 3931,
  "\u0120\u0120\u0120": 194,
  "\u0120Networkapi": 3134,
  "\u0120feature": 2343,
  "lour": 3788,
  "run": 984,
  "\u0120tuple": 1192,
  "exclude": 6399,
  "llab": 7453,
  "vert": 993,
  "\u0120com": 1371,
  "o": 83,
  "\u0120f": 215,
  "\u0120Documentation": 5284,
  "\u0120training": 7077,
  "\u0120estimator": 6355,
  "\u0120plott": 6084,
  "CD": 6545,
  "percent": 5325,
  "\u0120Key": 1520,
  "\u0120Web": 4277,
  "strftime": 5643,
  "##": 972,
  "\u00c3": 130,
  "gid": 7296,
  "shot": 1702,
  "ised": 5191,
  "Tst": 7507,
  "ism": 7356,
  "modified": 5782,
  "plugins": 6791,
  "pkg": 6954,
  "cept": 1939,
  "hist": 2731,
  "ign": 669,
  "dif": 5725,
  "ead": 2109,
  "serial": 3343,
  "fig": 484,
  "ices": 2877,
  "device": 2264,
  "USER": 5546,
  "Vol": 6285,
  "\u0120queryset": 5401,
  "ht": 551,
  "\u0120iterable": 3608,
  ")))": 1287,
  "5": 25,
  "Gener": 3097,
  "Manager": 4574,
  "\u0120D": 436,
  "\u0120context": 1714,
  "blob": 6321,
  "\u0120which": 895,
  "rong": 4552,
  "rag": 6093,
  "\u0120permission": 5173,
  "instances": 5397,
  "\u0120cap": 6512,
  "//": 1117,
  "\u0120extra": 1578,
  "ind": 518,
  "Me": 1823,
  "\u0120Dictionary": 3878,
  "ryRun": 6401,
  "pp": 670,
  "\u0120running": 2913,
  "Text": 3152,
  "\u0120inclu": 2504,
  "PATH": 5040,
  "UND": 7436,
  "epoch": 7133,
  "CE": 3090,
  "dis": 1433,
  "\u0120new": 608,
  "\u0120The": 461,
  "\u0120reverse": 3694,
  "qu": 364,
  "44": 4743,
  "users": 5304,
  "Log": 5460,
  "\u0120saved": 4033,
  "Does": 7659,
  "driver": 2431,
  "job": 1473,
  "form": 732,
  "ceback": 4365,
  "\u0120template": 1672,
  "\u0120thread": 2660,
  "XML": 6467,
  "\u0120molecule": 5256,
  "sep": 2979,
  "\u0120click": 3492,
  "\u0120edge": 1786,
  "okie": 3713,
  "ui": 5187,
  "\u0120Whether": 3354,
  "\u0120solution": 6334,
  "\u0120`{": 6976,
  "\u0120dicts": 5428,
  "calculate": 7852,
  "el": 311,
  "]]": 1646,
  "\u0120\u0120\u0120\u0120\u0120\u0120\u0120\u0120\u0120\u0120\u0120\u0120\u0120\u0120\u0120\u0120\u0120\u0120\u0120\u0120\u0120\u0120\u0120\u0120\u0120\u0120\u0120\u0120\u0120\u0120\u0120\u0120\u0120\u0120\u0120\u0120\u0120\u0120\u0120\u0120\u0120\u0120\u0120\u0120": 4789,
  "\u0120hdf": 6435,
  "(-": 2326,
  "\u0120Validate": 7378,
  "strib": 2476,
  "Cluster": 3348,
  "ings": 2813,
  "\u0120register": 2576,
  "basename": 3813,
  "75": 3972,
  "emon": 4734,
  "glob": 5290,
  "\u0120ou": 6767,
  "ang": 891,
  "\u0120possible": 2841,
  "LL": 5041,
  "unit": 3540,
  "ransp": 3649,
  "encoded": 4913,
  "ffs": 4701,
  "\u0120argparse": 6823,
  "\u0120masked": 6746,
  "\u0120paragraph": 7586,
  "\u0120length": 1464,
  "tings": 1391,
  "andle": 1101,
  "\u0120quant": 6702,
  "cons": 4767,
  "not": 889,
  "gin": 1084,
  "\u0120generate": 2232,
  "\u0120double": 4658,
  "\u0120prompt": 6250,
  "uted": 2930,
  "cli": 2454,
  "\u0120choices": 6832,
  "\u0120latitude": 7384,
  "maximum": 7954,
  "seqs": 5433,
  ",\"": 6870,
  "\u0120flag": 3103,
  "\u0120super": 2395,
  "123": 2833,
  "none": 3450,
  "\u0120derived": 2898,
  "enter": 7874,
  "lication": 1377,
  "arger": 6395,
  "parison": 6560,
  "rule": 4007,
  "\u0120health": 5010,
  "\u0120trans": 1313,
  "\u0120well": 4712,
  "\u0120notification": 6004,
  "ates": 802,
  "\u0120its": 1696,
  "\u0120retry": 4898,
  "\u0120driver": 4985,
  "\u0120Some": 6193,
  "dia": 3659,
  "ub": 404,
  "\u0120log": 528,
  "ssion": 659,
  "amo": 5910,
  "\u0120activity": 7531,
  "raise": 440,
  "tra": 973,
  "les": 1615,
  "\u0120mar": 4921,
  "arning": 1512,
  "ary": 576,
  ")[": 2189,
  "Elements": 5466,
  "\u0120pie": 5870,
  "\u00ec\u012a": 7036,
  "stream": 1505,
  "\u0120retrieved": 7855,
  "\u0120particular": 4556,
  "utive": 6804,
  "bloco": 7336,
  "\u0120execution": 3531,
  "\u0120character": 2602,
  "con": 344,
  "sn": 5220,
  "~": 98,
  "ollow": 4784,
  "ition": 600,
  "close": 2069,
  "\u0120retries": 7242,
  "port": 741,
  "rate": 3298,
  "Access": 4689,
  "\u0120move": 3560,
  "require": 4962,
  "respon": 2376,
  "\u0120cli": 2552,
  "\u0120Gaussian": 6818,
  "\u0120queries": 5153,
  "DP": 6796,
  "help": 3787,
  "asis": 5007,
  "yaml": 3201,
  "\u0120compar": 2631,
  "fasta": 6053,
  "\u0120alph": 5944,
  "AM": 1885,
  "attributes": 3072,
  "lst": 2792,
  "olve": 2927,
  "Repository": 7312,
  "est": 1495,
  "cancel": 7917,
  "ex": 316,
  "----": 335,
  "\u0120stats": 3042,
  "NP": 4386,
  "he": 210,
  "\u0120\".": 2984,
  "\u0120sequence": 1596,
  "\u0120New": 5069,
  "kernel": 7134,
  "inds": 4699,
  "network": 2045,
  "Value": 1382,
  "\u0120condition": 2240,
  "vider": 3311,
  "adding": 3452,
  "\u0120\"'": 6217,
  "\u0120pds": 6933,
  ")')": 7549,
  "cule": 3436,
  "gits": 4050,
  "factors": 7560,
  "ror": 338,
  "cision": 4023,
  "imp": 1345,
  "\u0120alt": 6264,
  "real": 3728,
  "\".": 905,
  "next": 2317,
  "\u0120face": 4021,
  "\u0120none": 3997,
  "address": 1976,
  "br": 7670,
  "PER": 4293,
  "\u0120cookie": 6256,
  "corr": 6306,
  "\u0120Res": 2020,
  "\u0120var": 1226,
  "files": 1307,
  "gz": 3922,
  "\u0120Ac": 5755,
  "\u0120Argument": 3218,
  "outine": 6126,
  "DS": 3773,
  "neighbors": 5990,
  "\u0120logl": 7103,
  "`.": 1478,
  "\u0120Pop": 3204,
  "uz": 7921,
  "series": 2156,
  "\u012025": 6099,
  "\u0120neighbor": 7074,
  "Msk": 7786,
  "\u0120Check": 2190,
  "ven": 2516,
  "Run": 2641,
  "\u0120\u00ed": 2721,
  "\u0120question": 7630,
  "API": 3159,
  "\u0120leg": 4218,
  "loaded": 3574,
  "cii": 3387,
  "\u0120Change": 7164,
  "sc": 550,
  "\u0120vi": 1973,
  "\u0120Id": 2821,
  "ody": 1381,
  "13": 3684,
  "ctx": 4695,
  "vertices": 7485,
  "updated": 5013,
  "2": 22,
  "uler": 4943,
  "\u0120ab": 1549,
  "\u0120ask": 7688,
  "exist": 5361,
  "\u0120neighb": 3482,
  "imator": 4978,
  "sure": 3306,
  "ste": 4963,
  "delta": 3235,
  "\u0120location": 1944,
  "\u0120sentence": 3170,
  "ization": 1759,
  "or": 205,
  "Item": 2011,
  "int": 376,
  "\u0120Al": 3214,
  "mut": 4281,
  "\u0120Cache": 5365,
  "\u0120history": 5470,
  "Val": 3678,
  "username": 2970,
  "change": 2154,
  "\u0120Constraints": 4287,
  "ensor": 7836,
  "\u0120~": 4803,
  "\u0120cases": 4899,
  "\u0120klass": 6950,
  "sha": 3870,
  "\u0120st": 365,
  "For": 2244,
  "chars": 4624,
  "uint": 4780,
  "sigma": 4341,
  "\u0120collect": 5050,
  "('{": 5836,
  "\u0120Part": 6813,
  "\u0120\u0120": 192,
  "qd": 7135,
  "\u0120restrict": 7925,
  "\u0120sock": 7953,
  "ascript": 7933,
  "\u0120dep": 1678,
  "actory": 3365,
  "question": 5031,
  "\u0120],": 1875,
  "Graph": 4228,
  "ol": 340,
  "bam": 4458,
  "iler": 7410,
  "\u0120provided": 1745,
  "Sts": 6741,
  "\u0120members": 5512,
  "zer": 1633,
  "uture": 3290,
  "\u00a5\u00eb": 6087,
  "\u0120rv": 6338,
  "RED": 2175,
  "ats": 1217,
  "val": 500,
  "transaction": 7762,
  "\u0120chunks": 4168,
  "ill": 538,
  "led": 1206,
  "\u0120Data": 1587,
  "\u0120delta": 4071,
  "\u0120etag": 4254,
  "\u0120he": 619,
  "vironment": 1025,
  "\u0120correspon": 2469,
  "\u0120sys": 1540,
  "30": 3229,
  "199": 6586,
  "\u0120ambiente": 7679,
  "\u0120PY": 7815,
  "west": 6268,
  "count": 897,
  "\u0120Assertion": 7499,
  "point": 1006,
  "\u0120seed": 6605,
  "su": 1232,
  "\u0120*": 479,
  "property": 4374,
  "\u0120constructor": 7223,
  "IAM": 5180,
  "\u0120attempt": 4570,
  "\u0120hp": 5646,
  "\u0120ones": 6613,
  "\u0120prediction": 4841,
  "subject": 4795,
  "ynomial": 6101,
  "\u0120unpack": 6781,
  "))))": 6257,
  "\u0120open": 1249,
  "\u0120until": 3580,
  "])[": 7689,
  "\u0120fg": 5222,
  "VALUE": 5549,
  "verts": 4298,
  "splitlines": 6697,
  "pl": 2990,
  "ME": 1319,
  "irst": 3651,
  "CK": 4248,
  "am": 267,
  "fo": 498,
  "\u0120apply": 2651,
  "\u00e4": 142,
  "upload": 5027,
  "(_": 2345,
  "\u0120\u0120\u0120\u0120\u0120\u0120\u0120\u0120\u0120\u0120\u0120\u0120\u0120\u0120\u0120\u0120\u0120\u0120\u0120\u0120\u0120\u0120\u0120\u0120\u0120\u0120\u0120\u0120\u0120\u0120\u0120\u0120\u0120\u0120\u0120\u0120\u0120": 3508,
  "\u0120algorithm": 4145,
  "\u0120whose": 5090,
  "register": 2077,
  "ger": 590,
  "\u0120property": 2692,
  "\u00ea\u00b3": 5801,
  "\u0120ex": 326,
  "\u0120et": 3414,
  "for": 379,
  "Compute": 7067,
  "com": 1306,
  "neighbor": 6914,
  "\u0120specification": 7694,
  "offset": 2423,
  "\u0120ind": 2374,
  "\u0120excMsg": 7383,
  "\u0120Route": 7948,
  "ueue": 5207,
  "\u00be": 127,
  "\u0120See": 1958,
  "\u0120enter": 6658,
  "ch": 292,
  "\u0120rules": 4223,
  "ggest": 7297,
  "Error": 413,
  "Price": 7848,
  "45": 6635,
  "refresh": 4464,
  "sign": 1506,
  "pression": 1529,
  "\u0120series": 3155,
  "\u0120Auto": 3372,
  "\u0120around": 5561,
  "\u0120Ip": 5940,
  "\u0120>=": 1789,
  "']'.": 3948,
  "Property": 6619,
  "\u0120indicator": 6706,
  "ading": 7518,
  "datacats": 7526,
  "fields": 1443,
  "interface": 3184,
  "\u0120present": 3019,
  "\u0120specifies": 5809,
  "snap": 7866,
  "sleep": 4486,
  "\u0120API": 1727,
  "\u0120trajectory": 7650,
  "\u0120numeric": 6609,
  "relative": 5560,
  "ral": 4982,
  "article": 3937,
  "Operator": 7024,
  "\u0120dictionaries": 6422,
  "\u0120result": 577,
  "\u0120spec": 3860,
  "\u0120\"-": 3789,
  "train": 4674,
  "ultiple": 5497,
  "Maintenance": 7505,
  "\u0120bad": 5065,
  "\u0120encrypted": 7153,
  "\u0120recursive": 4012,
  "\u0120table": 1113,
  "Target": 6672,
  "\u0120useful": 4990,
  "CR": 6425,
  "\u0120public": 4047,
  "fill": 3442,
  "\u0120small": 4522,
  "\u0120Specifies": 4091,
  "\u0120artifact": 5924,
  "\u0120off": 1707,
  "\").": 4146,
  "inary": 4472,
  "location": 2110,
  "arget": 883,
  "\u0120tasks": 3993,
  "Up": 2267,
  "\u0120tr": 3283,
  "\u0120problem": 4224,
  ">,": 3704,
  "Result": 3941,
  "collection": 3632,
  "\u0120aryMdlParams": 7289,
  "\u0120transition": 4112,
  "quest": 503,
  "Date": 2787,
  "ario": 3980,
  "ph": 661,
  "jacency": 7720,
  "\u0120time": 564,
  "HEAD": 7167,
  "lot": 1153,
  "---": 1243,
  "Hub": 6874,
  "':": 347,
  "stance": 414,
  "Task": 4387,
  "med": 2132,
  "\u013f": 187,
  "\u0120255": 5326,
  "ark": 1280,
  "1": 21,
  "che": 444,
  "trans": 1887,
  "sa": 2541,
  "agg": 7475,
  "IST": 6242,
  "\u0120'{}": 3778,
  "\u0120very": 6683,
  "bs": 1118,
  "Enabled": 7765,
  "\u0120sig": 4414,
  "atches": 4086,
  "']))": 4299,
  "viron": 939,
  ",)": 2679,
  "tile": 7341,
  "\u0120endpoint": 2183,
  "PrfTc": 4303,
  "\u0120Fast": 5567,
  "ied": 6024,
  "\u0120explicit": 4070,
  "mes": 4965,
  "fore": 1354,
  "\u0136\u0136": 6596,
  "iter": 959,
  "keyword": 4669,
  "Warning": 5003,
  "\u0120bu": 1120,
  "\u0120suffix": 3095,
  "\u0120Converts": 6411,
  "\u0120max": 869,
  "IS": 4811,
  "__(": 3928,
  "\u0120'%": 1564,
  "Re": 351,
  "ved": 1286,
  "\u0120strict": 4670,
  "Tri": 7132,
  "reate": 558,
  "\u0120named": 3952,
  "\u0120duplicate": 6835,
  "db": 1624,
  "closed": 6965,
  "side": 2621,
  "\u0120Must": 3529,
  "\u0120Window": 4791,
  "em": 879,
  "ld": 1361,
  "\u0120drop": 4616,
  "\u00ed\u013c\u012e\u00ec\u013d\u0132": 5480,
  "messages": 6413,
  "Y": 61,
  "\u0120fm": 6066,
  "\u0120min": 1085,
  "ils": 1207,
  "\u0120split": 2493,
  "\u0120alarm": 5877,
  "\u0120ignored": 6089,
  "record": 2490,
  "uuid": 3572,
  "iente": 3109,
  "crete": 7270,
  "\u0120interpolation": 6207,
  "man": 1687,
  "diff": 3085,
  "FAULT": 3544,
  "\u00ec\u013f\u00b4": 5708,
  "px": 5186,
  "ftime": 5289,
  "suffix": 3716,
  "eo": 6469,
  "JSON": 5199,
  "\u0120passing": 7110,
  "ster": 830,
  "67": 5023,
  "\u0120mime": 5508,
  "\u0120Man": 6980,
  "allow": 3864,
  "Element": 2103,
  "ason": 2712,
  "rint": 647,
  "defin": 5619,
  "BY": 7082,
  "UE": 4022,
  "\u0120obtain": 5077,
  "\u0120accepted": 5280,
  "Json": 5554,
  "\u0120current": 969,
  "\u0120provider": 5346,
  "\u0120Co": 1437,
  "\u0120vert": 2797,
  "uses": 5416,
  "\u0120be": 336,
  "\u0120final": 2230,
  "vanced": 5118,
  "\u0120lemma": 7424,
  "of": 1582,
  "\u0120certain": 5537,
  "andl": 1170,
  "\u0120]": 2054,
  "\u0120exactly": 7170,
  "dep": 2537,
  "\u0120Max": 3542,
  "\u013e": 186,
  "add": 639,
  "LETE": 4520,
  "encies": 5867,
  "ilar": 3147,
  "\u0120height": 3037,
  "eno": 4283,
  "cument": 1236,
  "\u0120pylint": 6530,
  "Options": 4511,
  "\u0120transl": 4622,
  "id": 284,
  "hostname": 4738,
  "\u0120im": 1599,
  "Remote": 4862,
  "\u0120ge": 2808,
  "*)": 6240,
  "age": 416,
  "print": 2002,
  "\u0120enumerate": 1814,
  "\u0120df": 2357,
  "\u00eb\u00b3": 6759,
  "getattr": 5645,
  "NULL": 6149,
  "\u0120Optional": 2488,
  "sired": 3296,
  "\u0120locator": 4590,
  "install": 4507,
  "Table": 4084,
  "\u00e6\u0137": 5906,
  "Ch": 1435,
  "versible": 6833,
  "\u0120identical": 6993,
  "\u0120flat": 4088,
  "\u0120bytes": 2027,
  "ares": 7237,
  "\u0120an": 280,
  "__:": 7889,
  "ou": 640,
  "cursor": 4930,
  "\u0120expand": 6377,
  "\u0120Instance": 3241,
  "\u0120parsed": 3100,
  "iso": 4765,
  "ssage": 706,
  "Only": 6537,
  "\u0120u": 378,
  "\u0120Th": 729,
  "().": 1289,
  "\u0120raise": 487,
  "\u0120tax": 7182,
  "dx": 4542,
  "\u0120set": 532,
  "CODE": 5956,
  ":`~": 3020,
  "erature": 4107,
  "null": 6927,
  "\u0120specify": 1434,
  "cl": 2507,
  "\u0120feed": 6620,
  "Zone": 2438,
  "(\"-": 5696,
  "\u0120md": 6937,
  "\u0120xs": 6403,
  "unded": 7354,
  "\u0120:,": 4907,
  "xl": 6473,
  "ations": 992,
  "ise": 395,
  "\u0120have": 1051,
  "fd": 5826,
  "ured": 2958,
  "\u0120integr": 5135,
  "\u0120blue": 6477,
  "\u0120\u00ec\u0137": 4167,
  "ency": 3422,
  "\u0120Stop": 5298,
  "\u0120back": 1385,
  "\u0120den": 5937,
  "\u0120layout": 6204,
  "helpers": 6913,
  "solver": 5902,
  "lic": 911,
  "\u0120download": 2413,
  "\u00e5\u0132": 3720,
  "wn": 4763,
  "\u0120argument": 978,
  "\u0120Amazon": 1479,
  "****": 825,
  "ore": 674,
  "\u0120network": 1832,
  "mail": 1451,
  "]])": 3794,
  "\u0120fails": 5194,
  "\u0120pt": 5935,
  "\u0120manage": 7653,
  "ranches": 6128,
  "{}\".": 4756,
  "\u0120ct": 3768,
  "START": 7483,
  "plugin": 3244,
  "\u0120slice": 4053,
  "hours": 5212,
  "util": 2894,
  "lict": 5642,
  "\u00ec\u013f\u00b4\u00eb": 6384,
  "\u0120orbit": 5067,
  "\u0120\"\"\"": 266,
  "\u0120\u0120\u0120\u0120\u0120\u0120\u0120\u0120\u0120\u0120": 1199,
  "olean": 1456,
  "\u0120\u0120\u0120\u0120\u0120\u0120\u0120\u0120\u0120\u0120\u0120\u0120\u0120\u0120\u0120\u0120\u0120\u0120\u0120\u0120\u0120\u0120\u0120\u0120\u0120\u0120": 1979,
  "itial": 1426,
  "uffle": 6915,
  "small": 6955,
  "|,": 7180,
  "y": 93,
  "sdp": 7301,
  "\u0120do": 553,
  "\u0120vars": 5888,
  "\u0120Com": 6098,
  "\u0120objects": 1586,
  "\u0120conn": 3731,
  "\u0120)": 832,
  "sal": 7238,
  "ough": 4550,
  "T": 56,
  "\u0120return": 281,
  "io": 1387,
  "keep": 2908,
  "Object": 2379,
  "\u0120[": 362,
  "Ke": 815,
  "\u0120pb": 7091,
  "\u0120helper": 6652,
  "\u0120starts": 5457,
  "xo": 6930,
  "pixels": 7124,
  "\u0120maybe": 7764,
  "tact": 3187,
  "\u0120band": 6772,
  "dataset": 3386,
  "voke": 6862,
  "\u0120started": 6744,
  "\u0120dum": 6288,
  "owel": 6072,
  "field": 833,
  "User": 2719,
  "parameters": 1828,
  "insert": 2740,
  "havi": 3949,
  "\u0120some": 1735,
  "\u0120n\u00c3\u00a3o": 7926,
  "ectors": 4840,
  "\u0120api": 2752,
  "\u0120notes": 7049,
  "af": 2654,
  "iss": 1658,
  "\u0120ioc": 4856,
  "\u0120guess": 7186,
  "\u0120%": 435,
  "sin": 3008,
  "\u0120initial": 2035,
  "based": 5033,
  "tic": 6324,
  "ze": 2891,
  "\u0120validation": 4057,
  "SUB": 5410,
  "keys": 1112,
  "201": 2506,
  "gener": 1861,
  "aws": 4607,
  "getLogger": 4719,
  "apac": 3913,
  "Handler": 3921,
  "fy": 1107,
  "Lo": 1183,
  "\u0120informed": 6187,
  "])": 530,
  "LAT": 7726,
  "}/{": 7136,
  "bum": 6798,
  "bug": 908,
  "stage": 7139,
  "args": 445,
  "\u0120L": 652,
  "\u0120zero": 2335,
  "ffff": 4451,
  "pack": 1351,
  "\u0120radius": 5709,
  ":,": 7723,
  "medi": 2238,
  "\u0120routing": 5235,
  "tables": 7697,
  "size": 740,
  "heck": 753,
  "exists": 2174,
  "Comm": 7322,
  "cies": 3321,
  "Msg": 4812,
  "\u0120can": 681,
  "alt": 2704,
  "\u0120spans": 7759,
  "owner": 6347,
  "\u0120editor": 4405,
  "pub": 2064,
  "\u0120await": 4011,
  "\u0120KeyError": 2344,
  "oct": 3737,
  "(\"{": 7751,
  "(": 12,
  "which": 5820,
  "\u0120lang": 5105,
  "\u0120\u0120\u0120\u0120\u0120\u0120\u0120\u0120\u0120\u0120\u0120\u0120\u0120\u0120\u0120\u0120\u0120\u0120\u0120\u0120\u0120\u0120\u0120\u0120\u0120\u0120\u0120\u0120\u0120\u0120\u0120\u0120\u0120": 3339,
  "IPv": 5817,
  "yle": 1278,
  "\u0120xml": 1954,
  "\u0120counter": 3749,
  "Work": 3826,
  "\u0120apps": 7197,
  "\u0120varNum": 4166,
  "\u0120way": 3402,
  "\u0120NOT": 5894,
  "\u0120provid": 7643,
  "ELLIP": 7854,
  "sources": 6153,
  "\u0120integer": 1851,
  "details": 5483,
  "\u012a": 166,
  "\u0120switch": 5962,
  "\u0120OpsWorks": 7665,
  "\u0120expressions": 7961,
  "phi": 4585,
  "stack": 2809,
  "|.": 6970,
  "vo": 2125,
  "\u0120defaults": 3379,
  "\u0120'':": 3883,
  "alias": 5122,
  "\u0124\u00ac\u00ec\u0139\u0127\u00ec\u0140\u0132": 6145,
  "ment": 384,
  "\u0120even": 3769,
  "IG": 3359,
  "display": 5789,
  "Connection": 4518,
  "KE": 3511,
  "(\"/": 4922,
  "\u0120loss": 7685,
  "\u0120decorator": 3079,
  "utton": 3729,
  "\u0120larger": 7249,
  "spe": 2078,
  "__)": 4417,
  "path": 420,
  "\u0120testing": 4204,
  "alk": 2753,
  "this": 5754,
  "\u0120offset": 2255,
  "quis": 7052,
  "H": 44,
  "ship": 5625,
  "\u0120keys": 1781,
  "lish": 2531,
  "render": 4329,
  "gen": 1523,
  "web": 3217,
  "\u0120attrs": 4481,
  "paths": 3126,
  "ket": 7520,
  "\u0120need": 1526,
  "un": 263,
  "\u0120xmax": 7942,
  "Upgrade": 7655,
  "recipient": 6843,
  "sampled": 5544,
  "write": 1018,
  "Multi": 7235,
  "ote": 945,
  "\u0120after": 1865,
  "units": 3697,
  "ape": 680,
  "Seconds": 5578,
  "\u0120installed": 4589,
  "border": 5680,
  "posed": 5513,
  "limiter": 5496,
  "\u0120backend": 4705,
  "regex": 3265,
  "\u00e5\u012a": 5383,
  "Co": 1111,
  "\u0120ger": 7469,
  "set": 423,
  "\u0124": 160,
  "UN": 2151,
  "\u0120channels": 5925,
  "Http": 7175,
  "\u0120either": 2105,
  "\u0120fe": 1490,
  "\u00ed\u013a": 2578,
  "\u0120encoding": 2265,
  "\u0120v": 277,
  "entries": 4596,
  "\u0120Red": 4416,
  "\u0120python": 2459,
  "hex": 4087,
  "ually": 3166,
  "\u0120good": 6082,
  "secret": 3721,
  "__.__": 5011,
  "__": 662,
  "\u0120properly": 7023,
  "\u0120username": 2479,
  "xies": 6803,
  "arguments": 3841,
  "roup": 523,
  "~~~~": 6499,
  "logger": 2008,
  "rocessing": 7721,
  "\u0120maximum": 2084,
  "radient": 3660,
  "From": 3250,
  "ens": 1880,
  "ives": 3472,
  "127": 6449,
  "found": 5248,
  "domain": 3619,
  "...\")": 7529,
  "\u0120support": 1592,
  "\u0120prom": 6002,
  "losing": 6681,
  "\u0120FASTA": 7388,
  "\u0120check": 985,
  "64": 1798,
  "\u00aa": 108,
  "\u0143": 191,
  "\u0120Sup": 4638,
  "\u0120np": 507,
  "\u0120',": 2220,
  "factor": 2986,
  "\u0120t": 202,
  "\u0120annotation": 6773,
  "\u0120weights": 3345,
  "ject": 1049,
  "\u0120samples": 2536,
  "dot": 2783,
  "():": 763,
  "raph": 1100,
  "latest": 5014,
  "use": 1384,
  "cad": 5860,
  "w": 91,
  "dest": 2892,
  "ist": 409,
  "words": 2187,
  "\u0120considered": 6361,
  "ptions": 3275,
  "ne": 775,
  "\u0120avg": 7719,
  "single": 3714,
  "ator": 611,
  "css": 4813,
  "\u0120Email": 6160,
  "\u0120con": 317,
  "\u0120show": 2499,
  "\u00d0\u00b5": 7344,
  "phinx": 7365,
  "\u0120best": 2909,
  "\u0120reversed": 7871,
  "\u0120IPA": 6136,
  "ac": 1228,
  "\u0120\u0120\u0120\u0120\u0120\u0120\u0120\u0120\u0120\u0120\u0120\u0120\u0120\u0120\u0120\u0120\u0120\u0120": 2009,
  "tags": 2564,
  "report": 3818,
  "indicator": 6474,
  "Node": 1833,
  "EX": 3179,
  "indices": 2649,
  "ately": 3534,
  "\u0122": 158,
  "TO": 2615,
  "uplicate": 7966,
  "base": 826,
  "``,": 2324,
  "erate": 1660,
  "','": 3246,
  "\u0120Notes": 5608,
  "trace": 6008,
  "\u0120kw": 4273,
  "48": 7292,
  "final": 5203,
  "MP": 2526,
  "17": 4117,
  "bytes": 1829,
  "hidden": 5861,
  "cid": 6468,
  "rf": 1574,
  "\u0120indel": 7799,
  "77": 7911,
  "callback": 2995,
  "}.": 3412,
  "ted": 1691,
  "Life": 2173,
  "False": 685,
  "\u0120\u0120\u0120\u0120\u0120\u0120\u0120\u0120\u0120\u0120\u0120\u0120\u0120\u0120\u0120\u0120\u0120\u0120\u0120": 331,
  "cluster": 2850,
  "\u0120Copy": 4678,
  "\u0120ev": 5225,
  "ud": 1618,
  "(\"#": 7935,
  "resources": 6946,
  "\u0120\u0120\u0120\u0120\u0120\u0120\u0120\u0120\u0120": 1066,
  "\u0120post": 2428,
  "stems": 7716,
  "Period": 6787,
  "\u0120ctx": 6056,
  "\u0120\"\")": 7489,
  "\u0120messages": 3310,
  "Button": 6019,
  "\u0120dtype": 1693,
  "\u0120me": 429,
  "doc": 2590,
  "Unable": 4466,
  "\u0120adding": 5808,
  "istent": 7470,
  "\u0120eli": 6396,
  "atellite": 7909,
  "year": 2847,
  "ariant": 1920,
  "\u0120ImportError": 5525,
  "Is": 7233,
  "90": 6111,
  "map": 1011,
  "\u0120fasta": 5960,
  "vari": 3546,
  "direction": 3616,
  "\u0120doesn": 2971,
  "EL": 2407,
  "trieve": 3394,
  "publish": 5581,
  "iri": 7034,
  "dct": 3907,
  "\u0120proble": 3259,
  "\u0120nor": 7632,
  "us": 497,
  "router": 7500,
  "ORD": 2880,
  "nx": 6723,
  "\u0120uri": 3556,
  "\u0120ear": 6555,
  "\u0120htt": 1576,
  "generator": 5432,
  "97": 5553,
  "U": 57,
  "\u0120counts": 4101,
  "match": 1258,
  "tric": 2675,
  "\u0120transform": 4288,
  "Label": 7234,
  "Bu": 2917,
  "\u0120necessary": 3991,
  "\u0120width": 1972,
  "Chnk": 4381,
  "TED": 7373,
  "lative": 2628,
  ":": 30,
  "loop": 2433,
  "ampling": 3874,
  "\u0120minutes": 4240,
  "colors": 4790,
  "\u0120ordered": 7881,
  "\u0120being": 2794,
  "Customer": 5405,
  "\u0120kernel": 5515,
  "tempts": 5073,
  "uest": 7353,
  "float": 1468,
  "RF": 2866,
  "axes": 5784,
  "CP": 4152,
  "\u0120ele": 2886,
  "esca": 5874,
  "andom": 1328,
  "\u0120cert": 5123,
  "ifest": 5037,
  "\u0120display": 3577,
  "rt": 1752,
  "rev": 5686,
  "C": 39,
  "UT": 2053,
  "mer": 5862,
  "([": 965,
  "\u0120included": 4290,
  "\u0120Please": 6814,
  "\u0120ymin": 7885,
  "width": 1625,
  "logl": 6854,
  "FIG": 6907,
  "\u0120case": 1459,
  "progress": 4991,
  "hal": 7298,
  "\u0120ann": 5360,
  "ERR": 3269,
  "irt": 3954,
  "\u012030": 5074,
  "ragma": 7080,
  "\u0120docker": 6440,
  "tc": 7996,
  "\u0120repr": 5934,
  "qs": 6117,
  "cat": 2296,
  "ags": 4272,
  "\u0120sha": 4310,
  "crement": 5984,
  "\u0120Parameter": 7058,
  "diction": 3173,
  "strip": 1297,
  "\u0120\u0120\u0120\u0120\u0120\u0120\u0120\u0120\u0120\u0120\u0120\u0120\u0120\u0120\u0120\u0120\u0120\u0120\u0120\u0120": 1853,
  "nan": 2309,
  "ites": 3639,
  "ding": 995,
  "}'.": 1448,
  "\u0120ip": 2046,
  "cao": 3850,
  "66": 2680,
  "dices": 1766,
  "duced": 5355,
  "\u0120val": 759,
  "ate": 258,
  "\u00ec\u0126\u013e": 4247,
  "\u0120magic": 6711,
  "\u0120coerce": 7748,
  "567": 7166,
  "\u00e9\u0122": 6510,
  "\u0120Multi": 6294,
  "od": 400,
  "ivity": 3710,
  "\u0120loc": 2546,
  "st": 203,
  "\u0120to": 265,
  "logs": 6516,
  "ValidationError": 7715,
  "\u0120normalized": 4849,
  "\u0120observations": 6314,
  "used": 3361,
  "maining": 3454,
  "An": 2022,
  "\u0120locations": 5920,
  "\u0120digest": 7523,
  "Create": 2289,
  "\u0120documentation": 4242,
  "\u0120beam": 4946,
  "\u0120occur": 2766,
  "callsign": 4956,
  "\u0120AttributeValueList": 7543,
  "D": 40,
  "Convert": 4189,
  "\u0120rev": 5101,
  "\u0120skip": 2693,
  "\u0120\"{": 4027,
  "\u00ed": 151,
  "umn": 702,
  "\u00e5": 143,
  "Back": 4834,
  "byref": 5542,
  "\u0120affect": 6330,
  "\u0120Act": 7468,
  "\u0120remo": 2683,
  "sig": 5098,
  "lint": 5827,
  "\u0120psf": 6934,
  "\u0120limit": 1903,
  ")(": 6239,
  "text": 663,
  "utc": 5025,
  "ccess": 806,
  "\u0120param": 1013,
  "\u0120revision": 4297,
  "\u0120occurred": 7281,
  "np": 899,
  "\u0132\u013a\u00ec": 6363,
  "ERROR": 4279,
  "Tc": 3160,
  "\u0120peer": 5637,
  "\u0120XML": 1850,
  "\u0120Test": 3444,
  "\u013a\u00af": 6429,
  "Input": 4377,
  "opts": 4814,
  "aN": 7335,
  "uri": 1911,
  "\u0120termin": 4194,
  "prev": 5395,
  "socket": 2674,
  "\u0120units": 4823,
  "ION": 3262,
  "master": 3935,
  "key": 371,
  "ters": 3316,
  "\u00e5\u00a4": 6882,
  "obj": 863,
  "folder": 4389,
  "manifest": 7898,
  "NotFound": 3400,
  "hs": 6880,
  "ics": 1890,
  "AG": 1918,
  "Not": 2018,
  "\u0120type": 540,
  "\u0120socket": 2831,
  "ive": 605,
  "\u0120identity": 5698,
  "\u0120fluxes": 2470,
  "break": 7559,
  "rel": 1623,
  "KEY": 4104,
  "be": 1159,
  "dating": 6967,
  "\u0120pickle": 7853,
  "\u0120over": 1128,
  "api": 996,
  "derived": 6737,
  "V": 58,
  "gra": 3369,
  "\u0120edit": 4621,
  "\u0120separator": 6535,
  "nsure": 4911,
  "\u0120lay": 2419,
  "FF": 4648,
  "degrees": 5748,
  "catenate": 5765,
  "\u0120all": 635,
  "\u0120contain": 852,
  "\u0120classifier": 6133,
  "\u0120Un": 1791,
  "\u0120--": 701,
  "auto": 3545,
  "ource": 607,
  "\u0120constraints": 5452,
  "\u0120throw": 6776,
  "supported": 6354,
  "\u00eb": 149,
  "\u0120": 157,
  "sender": 5771,
  "\u0120SQL": 6437,
  "\u0120//": 4971,
  "\"}": 5963,
  "\u0120incx": 7004,
  "curren": 4672,
  ".'.": 7667,
  "adir": 5644,
  "\u0120file": 442,
  "jang": 2855,
  "\u0120surface": 5057,
  "surface": 6712,
  "\u0120dist": 2896,
  "\u0120typ": 6931,
  "\u0120extension": 3117,
  "ther": 772,
  "\u0120\u0120\u0120\u0120\u0120\u0120\u0120\u0120\u0120\u0120\u0120\u0120\u0120\u0120\u0120\u0120\u0120\u0120\u0120\u0120\u0120\u0120\u0120\u0120\u0120\u0120\u0120\u0120\u0120\u0120\u0120\u0120\u0120\u0120\u0120\u0120\u0120\u0120\u0120\u0120\u0120\u0120": 4768,
  "\u0120Output": 3904,
  "hits": 5116,
  "cel": 6641,
  "ab": 892,
  "exe": 6606,
  "enable": 5687,
  "\u0120down": 2458,
  "lahn": 4325,
  "quad": 5144,
  "\u0120complete": 3955,
  "init": 1671,
  "\u0120indic": 2464,
  "alog": 2682,
  "\u0120parsing": 5246,
  "\u0120Con": 989,
  "\u0120vertices": 7709,
  "bin": 1668,
  "\u0120future": 4530,
  "\u0120de": 382,
  "Pool": 5959,
  "\u01202": 514,
  "\u0120names": 1368,
  "\u0120exclu": 4637,
  "05": 4932,
  "ARNING": 5523,
  "\u0120FAST": 6158,
  "kg": 6322,
  "mx": 6470,
  "\u0120Expression": 7109,
  "chine": 7355,
  "\u0120toy": 7578,
  "\u0120base": 932,
  "\u0120associ": 1955,
  "\u0120documents": 7273,
  "\u0120datasets": 6493,
  "Percent": 7496,
  "\u0120passed": 1709,
  "ative": 1794,
  "\u0120gra": 5727,
  "\u0120checking": 6375,
  "\u0120bin": 1795,
  "\u0120link": 1898,
  "invalid": 4903,
  "\u0120K": 1962,
  "assword": 4382,
  "\u0120uid": 5875,
  "\u0120coe": 3514,
  "oauth": 7793,
  "channel": 2754,
  "venience": 7379,
  "Variant": 4362,
  "\u0120original": 2921,
  "\u0120registry": 5577,
  "\u0120Current": 6481,
  "\u01208": 2182,
  "########": 2956,
  "\u0120logs": 5624,
  "\u0120Call": 4258,
  "any": 3708,
  "\u0120Creates": 4266,
  "\u0120fitting": 4661,
  "lies": 4906,
  ")+": 6110,
  "rand": 3727,
  "Row": 6718,
  "yes": 6726,
  "\u0120Source": 5168,
  "\u0127\u00eb": 5204,
  "No": 2389,
  "\u0120depends": 6578,
  "\u0120Or": 3439,
  "Or": 3390,
  "\u0120trim": 7020,
  "peer": 6034,
  "\u0120contained": 7482,
  "\u0120again": 2851,
  "ion": 220,
  "')]": 6220,
  "Trans": 4271,
  "\u0120\u00ec\u0140\u0127\u00eb\u0142": 6423,
  "22": 4035,
  "expected": 4043,
  "mutation": 7662,
  "\u012050": 5374,
  "peri": 3669,
  "lat": 1069,
  "protocol": 5697,
  "ds": 1711,
  "sci": 4372,
  "89": 4744,
  "author": 2550,
  "}:": 3944,
  "\u0120mac": 4788,
  "\u0120content": 1003,
  "\u0120Element": 4806,
  "\u0120caption": 7264,
  "\u0120outlet": 7821,
  "\u0120more": 1173,
  "ors": 1000,
  "url": 485,
  "gest": 2839,
  "\u0120sep": 4581,
  "\u0120moment": 5811,
  "initial": 3963,
  "magic": 6232,
  "\u0120My": 7363,
  "nect": 1293,
  "threshold": 4698,
  "\u00e0": 138,
  "format": 502,
  "ECT": 5635,
  "I": 45,
  "bill": 3419,
  "correlation": 7201,
  "ior": 5586,
  "attern": 1230,
  "********": 1290,
  "EC": 2421,
  "properties": 3481,
  "\u0120actions": 4826,
  "\u0120attached": 6858,
  "\u0120unc": 5907,
  "\u0120ymax": 7936,
  "([[": 4369,
  ".": 18,
  "mid": 6287,
  "\u0120help": 1826,
  "\u0120trailing": 7224,
  "Register": 5737,
  "\u0120basis": 6599,
  "\u0120values": 742,
  "returns": 1632,
  "Driver": 6872,
  "sets": 2686,
  "\u0120space": 3028,
  "\u0120Boolean": 6420,
  "Code": 2756,
  "\u0120obs": 5804,
  "scores": 6428,
  "addr": 3650,
  "\u0120scan": 2644,
  "\u0120GET": 6694,
  "-": 17,
  "ler": 4352,
  "begin": 5785,
  "']['": 2800,
  "\u0120integers": 7113,
  "\u0120raises": 6073,
  "ynamoDB": 3476,
  "\u0120node": 747,
  "irtual": 4126,
  "\u0120predict": 4807,
  "\u0120In": 727,
  "rer": 4363,
  "\u0120default": 698,
  "\u0120sim": 1841,
  "\u0120['": 1340,
  "\u0120dot": 4727,
  "\u0120contains": 2281,
  "yin": 4154,
  "\u0120weight": 4376,
  "ALL": 5174,
  "licy": 2384,
  "mbol": 4703,
  "dd": 586,
  "PL": 6507,
  "ract": 2523,
  "tot": 5903,
  "holder": 3657,
  "fs": 2710,
  "\\": 64,
  "ri": 303,
  "(\"%": 3811,
  "inyin": 5685,
  "complete": 4239,
  "\":": 644,
  "collect": 6610,
  "\u0120ec": 6769,
  "sterior": 6782,
  "pass": 1631,
  "contrib": 5254,
  "allowed": 6630,
  "\u0120occurrence": 7849,
  "eric": 3392,
  "\u0120performed": 6303,
  "components": 4207,
  "\u00a3": 101,
  "\u0120av": 5535,
  "redential": 3248,
  "\u0120through": 2545,
  "1000": 5713,
  "([\"": 6919,
  "reload": 7138,
  "duct": 2624,
  "gress": 2083,
  "Attribute": 3467,
  "\u0120sp": 1401,
  "separ": 3754,
  "\u0120perform": 3522,
  "\u0120__": 2051,
  "`,": 2194,
  "ific": 3488,
  "\u0120value": 383,
  "\u0120simply": 7443,
  "\u0120[]": 799,
  "cls": 1321,
  "\u0120such": 2872,
  "ype": 288,
  "tries": 3607,
  "\u0120'<": 4919,
  "general": 5850,
  "\u0120vector": 2811,
  "ising": 7411,
  "quired": 1072,
  "ubclass": 6944,
  "ords": 3548,
  "\u0120just": 2355,
  "\u01207": 2529,
  "disabled": 6904,
  "storage": 6214,
  "\u0120translation": 7169,
  "new": 1177,
  "\u0120templates": 6624,
  "LAS": 5178,
  "ram": 3305,
  "37": 6795,
  "\u0120VIP": 6405,
  "wait": 2213,
  "lev": 5721,
  "\u0120outputs": 6900,
  "ake": 2836,
  "\u0120sever": 6559,
  "FORMAT": 6669,
  "ired": 7088,
  "gres": 7675,
  "zip": 2197,
  "\u0120dem": 7883,
  "\u0120comp": 752,
  "\u0120element": 981,
  "\u0120True": 606,
  "entifier": 1330,
  "\u0120that": 496,
  "ween": 1662,
  "\u0120under": 2818,
  "sensitive": 5675,
  ".\")": 1741,
  "\u0120island": 5344,
  "net": 1704,
  "backend": 5351,
  "Range": 5096,
  "h": 76,
  "cmp": 7731,
  "\u0120mass": 6564,
  "core": 1516,
  "access": 1695,
  "\u0120sym": 4349,
  "ish": 3698,
  "ometry": 4133,
  "_.": 5237,
  "from": 1098,
  "\u012c\u00b5\u00eb\u012d\u012a\u00eb\u012d\u00a4": 5505,
  "tup": 7178,
  "\u0137": 179,
  "ilest": 7589,
  "put": 434,
  "\u0120background": 3465,
  "number": 1410,
  "Num": 1239,
  "ling": 2044,
  "sted": 3307,
  "<": 32,
  "sert": 841,
  "Int": 5381,
  "note": 5883,
  "\u0120Usage": 5600,
  "pha": 1810,
  "\u0120soup": 7261,
  "\u0120date": 1005,
  "\u0120progress": 3164,
  "missions": 2835,
  "\u0120consist": 4081,
  "cryption": 3834,
  "\u0120whole": 5946,
  "\u0120Map": 7819,
  "original": 7772,
  "\u0120ro": 598,
  "\u0120err": 1971,
  "servers": 5136,
  "Call": 4540,
  "Python": 7539,
  "iform": 6393,
  "\u0120commands": 3149,
  "str": 268,
  "\u0120V": 573,
  "\u0120''": 2168,
  "EN": 1531,
  "\u0120side": 4141,
  "\u0120char": 1083,
  "en": 207,
  "\u0120per": 948,
  "\u0120source": 1142,
  "\u0120abs": 2637,
  "\u0120Windows": 5380,
  "some": 5459,
  "sibling": 6724,
  "\u0120grupo": 7641,
  "\u0120comment": 3655,
  "\u0120two": 1639,
  "sl": 3075,
  "ential": 2386,
  "forms": 4160,
  "tp": 6757,
  "xdo": 5719,
  "====": 1607,
  "vision": 2150,
  "body": 2449,
  "\u0120examples": 5778,
  "NO": 2973,
  "\u0120formats": 5654,
  "\u0120IO": 2857,
  "pars": 3837,
  "ws": 5240,
  "\u0120syntax": 7612,
  "ions": 3154,
  "\u0120IP": 1667,
  "\u0120access": 1694,
  "\u0120One": 5348,
  "clu": 792,
  "\u0120recipient": 6887,
  "Update": 3561,
  "Direct": 7231,
  "\u0120previously": 7769,
  "aw": 2915,
  "patch": 4200,
  "minute": 7478,
  "ech": 7673,
  "Nii": 4209,
  "tools": 1784,
  "\u01204": 1149,
  "gine": 2901,
  "configuration": 4031,
  "\u0120addresses": 5489,
  "atial": 6430,
  "\u0120cube": 7869,
  "\u0120am": 7922,
  "'],": 1248,
  "\u0120functions": 2732,
  "\u0120\"<": 7466,
  "Store": 2782,
  "\u0120Additional": 7435,
  "({": 2214,
  "\u0120</": 5425,
  "\u0120directly": 4191,
  "\u0120rows": 2609,
  "_{": 3692,
  "fetch": 3140,
  "\u00e8\u00bf": 7512,
  "\u0120'*": 5449,
  "\u0120pandas": 5448,
  "\u0120ix": 7183,
  "0000": 2980,
  "pro": 548,
  "SIZE": 6451,
  "Function": 4876,
  "ifact": 4147,
  "/.": 7228,
  "\u0120'-'": 6748,
  "makedirs": 6633,
  "\u0120A": 337,
  "stitutions": 4626,
  "luster": 1244,
  "objects": 2420,
  "]:": 1355,
  "\u0120tmp": 2629,
  "alue": 295,
  "\u0120})": 5149,
  "isdir": 5026,
  "\u0120128": 7207,
  "\u0120SS": 5345,
  "QU": 1839,
  "ities": 1942,
  "cwl": 6966,
  "Feature": 4835,
  "term": 1916,
  "\u0120instanti": 6859,
  "Inf": 7691,
  "\u0120env": 2687,
  "ge": 240,
  "sg": 1136,
  "urls": 4657,
  "MD": 4777,
  "\u0120across": 4588,
  "='": 557,
  "}`": 6213,
  "stem": 1425,
  "\u0120queue": 2079,
  "\"": 6,
  "ets": 6156,
  "\u0120play": 7872,
  "Model": 2798,
  "\u0120Sender": 7010,
  "\u0120dump": 7045,
  "fg": 1519,
  "cket": 1122,
  "ribe": 3463,
  "Sup": 6243,
  "yy": 6509,
  "wise": 1563,
  "\u0120Event": 6978,
  "leet": 5589,
  "Database": 6903,
  "icle": 2495,
  "models": 2288,
  "CDF": 3920,
  "rocess": 7404,
  "ort": 406,
  "\u0120matrices": 7888,
  "\u0120`": 452,
  "sent": 1063,
  "ASE": 3797,
  "rests": 4645,
  "inx": 5086,
  "\u0120loan": 6563,
  "DA": 7554,
  "\u0120KMS": 7763,
  "GE": 7294,
  "u": 89,
  "\u0120stdout": 2844,
  "BASE": 6544,
  "strict": 4040,
  "izing": 5366,
  "\u0120You": 2104,
  "off": 1836,
  "\u0120pack": 1692,
  "\u0120R": 637,
  "\u0120scipy": 5731,
  "\u0120prefix": 2029,
  "\u0120lower": 2668,
  "\u0120cla": 6365,
  "\u0120compiled": 7755,
  "ADD": 7768,
  "INT": 5303,
  "depth": 2534,
  "\u0120engine": 4188,
  "\u0120hmat": 7250,
  "aving": 4642,
  "itude": 2352,
  "manager": 3249,
  "File": 1444,
  "wt": 5799,
  "\u0120patch": 5803,
  "\u00a2": 100,
  "home": 4558,
  "ilt": 3681,
  "ube": 4617,
  "\u0120supp": 3270,
  "sing": 914,
  "\u00eb\u012d\u00a4": 5281,
  "Sh": 2425,
  "=\"\"": 5160,
  "\u0120django": 5909,
  "\u0120ut": 7302,
  "\u0120experiment": 7880,
  "\u0120delete": 2369,
  "cour": 5272,
  "hit": 2999,
  "Capacity": 5437,
  "show": 3175,
  "ecef": 5991,
  "\u0120handling": 6191,
  "ream": 935,
  "--": 250,
  "Xval": 7669,
  "\u0120plugins": 7710,
  "b": 70,
  "\u012f": 171,
  "amb": 1188,
  "can": 2709,
  "embed": 4925,
  "ision": 3231,
  "\u0120\u00ec\u0142": 5176,
  "':'": 2705,
  "\u0120unit": 3366,
  "lugin": 1708,
  "2000": 4979,
  "\u0120equip": 5936,
  "\u0120StopIteration": 6996,
  "Dataset": 5952,
  "eq": 6115,
  "\u0120Select": 7370,
  "odename": 5227,
  "\u0120stat": 2434,
  "calc": 2619,
  "upo": 3291,
  "examples": 6851,
  "remote": 2793,
  "snapshot": 4137,
  "\u0120def": 499,
  "lip": 5343,
  "ogram": 3360,
  "ones": 4183,
  "\u0120ID": 1257,
  "mod": 2349,
  "clear": 3662,
  "gre": 2159,
  "ely": 2371,
  "gex": 1721,
  "\u0120subdom": 3535,
  "\u0120dim": 2334,
  "\u0120doing": 5781,
  "\u0120pad": 4725,
  "\u0120downloaded": 6081,
  "\u0120zone": 3067,
  "ord": 427,
  "global": 2907,
  "\u0120Received": 3914,
  "\u0120speed": 4829,
  "\u0120-=": 3044,
  "pts": 1626,
  "quote": 5941,
  "valu": 2140,
  "POST": 3256,
  "img": 1837,
  "rase": 4474,
  "\u0120described": 5895,
  "\u0120(`": 7928,
  "\u0120require": 3162,
  "\u0120},": 1567,
  "\u0120Be": 4262,
  "\u0120margin": 6502,
  "program": 6817,
  "Web": 5114,
  "viation": 5192,
  "\u0120associate": 6625,
  "\u0120l": 324,
  "under": 7943,
  "Oper": 4629,
  "\u0120hist": 2769,
  "fastaccess": 2803,
  "\u0120magn": 6074,
  "internal": 6328,
  "segments": 6884,
  "\u0120while": 1336,
  "ustom": 1338,
  "_(": 4249,
  "\u0120references": 4038,
  "\u0120handled": 6704,
  "\u0120between": 1733,
  "ply": 2362,
  "\u0120Calculate": 5377,
  "\u0120executable": 7833,
  "sm": 2925,
  "imer": 4820,
  "LO": 2049,
  "ery": 684,
  "/": 19,
  "\u0120Create": 1559,
  "\u0120qual": 6327,
  "\u0120compressed": 7950,
  "g": 75,
  "\u0120buf": 4953,
  "\u0120build": 2271,
  "here": 2332,
  "\u0120sending": 5494,
  "\u0120ac": 1079,
  "\u0120testn": 4718,
  "points": 2542,
  "\u0120similar": 4048,
  "''": 583,
  "ca": 628,
  "ond": 3638,
  "\u0120document": 1713,
  "\u0120different": 2034,
  "istics": 4029,
  "On": 3063,
  "Description": 5337,
  "\u0120deg": 5807,
  "\u0120monomial": 5177,
  "just": 3314,
  "rame": 1071,
  "TIME": 4643,
  "\u0120labels": 2623,
  "\u0120(": 275,
  "\u0120share": 6947,
  "itu": 2032,
  "\u0120jo": 3798,
  "\u0120following": 1736,
  "~~": 3945,
  "\u0120arr": 4161,
  "`)": 5557,
  "\u0120Calculated": 6991,
  "Idx": 7477,
  "visible": 7488,
  "\u0120Extract": 7593,
  "\u0120hy": 1551,
  "stro": 6597,
  "egean": 6209,
  "All": 4960,
  "\u0120'\\": 2473,
  "bind": 3341,
  "where": 2724,
  "rep": 7181,
  "ift": 2233,
  "la": 291,
  "Type": 964,
  "\u0120ensure": 3741,
  "\u0120actually": 5335,
  "uld": 813,
  "cv": 3775,
  "\u0120Valid": 2377,
  "zeros": 2129,
  "Quant": 4049,
  "uff": 4322,
  "scri": 894,
  ">')": 6958,
  "amily": 7245,
  "\u0120index": 818,
  "\u0120div": 6943,
  "\u0120When": 2700,
  "CLA": 6959,
  "\u0120equipamento": 5593,
  "filenames": 6575,
  "\u0120anything": 6699,
  "\u0120meta": 1994,
  "Inter": 2778,
  "\u0120:]": 3443,
  "eries": 4391,
  "raft": 7635,
  "ow": 465,
  "@": 36,
  "dio": 6398,
  "tf": 7566,
  "\u0120interpol": 5210,
  "seconds": 2560,
  "mean": 1943,
  "\u0120expi": 6891,
  "\u0120detailed": 7642,
  "\u0120any": 1105,
  "ranch": 1649,
  "\u00ec\u0126": 3111,
  "\u0120ag": 1935,
  "land": 2146,
  "\u0120export": 5127,
  "mask": 1343,
  "\u0120creation": 5548,
  "\u0120short": 4055,
  "=[": 1873,
  "info": 743,
  ".,": 1522,
  "By": 2996,
  "quipament": 2218,
  "ace": 6590,
  "\u0120logical": 7053,
  "nr": 7299,
  "\u0120hostname": 5759,
  "\u0120bond": 7406,
  "Tuple": 6180,
  "={": 2126,
  "ice": 2155,
  "fa": 724,
  "\u0120dst": 4255,
  "Pre": 2730,
  "si": 2561,
  "setup": 5208,
  "\u0120failure": 5547,
  "\u0120Expected": 6819,
  "\u0139": 181,
  "\u0120{},": 5253,
  "igh": 1339,
  "INFO": 6445,
  "ources": 2096,
  "json": 682,
  "litude": 6298,
  "\u0120interpre": 5981,
  "VERSION": 5354,
  "\u0120consider": 6664,
  "tip": 3680,
  "oll": 7521,
  "gers": 6211,
  "Per": 2653,
  "ressed": 3648,
  "\u0120tup": 5866,
  "patterns": 7326,
  "rowser": 4951,
  "ue": 243,
  "\u0120finished": 7332,
  "ssible": 2387,
  "numpy": 2964,
  "mot": 5185,
  "ibling": 4604,
  ",'": 5139,
  "\u00a7\u0122": 4816,
  "Expr": 5882,
  "istic": 5695,
  "36": 5473,
  "KEN": 7622,
  "\u0120hex": 5699,
  "\u0120one": 871,
  "play": 2221,
  "\u0120\u0120\u0120\u0120\u0120\u0120\u0120\u0120\u0120\u0120\u0120\u0120\u0120\u0120\u0120\u0120\u0120\u0120\u0120\u0120\u0120\u0120\u0120\u0120\u0120\u0120\u0120\u0120\u0120\u0120\u0120\u0120\u0120\u0120\u0120\u0120\u0120\u0120\u0120\u0120\u0120\u0120\u0120\u0120\u0120\u0120": 5840,
  "attrib": 738,
  "\u0120position": 2121,
  "\u0120hard": 7251,
  "silent": 7565,
  "Sze": 6797,
  "ten": 2549,
  "\u0120by": 574,
  "\u0120found": 1231,
  "pi": 1026,
  "S": 55,
  "87": 6871,
  "runs": 7111,
  "description": 2260,
  "\u0120Range": 7422,
  "\u0120continuous": 7758,
  "compatible": 7974,
  "\u0120Auth": 5047,
  "\u0120DB": 2066,
  "\u0120Stack": 5323,
  "\u0120continue": 1441,
  "listRe": 3847,
  "\u0120authors": 5733,
  "rect": 683,
  "\u0120according": 4760,
  "\u0120starting": 3652,
  "].": 754,
  "indexes": 3938,
  "amp": 471,
  "Option": 6112,
  "unknown": 6698,
  "The": 1201,
  "sf": 5239,
  "ingle": 7800,
  "\u0120conver": 3723,
  "}\".": 2373,
  "DO": 1415,
  "\"}}": 7129,
  "component": 2988,
  "\u0120Su": 6607,
  "\u0120Back": 7196,
  "Add": 2057,
  "setdefault": 5087,
  "\u0120Print": 6482,
  "\u0120genus": 7210,
  "m": 81,
  "\u0120Exec": 7530,
  "Identifier": 3334,
  "gradient": 6151,
  "Attempt": 7610,
  "\u0120active": 3405,
  "beat": 7698,
  "\u0120da": 3237,
  "case": 2152,
  "ple": 6063,
  "relieve": 7402,
  "\u0120assert": 1182,
  "acter": 5250,
  "ense": 3707,
  "ET": 1673,
  "ars": 2838,
  "Mark": 6962,
  "\u0120bo": 715,
  "\u0120\u0120\u0120\u0120\u0120\u0120\u0120\u0120\u0120\u0120\u0120\u0120\u0120\u0120\u0120\u0120\u0120\u0120\u0120\u0120\u0120\u0120\u0120\u0120\u0120\u0120\u0120\u0120\u0120\u0120\u0120\u0120\u0120\u0120\u0120\u0120\u0120\u0120\u0120": 2475,
  "dict": 623,
  "gth": 900,
  "\u0120Other": 3771,
  "Method": 7159,
  "\u0120estim": 6910,
  "\u00ec\u0137": 4527,
  "\u0120already": 1793,
  "\u0120(%": 4157,
  "\u0120attach": 4066,
  "\u0120info": 2041,
  "\u00e3\u0122": 5085,
  "\u0120indicate": 7963,
  "zi": 7795,
  "instance": 614,
  "copy": 1644,
  "WA": 5556,
  "ptim": 3254,
  "relation": 3102,
  "hour": 2714,
  "\u0120automatically": 3303,
  "out": 457,
  "Change": 4972,
  "wards": 6308,
  "abc": 7890,
  "\u00ec\u0139": 4085,
  ",": 16,
  "\u0120parallel": 4398,
  "\u0120Remove": 4400,
  "ister": 1282,
  "Invalid": 2627,
  "drop": 6722,
  "rations": 7509,
  "cy": 1349,
  "\u0120respect": 4216,
  "platform": 5718,
  "\u0120url": 829,
  "========": 2935,
  "push": 6013,
  "locale": 7144,
  "\u0120ent": 1193,
  "until": 2883,
  "mooth": 3056,
  "ent": 249,
  "\u0120ma": 508,
  "tour": 3617,
  "download": 3623,
  "\u0120\u00e2\u0136": 5532,
  "Frame": 2661,
  "\u0120degrees": 5648,
  "view": 1775,
  "\u0120amount": 4446,
  "\u0120ends": 6408,
  "\u0120points": 2242,
  "INS": 5516,
  "temp": 2055,
  "server": 1699,
  "_%": 4980,
  "own": 781,
  "\u012b": 167,
  "\u0120/=": 4950,
  "pet": 6215,
  "rop": 2825,
  "\u0120preserve": 4769,
  "builder": 5979,
  "\u00e5\u013d": 7628,
  "serv": 2409,
  "('-": 3163,
  "M": 49,
  "\u0120disk": 3815,
  "\u013b": 183,
  "\u0120host": 1821,
  "\u0120hyph": 4679,
  "\u0120old": 2253,
  "\u0120filepath": 4754,
  "previous": 7690,
  "\u0120know": 6076,
  "VersionUpgrade": 7962,
  "\u0120metric": 4284,
  "templates": 6747,
  "\u0120cut": 7923,
  "\u0120mask": 1539,
  "ariable": 975,
  "\u0120byte": 3238,
  "\u00ba": 123,
  "mar": 4037,
  "ameters": 613,
  "\u00ec\u0140\u0132": 3745,
  "\u00b7": 120,
  "\u0120array": 875,
  "\u0120cross": 4966,
  "\u0120applied": 3559,
  "git": 2720,
  "}": 97,
  "chains": 6234,
  "\u0120simulation": 3675,
  "www": 3683,
  "\u0120Imp": 3592,
  "fobj": 5367,
  "fe": 565,
  "jection": 3735,
  "|'": 692,
  "\u0120using": 1215,
  "_,": 4649,
  "\u0120tb": 5747,
  "mo": 580,
  "\u0120sw": 3865,
  "rl": 3478,
  "================": 5674,
  "alchemy": 7576,
  "ression": 4747,
  "Bst": 4851,
  "font": 5339,
  "\u0120fin": 4428,
  "ing": 235,
  "\u0120WORD": 4494,
  "\u0120settings": 2076,
  "mote": 1383,
  "To": 1486,
  "make": 2775,
  "bolic": 7107,
  "perm": 7362,
  "ls": 709,
  "orm": 1048,
  "er": 204,
  "\u0120Description": 3499,
  "lied": 2138,
  "interp": 7062,
  ">\\": 5286,
  "arg": 1577,
  "'))": 1565,
  "a": 69,
  "andas": 4436,
  "\u0120indices": 3113,
  "\u0120\u0120\u0120\u0120\u0120\u0120\u0120\u0120\u0120\u0120\u0120\u0120\u0120\u0120\u0120\u0120\u0120\u0120\u0120\u0120\u0120\u0120\u0120\u0120\u0120\u0120\u0120\u0120\u0120\u0120\u0120\u0120\u0120\u0120\u0120\u0120\u0120\u0120\u0120\u0120": 4261,
  "Names": 3930,
  "\u0120equ": 4885,
  "click": 6272,
  "istype": 2870,
  "\u0120shutil": 5455,
  "river": 1774,
  "Password": 6388,
  "element": 1445,
  ":%": 3053,
  "\u0120Calcul": 3320,
  "\u0120MgtKey": 3796,
  "sb": 6929,
  "\u0120reads": 5490,
  "variable": 2321,
  "shard": 4865,
  "So": 5338,
  "\u0120em": 6642,
  "portion": 7754,
  "chunks": 4424,
  "\u0120discharge": 7894,
  "\u0120AN": 4766,
  "ally": 4938,
  "\u0120calculation": 6626,
  "ep": 794,
  "wl": 3988,
  "mpty": 1637,
  "],": 519,
  "escription": 2634,
  "\u0120ii": 5062,
  "\u0120means": 3528,
  "Test": 4557,
  "tails": 2368,
  "Close": 7230,
  "comments": 7202,
  "ertaint": 5931,
  "stats": 2328,
  "\u0120devices": 5693,
  "communic": 7208,
  "{'": 7342,
  "Wait": 7087,
  "present": 1542,
  "\u0120plt": 3220,
  "\u0120etree": 5774,
  "\u0120page": 1600,
  "\u0120dir": 2650,
  "\u0120Only": 4103,
  "sum": 1155,
  "\u0120sup": 994,
  "hether": 3245,
  "\u0120fut": 7681,
  "\u0120urlparse": 7952,
  "\u0120definition": 5213,
  "\u0120separated": 6705,
  "imple": 2243,
  "transform": 5197,
  "columns": 2202,
  "ITY": 7830,
  "sor": 3719,
  "\u0120ds": 5658,
  "\u0120entry": 2171,
  "\u0120joint": 6956,
  "\u0120cannot": 2392,
  "lash": 7876,
  "lp": 1474,
  "ively": 3295,
  "\u0120login": 3333,
  "Types": 4896,
  "park": 6479,
  "lets": 4392,
  "veloper": 3817,
  "\u0120reg": 1007,
  "\u0120upload": 4313,
  "\u0120Args": 1608,
  "NAME": 3257,
  "\u0120mod": 3202,
  "\u00ae": 111,
  "\u0120pop": 4328,
  "clude": 1202,
  "\u0120attributes": 1724,
  ".\"\"\"": 947,
  "\u0120password": 1872,
  "idfobject": 6518,
  "\u0120containing": 1654,
  "DI": 2061,
  "\u0120converter": 5961,
  "])]": 7645,
  "cimal": 3060,
  "jac": 5716,
  "ek": 3441,
  "expect": 7931,
  "tend": 7397,
  "\u0120Min": 5394,
  "genome": 4827,
  "math": 2788,
  "\u0120Cont": 7484,
  "eld": 466,
  "Hel": 4095,
  "tadata": 1365,
  "\u0120CPE": 2601,
  "mark": 2521,
  "tmp": 3252,
  "\u0120peak": 4997,
  "\u00b1": 114,
  "\u0120size": 1216,
  "'):": 1060,
  "order": 1584,
  "\u0120Comp": 2823,
  "\u0120standard": 3043,
  "\u0120layer": 3368,
  "fla": 1988,
  "\u0120conversion": 5661,
  "p": 84,
  "\u0120requires": 4487,
  "\u012012": 1594,
  ".')": 1552,
  "endswith": 2828,
  "Component": 3446,
  "vector": 4831,
  "utes": 1016,
  "track": 6529,
  "\u0120raw": 2006,
  ")])": 4150,
  "ide": 1129,
  "part": 1859,
  "cp": 2353,
  "Simple": 7000,
  "\u0120overlap": 7060,
  "\u0120LOG": 5435,
  "SU": 6753,
  "Func": 3062,
  "thread": 3292,
  "\u0120would": 3385,
  "gexes": 3644,
  "pla": 786,
  "\u0120loaded": 3430,
  "ffset": 6569,
  "\u0120ar": 418,
  "\u0120and": 315,
  "\u0120big": 5125,
  "Exception": 1185,
  "Source": 3018,
  "ipv": 3445,
  "\u0135": 177,
  "althCheck": 6274,
  "generate": 3635,
  "\u0120behavi": 4908,
  "quent": 5322,
  "\u0120pRF": 3964,
  "HA": 7391,
  "Style": 7591,
  "dpy": 1827,
  "rs": 3961,
  "\u0120CorpNum": 3261,
  "move": 982,
  "custom": 3628,
  "enabled": 4502,
  "secutive": 7280,
  "\u0120covariance": 7248,
  "message": 1414,
  "cosmo": 5891,
  "nel": 1429,
  "uca": 6472,
  "fastq": 5545,
  "{}'.": 3440,
  "unctools": 7713,
  "cipient": 4222,
  "destination": 5522,
  "\u0120string": 531,
  "oring": 4710,
  "\u0120datetime": 1650,
  "cript": 3851,
  "\u0120ra": 2882,
  "to": 390,
  "todo": 4238,
  "skip": 4792,
  "lie": 5126,
  "\u0120archive": 5855,
  "\u0120?": 6760,
  "lying": 7814,
  "ported": 3516,
  "BI": 7982,
  "\u0120exact": 4945,
  "Base": 2234,
  "\u0120otherwise": 2274,
  "Sets": 3801,
  "ensity": 4004,
  "\u0120terms": 5307,
  "\u0120lgc": 4202,
  "PUB": 6549,
  "connections": 6665,
  "\u0120free": 7575,
  "\u0120VPC": 3631,
  "3": 23,
  "('[": 6646,
  "\u0120gets": 6692,
  "\u0120numbers": 3388,
  "\u0120resource": 2071,
  "\u0120warning": 3077,
  "\u0120elife": 7172,
  "valid": 790,
  "\u0120padding": 5102,
  "\u0120hash": 2920,
  "icip": 7816,
  "<|eos|>": 3,
  "Tra": 6390,
  "idual": 6289,
  "\u0120received": 4353,
  "\u0120Dict": 3839,
  "\u0120sources": 4531,
  "()])": 7580,
  "dition": 1769,
  "alled": 3143,
  "\u0120Qu": 3627,
  "done": 3986,
  "\u0120\u00ed\u012e": 3792,
  "sup": 2277,
  "\u0120sur": 3083,
  "hest": 4694,
  "\u0120pur": 5294,
  "\u0120SSL": 7079,
  "JobFn": 5676,
  "\u012e": 170,
  "\u0120issues": 7967,
  "ect": 367,
  "\u0120Do": 1995,
  "Parser": 3129,
  "PRO": 3960,
  "\u00a9": 107,
  "irect": 4612,
  "\u0120global": 2589,
  "\u0120middle": 6682,
  "arrays": 6856,
  "\u0120SSH": 6685,
  "De": 1205,
  "modify": 7944,
  "rib": 556,
  "20": 3031,
  "ns": 1212,
  "84": 5001,
  "\u0120so": 846,
  "types": 1555,
  "\u0120success": 2273,
  "\u0120\"": 312,
  "'''": 2729,
  "range": 1509,
  "\u0120release": 3383,
  "cursive": 3389,
  "le": 214,
  "\u0120arch": 4399,
  "\u0120secret": 5835,
  "uation": 6593,
  "cm": 6673,
  "(\"'": 6524,
  "modifi": 7364,
  "\u0120slot": 5871,
  "ter": 289,
  "\u0120on": 480,
  "\u0120formatter": 7156,
  "XX": 5996,
  "\u0120subprocess": 3605,
  "Existe": 4822,
  "only": 2308,
  "\"]:": 4519,
  "xml": 2167,
  "UL": 2062,
  "*(": 4291,
  "\u0120title": 1619,
  "gram": 1732,
  "\u0120relative": 3423,
  "ird": 6042,
  "Mem": 6961,
  "mbiente": 5671,
  "\u0120send": 1874,
  "\u0120URL": 1905,
  "ob": 1742,
  "rue": 431,
  "cycle": 7268,
  "},": 1524,
  "\u0120bel": 6805,
  "prefix": 1521,
  "\u0120rule": 2365,
  "\u00ea\u00b4\u0122": 6237,
  "\u0133": 175,
  "loads": 4077,
  "System": 5995,
  "\u0120level": 1504,
  "SC": 2819,
  "\u0120enabled": 4018,
  "unpack": 6123,
  "\u0120sql": 3506,
  "34": 4573,
  "\u0120dates": 6068,
  "strPath": 6253,
  "illi": 6940,
  "vailable": 1515,
  "no": 1164,
  "background": 4894,
  "\u0120defines": 7101,
  "\u00a6": 104,
  "AR": 1229,
  "\u0120\"\":": 6137,
  "admin": 4534,
  "stit": 2484,
  "\u0120correct": 2750,
  "\u0120category": 5591,
  "debug": 1056,
  "gy": 4460,
  "vid": 1680,
  "tern": 886,
  "first": 2291,
  "rift": 7581,
  "ee": 5616,
  "\u0120Base": 4619,
  "'}": 2645,
  "option": 1014,
  "``:": 4809,
  "\u0120fraction": 4473,
  "FL": 4916,
  "\u00eb\u00b0": 7572,
  "ins": 4251,
  "structure": 7834,
  "its": 874,
  "average": 6286,
  "\u0120es": 6770,
  "ferent": 1945,
  "\u00e6": 144,
  "\u0120within": 2360,
  "ttributes": 3890,
  "digest": 6124,
  "\u0120flux": 4192,
  "ificate": 4977,
  "\u0120successful": 3525,
  "Read": 2518,
  "\u0120\u0120\u0120\u0120\u0120\u0120\u0120\u0120\u0120\u0120\u0120\u0120\u0120\u0120\u0120\u0120\u0120\u0120\u0120\u0120\u0120\u0120\u0120\u0120\u0120\u0120\u0120\u0120\u0120\u0120\u0120": 1247,
  "scricao": 5652,
  "\u0120storage": 4346,
  "\u0120tile": 6511,
  "GER": 6546,
  "Document": 7122,
  "Second": 7430,
  "\u0120random": 1889,
  "\u0120primary": 4267,
  "strap": 4580,
  "\u00a8": 106,
  "leep": 3284,
  "k": 79,
  "\u0120This": 779,
  "formation": 1190,
  "sky": 6132,
  "\u0120longer": 6379,
  "gb": 3562,
  "\u0120against": 3903,
  "\u0120pipeline": 6108,
  "LE": 1200,
  "\u0120docstring": 6581,
  "\u00ec": 150,
  "('": 325,
  "cols": 3782,
  "END": 5056,
  "Environment": 6534,
  "\u0120assumed": 6172,
  "kt": 7561,
  "ily": 2287,
  "Class": 3313,
  "\u0120metrics": 7313,
  "\u0120there": 1568,
  "space": 1428,
  "\u0120been": 2162,
  "fit": 2694,
  "ha": 2703,
  "\u0120arrays": 3701,
  "pture": 4597,
  "\u0120cel": 5590,
  "sp": 385,
  "worker": 6407,
  "ki": 4762,
  "naQuantification": 5214,
  "\u0120Color": 6083,
  "existing": 6668,
  "\u0120channel": 2963,
  "bound": 4078,
  "\u0120pwm": 7142,
  "function": 2012,
  "ference": 1062,
  "\u0120pull": 7459,
  "\u0120bins": 5076,
  "merge": 5901,
  "ii": 2533,
  "ublas": 3223,
  "days": 4179,
  "terms": 6806,
  "\u0120ASCII": 7147,
  "\u0120coefficients": 7444,
  "\u0120render": 3370,
  "\u0120occurren": 4337,
  "_": 67,
  "\u0120gener": 1103,
  "lex": 2200,
  "\u0120rec": 5772,
  "archive": 7693,
  "handlers": 7033,
  "\u0120contrib": 5396,
  "nt": 411,
  "\u0120Each": 3618,
  "place": 953,
  "andid": 4186,
  "rive": 7805,
  "\u0120operation": 2780,
  "gpu": 6392,
  "\u0120capture": 6573,
  "\u0120stream": 1554,
  ")',": 6837,
  "\u0120columns": 2021,
  "\u0120regex": 2587,
  "\u0120Start": 3752,
  "You": 5796,
  "Cre": 6085,
  "ority": 4182,
  "ude": 6212,
  "\u0120Http": 6300,
  "There": 7828,
  "HIT": 6461,
  "summary": 4735,
  "Cont": 3671,
  "\u0120populate": 7972,
  "\u0120block": 1305,
  "ical": 1082,
  "\u0120opt": 7305,
  "yload": 1547,
  "olders": 4954,
  "SO": 3761,
  "(**": 2652,
  "\u0120explicitly": 5283,
  "volume": 5905,
  "lished": 6382,
  "widget": 7398,
  "Response": 2899,
  "jor": 3951,
  "\u0120pass": 923,
  "\u0120So": 5453,
  "edirs": 6144,
  "bucket": 4463,
  "apply": 5145,
  "\u0120Node": 3724,
  "\u0120assigned": 5760,
  "long": 2940,
  "ilities": 4129,
  "unct": 4142,
  "genus": 5519,
  "itions": 1503,
  "samples": 2426,
  "\u0120nr": 6332,
  "rite": 767,
  "\u0120('": 1485,
  "sh": 455,
  "TI": 1715,
  "\u0120days": 4431,
  "\u0120comma": 4677,
  "\u0120These": 5976,
  "\u0120payload": 2303,
  "params": 1209,
  "reshape": 3763,
  "ants": 4517,
  "dictionary": 5753,
  "\u0120intervals": 7059,
  "ertain": 5385,
  "\u0120M": 522,
  "\u0120[\"": 3247,
  "utable": 3451,
  "relations": 6048,
  "chrom": 6255,
  "definition": 7290,
  "cdf": 5440,
  "\u0120ISO": 7932,
  "\u0120-------": 1341,
  "\u0120total": 2004,
  "col": 615,
  "cu": 4707,
  "ARN": 2994,
  "isfile": 3884,
  "GroupName": 3621,
  "latten": 3550,
  "\u0120depth": 4366,
  "Str": 3410,
  "\u00d1": 136,
  "\u0120vhost": 5243,
  "\u0120ba": 5420,
  "acesso": 7990,
  "\u0120Value": 856,
  "\u0120Col": 3417,
  "alan": 4343,
  "Sequence": 4421,
  "\\'": 7915,
  "TF": 6320,
  "ifier": 4311,
  "\u0120w": 253,
  "coord": 6684,
  "\u0120at": 768,
  "\u0120section": 2081,
  "deploy": 7708,
  "\u0120files": 1088,
  "\u0120observ": 3622,
  "4": 24,
  "cation": 650,
  "cntxt": 6755,
  "\u0120ok": 7462,
  "buf": 4717,
  "\u0120async": 6688,
  "cheduler": 7112,
  "di": 308,
  "\u0120number": 803,
  "ready": 1572,
  "Ex": 726,
  "\u0120script": 3119,
  "is": 299,
  "\u0120tempor": 4958,
  "very": 2198,
  "cover": 5938,
  "\u0120shell": 3844,
  "arange": 4364,
  "aling": 6364,
  "\u0120tail": 6492,
  "virtual": 6793,
  "mag": 2722,
  "\u0120provision": 7315,
  "remove": 2080,
  "{}": 968,
  "eval": 5357,
  "medium": 7214,
  "wave": 5317,
  "gno": 4723,
  "error": 612,
  "Authentication": 5636,
  "area": 4241,
  "TE": 1725,
  "HTML": 6205,
  "sync": 6675,
  "password": 2038,
  "\u0120inter": 1067,
  "stderr": 2961,
  "\u0120Document": 4302,
  "geo": 5206,
  "\u0120auth": 1234,
  "COL": 4498,
  "orn": 6844,
  "we": 931,
  "\u00eb\u00aa": 7240,
  "\u0120Desc": 7525,
  "\u0120representation": 4243,
  "\u0120structure": 2713,
  "\u0120appear": 6279,
  "TC": 4611,
  "\u0120pers": 5446,
  "\u0120ST": 6037,
  "LT": 7393,
  "\u0120[],": 5009,
  "plus": 4691,
  "LOCK": 7838,
  "\u0120Reg": 4327,
  "Api": 4628,
  "\u0120levels": 5705,
  "\u0120Gtk": 7946,
  "\u0120aspect": 5649,
  "\u0120test": 1204,
  "country": 5670,
  "echo": 3599,
  "mu": 7564,
  "means": 7141,
  "\u0120cl": 4857,
  "delay": 5506,
  "\u0120then": 1303,
  "Al": 3337,
  "clusive": 6130,
  "environ": 3777,
  "\u0120Device": 6348,
  "\u0120authentic": 5758,
  "same": 7035,
  "ields": 7598,
  "item": 1133,
  "\u0120filenames": 6045,
  "\u0120lex": 5666,
  "\u0120}": 882,
  "DED": 7896,
  "\u0120volume": 2662,
  "finite": 5763,
  "fixed": 6742,
  "Body": 7553,
  "uess": 5450,
  "ides": 7649,
  "<|pad|>": 0,
  "\u0120\u0120\u0120\u0120\u0120\u0120\u0120\u0120\u0120\u0120\u0120\u0120\u0120\u0120\u0120\u0120\u0120\u0120\u0120\u0120\u0120\u0120\u0120\u0120\u0120\u0120\u0120\u0120\u0120\u0120\u0120\u0120": 515,
  "\u0120daemon": 7608,
  "\u0120memory": 3234,
  "quipment": 3702,
  "iz": 412,
  "\u0120bits": 3739,
  "\u0120der": 1968,
  "\u0120\u0120\u0120\u0120\u0120\u0120\u0120\u0120\u0120\u0120\u0120\u0120\u0120\u0120": 1595,
  "\u0120whites": 5170,
  "\u0120label": 1375,
  "tore": 2547,
  "ain": 1151,
  "\u0120raised": 4260,
  "\u0120|": 517,
  "\u0120k": 774,
  "\u0120working": 5152,
  "\u0125": 161,
  "tn": 5083,
  "\u012014": 5390,
  "\u0120ans": 6094,
  "\u0120could": 2931,
  "authors": 4453,
  "]',": 7863,
  "\u0120T": 296,
  "ffer": 2120,
  "\u0120inv": 4711,
  "Section": 7199,
  "\u012036": 7695,
  "Release": 7185,
  "iddle": 4974,
  "lines": 1483,
  "\u0120right": 2594,
  "\u0120Returns": 708,
  "FIX": 7117,
  "\u0120Given": 5456,
  "dr": 3996,
  "ML": 1253,
  "GET": 2997,
  "ager": 1896,
  "\u0120requests": 1965,
  "WSGI": 7323,
  "\u0120frequency": 7458,
  "\u0120getattr": 1931,
  "\u0120Defaults": 3455,
  "quen": 1543,
  "TR": 3836,
  "lieve": 5406,
  "\u00ef\u00bc": 2868,
  "wrap": 3002,
  "Token": 3355,
  "coords": 5834,
  "allable": 7349,
  "ename": 997,
  "sat": 3828,
  "\u0120languages": 7537,
  "nm": 7994,
  "[:]": 4203,
  "}}": 3161,
  "idf": 5621,
  "imat": 3987,
  "\u0120mag": 3700,
  "\u0120'(": 6515,
  "Validate": 7218,
  "hru": 7992,
  "==": 918,
  "\u0120observed": 7160,
  "argv": 6010,
  "safe": 3894,
  "ait": 1235,
  "pare": 2091,
  "dumps": 3358,
  "Email": 6316,
  "sens": 3533,
  "\u0120let": 3323,
  "NS": 3435,
  "}{": 4461,
  "allback": 3740,
  "Exp": 5700,
  "ended": 3755,
  "\u0120Checks": 6054,
  "\u0120destination": 3012,
  "]).": 5327,
  "\u0120sci": 6476,
  "so": 958,
  "\u0120screen": 5730,
  "ole": 2736,
  "\u0120AssertionError": 7617,
  "Tmp": 3120,
  "\u0120X": 1162,
  "mal": 2474,
  "ay": 1139,
  "\u0120except": 648,
  "\u0120alpha": 2738,
  "radius": 6229,
  "\u0120direction": 3424,
  "rid": 2329,
  "][": 1001,
  "\u0120button": 4737,
  "\u0120marked": 7658,
  "\u00ea\u00b0": 4594,
  "\u0120wh": 504,
  "\u0120maps": 6203,
  "expanduser": 7501,
  "\u0120related": 3982,
  "ERS": 7260,
  "has": 1770,
  "Auth": 2525,
  "\u0120without": 2558,
  "\u0120mapping": 2799,
  "card": 3330,
  "\u0120spe": 2337,
  "equipamento": 3807,
  "\u0120matches": 2485,
  "\u0120AR": 4860,
  "NotFoundError": 5310,
  "istration": 7656,
  "\u0120calculated": 5234,
  "\u0120'?": 7873,
  "Global": 7083,
  "._": 319,
  "Stat": 6267,
  "\"))": 3030,
  "clean": 3408,
  "\u0120vis": 3065,
  "olver": 2279,
  "ixel": 1412,
  "\u0120Can": 4397,
  "inal": 1187,
  "\u0120Should": 7121,
  "placeholder": 7016,
  "\u0120'&": 6848,
  "styles": 7211,
  "\u0120restore": 6932,
  "SI": 1921,
  "orders": 6159,
  ">": 34,
  "Load": 3167,
  "\u0120Ed": 3886,
  "Please": 7086,
  "\u0120parts": 2928,
  "slice": 4306,
  "na": 2131,
  "\u0120tz": 7998,
  "Dis": 3984,
  "={}": 6920,
  "\u0120phrase": 7766,
  "hip": 6926,
  "ierarch": 5110,
  "\u0120instrument": 6188,
  "SECON": 6618,
  "\u00e4\u00b8\u012f": 7536,
  "verter": 6892,
  "rees": 7678,
  "\u0120difference": 6230,
  "\u0120distances": 6168,
  "\u0120U": 609,
  "zed": 6325,
  "inf": 5143,
  "encode": 1869,
  "positions": 5950,
  "\u0120enough": 7316,
  "standard": 6679,
  "Match": 5823,
  "unc": 693,
  "[:,": 1701,
  "hen": 1978,
  "Format": 3052,
  "ierarchy": 5356,
  "\u0120tar": 5004,
  "cdot": 6720,
  "vancedTag": 6916,
  "da": 836,
  "\u0120equal": 2367,
  "wd": 2952,
  "quences": 1843,
  "pecifi": 2201,
  "matrix": 2770,
  "\u0120dr": 7143,
  "\u0120component": 2037,
  "\u0120[{": 4839,
  "=": 33,
  "gh": 1729,
  "timestamp": 3127,
  "\u0120blob": 6558,
  "product": 6007,
  "sequent": 7346,
  "\u0120query": 1076,
  "IM": 7725,
  "\u0120routine": 5156,
  "\u0120point": 1326,
  "member": 2976,
  "ve": 341,
  "88": 7722,
  "rol": 1698,
  "...')": 6297,
  "PAR": 3985,
  "sqr": 5814,
  "plotlib": 5308,
  "co": 285,
  "\u0120\u0120\u0120\u0120\u0120\u0120\u0120\u0120\u0120\u0120\u0120\u0120\u0120\u0120\u0120\u0120\u0120": 1525,
  "\u0120child": 1541,
  "\u00eb\u00b3\u00b4": 7504,
  "ase": 426,
  "\u0120both": 2530,
  "ification": 1659,
  "Variable": 4210,
  "joint": 6040,
  "ension": 1255,
  "..": 454,
  "\u0120dictionary": 1304,
  "CF": 4745,
  "Temp": 4740,
  "ified": 3328,
  "\u0120validator": 5951,
  "\u0120now": 2757,
  "pid": 5500,
  "\u0120Falha": 7226,
  "\u0120r": 402,
  "mmand": 667,
  "ach": 903,
  "graph": 2219,
  "ttrib": 1427,
  "\u0120IndexError": 4999,
  "']:": 1894,
  "Down": 7724,
  "\u0120\u0120\u0120\u0120\u0120\u0120\u0120\u0120\u0120\u0120\u0120\u0120\u0120\u0120\u0120\u0120\u0120\u0120\u0120\u0120\u0120": 1957,
  "force": 3799,
  "\u0120setting": 3473,
  "\u0120user": 809,
  "\u0120{})": 5701,
  "\u0120ax": 1141,
  "lper": 3809,
  "roles": 4354,
  "\u00e8": 146,
  "\u0120scenario": 6786,
  "()}": 7746,
  "success": 3734,
  "clog": 6925,
  "\u0120override": 3286,
  "public": 5019,
  "Watch": 6244,
  "\u0120CON": 5485,
  "coefs": 7498,
  "aries": 3115,
  "depend": 4335,
  "\u0120probab": 2948,
  "\u0120Gener": 3165,
  "Service": 5309,
  "air": 4630,
  "cont": 835,
  "\u0120migration": 7718,
  "ATE": 3198,
  "Content": 3335,
  "\u0120Find": 3819,
  "\u0120topic": 5889,
  "\u0120embed": 3384,
  "reads": 1982,
  "\u0120attrib": 906,
  "perty": 1792,
  "42": 7131,
  "Array": 4333,
  "11": 2235,
  "with": 1027,
  "face": 1096,
  "ighest": 5169,
  "hum": 6800,
  "Rsp": 6319,
  "src": 2607,
  "\u0120Ex": 898,
  "\u0120major": 7152,
  "inputs": 3367,
  "vect": 3757,
  "\u013c\u012e": 3881,
  "lob": 1167,
  "\u0120prev": 3887,
  "variables": 3571,
  "moves": 6198,
  "callable": 6406,
  "values": 1015,
  "rm": 2404,
  "\u0120those": 3582,
  "\u0120closed": 6030,
  "\u0120competing": 7532,
  "transport": 7717,
  "ur": 222,
  "cho": 2005,
  "total": 2867,
  "\u0120copy": 1882,
  "fil": 1181,
  "\u0120IDs": 5052,
  "\u0120Popbill": 3824,
  "\u0126\u00ec": 4709,
  "Policy": 4975,
  "j": 78,
  "\u0120ids": 2383,
  "\u0120li": 991,
  "difi": 1900,
  "\u0120master": 4162,
  "subprocess": 5810,
  "cache": 1466,
  "ffici": 2914,
  "related": 5813,
  "Header": 6453,
  "\u0120legend": 6713,
  "\u0124\u00ac\u00ec\u0139\u0127": 5678,
  "frame": 1932,
  "networkapi": 7118,
  "\u0120B": 736,
  "termin": 2840,
  "\u0120cp": 5749,
  "\u00b2": 115,
  "response": 1172,
  "\u0120N": 491,
  "AS": 4469,
  "plication": 3000,
  "Generator": 5179,
  "dence": 5267,
  "\u0120delimiter": 7187,
  "scheme": 5042,
  "\u0120changed": 4606,
  "\u0120mat": 658,
  "jango": 2884,
  "mat": 372,
  "github": 3263,
  "sem": 4412,
  "\u0120DataBase": 4221,
  "vice": 700,
  "Aegean": 6424,
  "ence": 822,
  "nc": 3843,
  "byte": 4439,
  "\u0120hourly": 7329,
  "\u0120bl": 6643,
  "\u0120tokens": 3398,
  "reen": 2953,
  "ho": 1913,
  "ING": 2017,
  "specific": 5311,
  "\u0120Attribute": 2205,
  "\u0120sampling": 4782,
  "adcast": 6601,
  "\u0120restart": 7683,
  "\u0120nested": 4099,
  "tasks": 4316,
  "ration": 2715,
  "\u0120z": 922,
  "\u0120nc": 3566,
  "after": 5161,
  "[::-": 7057,
  "Optional": 4171,
  "X": 60,
  "Parse": 4420,
  "ij": 6552,
  "day": 2554,
  "cmd": 2354,
  "etch": 2164,
  "\u00ed\u013a\u00b8": 3110,
  "\u0120delay": 5692,
  "\u0120Search": 5372,
  "CI": 6460,
  "expression": 4944,
  "target": 1808,
  "ights": 2092,
  "spec": 3336,
  "\u0120cat": 4413,
  "\u0120virtual": 5805,
  "\u0120Date": 6125,
  "\u0120able": 7457,
  "last": 1534,
  "\u0120elem": 5021,
  "\u0120nu": 6001,
  "\u0120\u00eb": 3505,
  "\u0120sample": 1528,
  "\u00c2": 129,
  "issing": 2258,
  "\u0120identifi": 4700,
  "live": 4986,
  "cast": 3875,
  "\u0120try": 638,
  "\u0120la": 920,
  "\u0120nmb": 6765,
  "Le": 3504,
  "\u0120takes": 5384,
  "\u0120'')": 3665,
  "able": 441,
  "\u0120records": 4334,
  ")*": 2734,
  "\u0120InvalidParameterError": 3023,
  "\u0120relationship": 7609,
  "sters": 3882,
  "flags": 4383,
  "()))": 3557,
  "\u0120colour": 4697,
  "peak": 6189,
  "\u0120models": 2906,
  "ost": 839,
  "my": 2107,
  "Iteration": 6170,
  "\u0120diag": 6523,
  "\u0120py": 1272,
  "ian": 2256,
  "\u0120En": 2052,
  "v": 90,
  "wind": 5084,
  "\u0120course": 5157,
  "\u0120pretty": 6526,
  "minimum": 6857,
  "OF": 6318,
  "\u0120our": 3055,
  "ild": 699,
  "esc": 4394,
  "rank": 6485,
  ")):": 1447,
  "Resource": 5462,
  "rap": 1124,
  "\u0120multiple": 2442,
  "\u0120generated": 3715,
  "pot": 4708,
  "\u0120F": 415,
  "\u0120currently": 4553,
  "allel": 3433,
  "contour": 6192,
  "ient": 1899,
  "\u0120lib": 2815,
  "chedule": 4605,
  "pool": 3979,
  "\u0120children": 3916,
  "loud": 1800,
  "\u0120uncertaint": 6836,
  "candid": 7916,
  "root": 1302,
  "\u0120completed": 6487,
  "\u0120Index": 3606,
  "ura": 7350,
  "\u0120directory": 1396,
  "\u0120encoded": 4269,
  "\u0120ndarray": 3280,
  "\u0120better": 7600,
  "comment": 4536,
  "ma": 314,
  "arch": 810,
  "phase": 6346,
  "exus": 6941,
  "\u0120UTC": 7011,
  "pository": 2646,
  "\u01201": 354,
  "\u0120center": 3932,
  "\u0120cmd": 2451,
  "\u00e2\u0122\u013b": 7075,
  "AGICC": 5612,
  "\u0120del": 1901,
  "noun": 7895,
  "\u0120dev": 6438,
  "\u0120grid": 3404,
  "sock": 5034,
  "ferences": 2582,
  "\u0120Se": 1195,
  "dims": 6290,
  "padding": 6323,
  "astype": 2905,
  "izes": 3626,
  "\u0120Notification": 7492,
  "('/": 2696,
  "\u0120count": 1367,
  "cf": 3448,
  "\u0120mak": 4045,
  "aster": 4664,
  "\u00a1": 99,
  "\u0120decimal": 4863,
  "Exec": 5012,
  "Lay": 5994,
  "variant": 4063,
  "venv": 7179,
  "\u0120via": 4268,
  "const": 2497,
  "notes": 5150,
  ")``": 7618,
  "\u0131": 173,
  "\u0120Any": 2989,
  "\u0120information": 1281,
  "tempt": 2830,
  "\u0120\\": 909,
  "\u0120est": 2659,
  "ated": 678,
  "athon": 6733,
  "compat": 5400,
  "\u0120determin": 3999,
  "equal": 3726,
  "atio": 2965,
  "\u0120less": 4079,
  "\u0120boot": 5783,
  "\u0120flags": 3356,
  "']):": 7361,
  "\u0120m": 257,
  "gorithm": 3135,
  "\u0120aryMdl": 5277,
  "\u0120library": 5279,
  "\u0120plugin": 2810,
  "grids": 5518,
  "inu": 2616,
  "main": 1148,
  "ulation": 2555,
  "curityGroup": 3981,
  "\u0120coefficient": 5158,
  "spect": 2743,
  "convert": 3668,
  "pipe": 7429,
  "\u0120stop": 2135,
  "\u0120act": 1279,
  "metadata": 2306,
  "\u0120methods": 2968,
  "=-": 4151,
  "\u0120descriptor": 6157,
  "'},": 5285,
  "ered": 6184,
  "major": 6218,
  "\u0120Speci": 5391,
  "ilter": 2375,
  "cular": 5918,
  "\u0120\u0120\u0120\u0120\u0120\u0120\u0120\u0120\u0120\u0120\u0120\u0120\u0120\u0120\u0120\u0120\u0120\u0120\u0120\u0120\u0120\u0120\u0120\u0120\u0120\u0120\u0120\u0120\u0120\u0120\u0120\u0120\u0120\u0120\u0120\u0120\u0120\u0120\u0120\u0120\u0120\u0120\u0120\u0120\u0120\u0120\u0120\u0120": 6979,
  "call": 1263,
  "('<": 4236,
  "now": 1949,
  "\u0120'',": 3923,
  "\u0120Validation": 4931,
  "\u0120deviation": 6942,
  "Language": 7623,
  "\u0120replace": 1951,
  "\u0120program": 3990,
  "docker": 5252,
  "\u0120wrap": 3615,
  "\u0120ho": 4159,
  "numbers": 4949,
  "ans": 1508,
  "ness": 3207,
  "ools": 5864,
  "Can": 7293,
  "duration": 4631,
  "\u0120failed": 2093,
  "CAC": 7984,
  "Cannot": 4722,
  "sv": 2923,
  "void": 4246,
  "\u0120Name": 1652,
  "clusters": 6044,
  "amples": 1119,
  "\u0120priority": 7018,
  "complex": 5653,
  "ask": 864,
  "mbers": 3484,
  "mt": 1712,
  "\u0120appe": 4644,
  "\u0120n": 224,
  "oc": 2450,
  "\u0120job": 1844,
  "[:": 902,
  "vailability": 3058,
  "Obj": 7624,
  "\u013c": 184,
  "\u0120db": 2690,
  "\u0120unknown": 5302,
  "factory": 5183,
  "(\\": 4686,
  "erge": 2480,
  "\u0120hours": 4608,
  "\u0120known": 4640,
  "\u0120retrieve": 4939,
  "iterable": 5051,
  "method": 1593,
  "ning": 1054,
  "folio": 6816,
  "\u0120>,": 2128,
  "ao": 3329,
  "\u0120):": 3776,
  "rpc": 7510,
  "Unexpected": 7324,
  "snapshots": 6016,
  "\u0120self": 252,
  "\u0120),": 2579,
  "kw": 539,
  "normalize": 6709,
  "hourly": 7965,
  "authentic": 7700,
  "\u0120accord": 4357,
  "\u0120deprecated": 7813,
  "\u0120Per": 3515,
  "wh": 3274,
  "coe": 3666,
  "\u0120fill": 3230,
  "\u0120packet": 4706,
  "\u0120Types": 7760,
  "\u0120std": 2112,
  "speci": 5798,
  "okies": 4733,
  "\u0120resolution": 5626,
  "t": 88,
  "random": 2667,
  "\u0120AttributeError": 3074,
  "\u0120filename": 1146,
  "grees": 3524,
  "stdout": 2613,
  "tached": 5595,
  "\u0120reading": 5980,
  "\u0120fi": 334,
  "ELL": 5376,
  "\u0120cached": 4845,
  "\u0120projection": 7151,
  "\u00ab": 109,
  "\u0120It": 2338,
  "\u0120=": 209,
  "licies": 7407,
  "\u0120embedding": 6235,
  "\u0120specifying": 5232,
  "ength": 4544,
  "\u00ea\u00b4\u0122\u00eb\u00a6\u00ac": 6281,
  "\u0120the": 223,
  "ari": 632,
  "interests": 7382,
  "\u0120Don": 7192,
  "DOM": 7434,
  "lif": 617,
  "\u0120ssh": 7043,
  "\u0120remaining": 4968,
  "\u0120long": 2932,
  "\u0120authentication": 5017,
  "\u0120changes": 4276,
  "Cache": 4776,
  "Files": 7204,
  "\u0120subscription": 7106,
  "06": 7550,
  "\"):": 1838,
  "dified": 2922,
  "\u0120seq": 2774,
  "assistants": 7125,
  "parse": 1405,
  "ulated": 3866,
  "ored": 2584,
  "ildcard": 5651,
  "\u0120quot": 6450,
  ";": 31,
  "\u0120bar": 4448,
  "package": 2604,
  "ison": 2625,
  "ZE": 5182,
  "\u0120opts": 4781,
  "\u0120color": 1772,
  "\u0120Developer": 4825,
  "\u0120when": 1150,
  "\u0120services": 5575,
  "button": 6150,
  "PI": 1186,
  "wi": 2974,
  "ulate": 2887,
  "\u0120pars": 7934,
  "SecurityGroups": 7714,
  "script": 2144,
  "\")": 534,
  "\u0120convert": 1815,
  "read": 599,
  "pf": 2671,
  "\u00ef\u00bc\u012e": 4539,
  "support": 5078,
  "\u0120re": 221,
  "\u00e5\u0143": 5241,
  "Tree": 4576,
  "\u0120Mark": 5599,
  "bove": 3177,
  "\u0127": 163,
  "\u0120Environment": 3381,
  "ron": 765,
  "readout": 6693,
  "itional": 2500,
  "imgur": 7761,
  "\u0120blocklistRegexes": 7063,
  "\u0120/": 850,
  "pix": 3909,
  "\u0120loader": 5876,
  "iff": 7452,
  "AGE": 5375,
  "PAT": 4230,
  "pad": 4390,
  "webdriver": 7221,
  "vs": 7794,
  "Repo": 6647,
  "\u0120ext": 1553,
  "\u01206": 1657,
  "ini": 5969,
  "\u0120analys": 3646,
  "locator": 4408,
  "\u0120^": 7629,
  "condition": 2861,
  "entication": 2982,
  "ula": 6602,
  "\u0120webdriver": 4758,
  "divid": 3409,
  "\u0120xo": 6484,
  "ped": 1499,
  "rest": 2571,
  "vec": 3507,
  "pdf": 6881,
  "\u0120listed": 7644,
  "Server": 5672,
  "\u0120must": 887,
  "\u0120qui": 5481,
  "\u0120pattern": 1959,
  "bab": 2372,
  "required": 2849,
  "='',": 4755,
  "version": 1095,
  "\"),": 3429,
  "rtype": 1492,
  "\u0120debug": 2859,
  "remoterelieve": 7771,
  "nstates": 6928,
  "Iter": 3017,
  "\u0120ass": 1106,
  "\u0120id": 563,
  "most": 3968,
  "gtKey": 3457,
  "PRE": 5615,
  "\u0120folder": 3620,
  "\u0120Type": 1561,
  "MS": 3132,
  "\u0120Engine": 5598,
  "This": 4350,
  "\u0120<=": 1910,
  "sort": 2000,
  "\u0120fit": 2028,
  "\u0120Allow": 5582,
  "\u0120checked": 7595,
  "ng": 1719,
  ")],": 7227,
  "ldap": 4957,
  "\u0120boolean": 1980,
  "Un": 1570,
  "\u0120th": 318,
  "\u0120\")": 6520,
  "neighb": 3956,
  "\u0120_": 443,
  "\u0120ETag": 7752,
  "tk": 3494,
  "ible": 1374,
  "yp": 3762,
  "ell": 1796,
  "ature": 1121,
  "cert": 5336,
  "\u0120processed": 5058,
  "\u0120Linux": 5880,
  "ton": 2543,
  ")).": 4512,
  "\u0120fail": 2864,
  "equip": 6878,
  "\u0120(:": 7096,
  "\u0120Availability": 4256,
  "js": 645,
  "lso": 3733,
  "')))": 7666,
  "\u0120transaction": 5953,
  "environment": 2492,
  "diag": 5028,
  "raps": 4859,
  "\u0120of": 278,
  "gs": 342,
  "cent": 1363,
  "andler": 1397,
  "embd": 7696,
  "ial": 800,
  "lient": 876,
  "\u0120200": 3086,
  "\u0120warnings": 4425,
  "reenode": 7773,
  ".*": 4034,
  "sec": 2600,
  "integer": 4206,
  "ogle": 6623,
  "sim": 2139,
  "\u0120Over": 4842,
  "dl": 2236,
  "pty": 1276,
  "Association": 7978,
  "UR": 4016,
  "10": 1032,
  "py": 506,
  "\u0120close": 3137,
  "Rel": 6924,
  "\u0120follow": 1453,
  "ITS": 7956,
  "\u00b5\u00eb\u012d\u012a\u00eb\u012d\u00a4": 5502,
  "\u0120confi": 4582,
  "sage": 4560,
  "95": 6670,
  "\u0120elif": 626,
  "as": 353,
  "\u0120POST": 7544,
  "IN": 888,
  "index": 627,
  "\u0120criteria": 5205,
  "up": 300,
  ".__": 872,
  "\u0120since": 3032,
  "imgs": 7941,
  "$": 8,
  "\u0120scaling": 7044,
  "\u0120chains": 5790,
  "\u0120combine": 6788,
  "prepare": 4076,
  "\u0120partition": 7269,
  "hierarchy": 7337,
  "nkor": 7022,
  "\u0120sent": 1743,
  "\u013c\u012e\u00ec\u013d\u0132": 4351,
  "Write": 5439,
  "\u0120find": 1489,
  "z": 94,
  "\u0120application": 2862,
  "\u0120lookup": 3490,
  "\u0120map": 1915,
  "letion": 5580,
  "TER": 2681,
  "\u0120Class": 7585,
  "tax": 3838,
  "GB": 4798,
  "\u0120indicates": 5922,
  "UBLAS": 5791,
  "ege": 5900,
  "rat": 7865,
  "\u0120does": 1152,
  "tom": 3174,
  "verse": 1871,
  "Hrf": 5928,
  "\u0120filter": 1389,
  "split": 890,
  "\u0120reset": 4882,
  "\u0120mean": 2301,
  "\u0120own": 4509,
  "unction": 592,
  "RoleArn": 7442,
  "command": 1144,
  "\u0120average": 4155,
  "SCII": 5989,
  "['": 392,
  "\u0120sbjct": 6335,
  "\u0120deriv": 6353,
  "ables": 3101,
  "Subnet": 4443,
  "\u0120To": 2058,
  "\u0120your": 1940,
  "eature": 3973,
  "\u00e4\u00bb": 3643,
  "\u0120\u0120\u0120\u0120\u0120\u0120\u0120\u0120\u0120\u0120\u0120\u0120\u0120\u0120\u0120\u0120\u0120\u0120\u0120\u0120\u0120\u0120\u0120\u0120\u0120\u0120\u0120\u0120\u0120\u0120\u0120\u0120\u0120\u0120\u0120\u0120\u0120\u0120\u0120\u0120\u0120\u0120\u0120\u0120\u0120\u0120\u0120": 4671,
  "\u0120Block": 7108,
  "\u0120implement": 3380,
  "\u0120day": 2505,
  "\u0120appropriate": 4094,
  "eLife": 2199,
  "\u0120processing": 5734,
  "\u0120Try": 6807,
  "Device": 4465,
  "intenance": 7882,
  "F": 42,
  "perties": 2015,
  "\u0120op": 3253,
  "Ids": 3640,
  "Min": 3718,
  "09": 4959,
  "\u0120placeholder": 6169,
  "\u0120contin": 1318,
  "ents": 6936,
  "\u0120control": 3239,
  "\u0120cores": 5594,
  "eb": 4036,
  "ynamic": 4914,
  "ipy": 4547,
  "media": 6270,
  "\u0120keyword": 3268,
  "bottom": 7025,
  "ith": 361,
  "/')": 7910,
  "ever": 4172,
  "uring": 2672,
  "/%": 2346,
  "################": 5656,
  "\u0120dt": 2524,
  "\u0120greater": 2978,
  "um": 282,
  "\u0120CO": 6608,
  "\u0120Line": 7646,
  "\u0120or": 352,
  "pwm": 5291,
  ">'": 6751,
  "po": 447,
  "connect": 2100,
  "\u00a7": 105,
  "argument": 1674,
  "\u0120mark": 2517,
  "\u0120sh": 595,
  "mis": 7003,
  "\u0120\u00e5": 4917,
  "\u0120func": 1675,
  "`": 68,
  "\u00bf": 128,
  "If": 5715,
  "STR": 6376,
  "255": 5407,
  "\u0120Otherwise": 4208,
  "position": 2933,
  "\u0120proper": 4215,
  "\u0120built": 5601,
  "\u0141": 189,
  "\u00ec\u0139\u0127": 5112,
  "ber": 527,
  "Schema": 5898,
  "lecule": 3738,
  "ts": 930,
  "\u0120calculate": 3427,
  "l": 80,
  "\u0120>>>": 493,
  "\u0120InvalidParameter": 2977,
  "Queue": 6588,
  "setting": 6779,
  "Meta": 4455,
  "gg": 3908,
  "\u0120rout": 2764,
  "NaoExiste": 4832,
  "der": 604,
  "cret": 2744,
  "namespace": 4565,
  "ot": 260,
  "ynchron": 3428,
  "ict": 1347,
  "\u0120ipv": 5154,
  "\u0120record": 1805,
  "se": 198,
  "\u0120Ensure": 6525,
  "normal": 2846,
  "doi": 4505,
  "vest": 6097,
  "ttree": 7590,
  "\u0120appro": 2897,
  "erical": 7041,
  "status": 1314,
  "ynam": 2177,
  "pre": 560,
  "\u0120indexes": 3196,
  "ndim": 4543,
  "dic": 1254,
  "\u0120authorization": 6140,
  "\u0120Code": 6686,
  "\u0120elements": 1760,
  "SH": 3282,
  "))[": 7637,
  "WN": 7508,
  "sorted": 3856,
  "ibility": 5429,
  "Png": 7176,
  "\u013d\u0132": 4212,
  "\u0120redirect": 4109,
  "\u0120cour": 3125,
  "\u0120DO": 4044,
  "\u0120ord": 4891,
  "SET": 5373,
  "\u0120lin": 6434,
  "fobject": 4548,
  "\u0120Perform": 7285,
  "uwsgi": 7567,
  "23": 3785,
  "ult": 327,
  "ath": 332,
  "ersion": 851,
  "\u0120'+": 5773,
  "\u0120make": 1617,
  "pop": 1700,
  ">`": 3382,
  "rede": 7400,
  "ystem": 3613,
  "\u0120factor": 3351,
  "oute": 6071,
  "Implemented": 5613,
  "modules": 4315,
  "ja": 7339,
  "\u0120os": 730,
  "extend": 2019,
  "ed": 279,
  "itor": 1651,
  "\u00e1": 139,
  "handler": 2791,
  ":])": 4687,
  "search": 1536,
  "\u0120relev": 6764,
  "\u0120policy": 4368,
  "mb": 961,
  "cores": 2926,
  "\u0120<": 561,
  "\u0120analysis": 3971,
  "gnore": 2755,
  "atus": 808,
  "\u0120nothing": 4395,
  "\u0120'{}'": 7969,
  "``": 649,
  "VAL": 3691,
  "Reviewing": 4720,
  "reply": 5829,
  "ew": 462,
  "dicates": 5305,
  "6666": 7070,
  "\u0120DEFAULT": 7973,
  "otype": 3898,
  "\u0120Dec": 6975,
  "\u0120Basic": 6740,
  "AL": 1369,
  "rit": 1773,
  "\u0120W": 671,
  "\u0120di": 388,
  "\u0120variables": 2293,
  "At": 3466,
  "grid": 2608,
  "\u0120ctypes": 3756,
  "DIR": 3957,
  ")**": 5712,
  "\u0120chars": 5886,
  "outer": 6006,
  "Contain": 6984,
  "\u0120available": 1790,
  "verify": 5422,
  "ados": 7048,
  ":].": 7785,
  "like": 1848,
  "\u0120\u0120\u0120\u0120\u0120\u0120\u0120\u0120\u0120\u0120\u0120\u0120\u0120\u0120\u0120\u0120\u0120\u0120\u0120\u0120\u0120\u0120": 2290,
  "TION": 3489,
  "\u0120--------": 916,
  "\u0120Apply": 6710,
  "\u0120round": 3830,
  "]": 65,
  "ome": 1312,
  "object": 1074,
  "\u0120TO": 1718,
  "\u0120hits": 4396,
  "EM": 5314,
  "\u0120look": 1997,
  "\u01200": 398,
  "\u00e3\u0122\u0124": 5710,
  "\u0120targets": 5983,
  "rows": 2410,
  "\u0120server": 1450,
  "UP": 4853,
  "ify": 1535,
  "\u0120ren": 5831,
  "\u0120Target": 6808,
  "rices": 6809,
  "Box": 7983,
  "Arn": 2934,
  "raction": 3403,
  "\u0120qu": 1764,
  "compress": 6304,
  "Th": 2259,
  "\u0120every": 2612,
  "akes": 3325,
  "scription": 1157,
  "tent": 1961,
  "hu": 5184,
  ".'''": 5766,
  "\u0120figure": 6106,
  "kind": 4879,
  "\u0120acl": 7597,
  "[": 63,
  "Exist": 7647,
  "\u0120event": 1284,
  "\u0120pub": 1817,
  "\u0132": 174,
  "'.": 631,
  "GI": 5638,
  "\u0120dataset": 1583,
  "th": 320,
  "site": 3209,
  "Length": 6148,
  "ceil": 7633,
  "blue": 6550,
  "accept": 7701,
  "customer": 7968,
  "cwd": 5082,
  "arge": 1267,
  "document": 3876,
  "prediction": 6567,
  ".\".": 6750,
  "Cnt": 6922,
  "\u0120follows": 7957,
  "\u0120io": 4764,
  "SER": 6466,
  "\u0120idx": 1936,
  "\u012018": 6400,
  "\u0120patterns": 5890,
  "ret": 3601,
  "\u0120Tuple": 4308,
  "inalg": 5543,
  "MAP": 6415,
  "cd": 6551,
  "ample": 537,
  "ity": 578,
  "ateg": 2311,
  "\u0120File": 2292,
  "rms": 5529,
  "addChild": 6486,
  "NA": 2432,
  "\u0120season": 7357,
  ")\"\"\"": 7028,
  "\u0120beginning": 7970,
  "Max": 4510,
  "records": 6536,
  "ping": 4650,
  "wraps": 6118,
  "=['": 4385,
  "LOW": 6533,
  "selected": 6012,
  "\u0120scalar": 7634,
  "ff": 636,
  "\u0120app": 842,
  "dtype": 2250,
  "\u0120Initial": 5172,
  "query": 804,
  "\u0120executed": 6047,
  "\u0120language": 2699,
  "AML": 7551,
  "rial": 1981,
  "\u0120flu": 1334,
  "quire": 2010,
  "\u0120exp": 1753,
  "example": 2626,
  "spath": 4237,
  "\u0120fp": 6090,
  "\u0120initialize": 7705,
  "\u0120manager": 5633,
  "\u0120comparison": 3243,
  "\u0120mutation": 7072,
  "features": 4163,
  "\u0120Inputs": 7776,
  "control": 3148,
  "\u0120instances": 2097,
  "olume": 2070,
  "Filter": 3746,
  "ST": 988,
  "lement": 603,
  "Ext": 4892,
  "ava": 5288,
  "\u0120Run": 1679,
  "\u0120lo": 381,
  "asset": 6521,
  "\u0120How": 4479,
  "**": 389,
  "mount": 3543,
  "ating": 1422,
  "\u0120msg": 1395,
  "\u0120note": 3010,
  "Mapping": 6317,
  "\u0120itself": 4375,
  "ress": 824,
  "\u0120par": 407,
  "\u0120Y": 1440,
  "\u0120normal": 2074,
  "\u0120keep": 3565,
  "ptime": 4433,
  "al": 216,
  "hmm": 4577,
  "\u0120occ": 6825,
  "\u0120Script": 7253,
  "ways": 3076,
  "\u00e5\u00bc": 7568,
  "valent": 4477,
  "\u0120Mo": 4732,
  "ixed": 6654,
  "andard": 2342,
  "\u0120Lambda": 6442,
  "loyment": 2603,
  "\u0120remote": 2318,
  "\u0120enum": 1581,
  "\u0120fixed": 4915,
  "\u0120ValueError": 924,
  "ging": 1227,
  "ument": 555,
  "ilder": 2947,
  "\u0120begin": 3926,
  "ance": 380,
  "anti": 5274,
  "\u0120dict": 761,
  "\u0120compress": 5667,
  "\u0120\u0120\u0120\u0120\u0120\u0120\u0120\u0120\u0120\u0120\u0120\u0120\u0120\u0120\u0120\u0120\u0120\u0120\u0120\u0120\u0120\u0120\u0120\u0120\u0120\u0120\u0120\u0120\u0120\u0120\u0120\u0120\u0120\u0120\u0120\u0120\u0120\u0120\u0120\u0120\u0120\u0120\u0120\u0120\u0120\u0120\u0120\u0120\u0120": 7419,
  "\u0120p": 228,
  "\u0120Time": 3124,
  "lock": 746,
  "link": 1771,
  "ks": 4855,
  "ndarray": 2733,
  "calibration": 6488,
  "http": 2166,
  "\u0120shard": 5171,
  "ame": 238,
  "ormal": 1400,
  "\u0120vals": 5399,
  "LA": 2463,
  "ous": 1222,
  "oxel": 4774,
  "duce": 3393,
  "\u0120contact": 4598,
  "icroseconds": 6631,
  "UTC": 7325,
  "39": 5313,
  "}\"": 4561,
  "dh": 6840,
  "configure": 4659,
  "at": 201,
  "['--": 7524,
  "cale": 2039,
  "rough": 2302,
  "sole": 5517,
  "gene": 3802,
  "\u0120decor": 5943,
  "\u0120+=": 734,
  "\u0120with": 419,
  "\u0120yet": 4786,
  "\u0120inverse": 5971,
  "termine": 2539,
  "ces": 544,
  "ponse": 2124,
  "fer": 2666,
  "uting": 5226,
  "\u0120symbol": 7431,
  "datasets": 7417,
  "\u0120mimetype": 7906,
  "\u0120imp": 756,
  "compile": 3970,
  "actual": 5841,
  "Found": 2573,
  "\u0120exit": 3765,
  "READ": 7368,
  "cer": 2245,
  "\u0120author": 2461,
  "\u0120snapshots": 6359,
  "ault": 490,
  "\u0120ts": 3136,
  "ife": 1803,
  "\u0120wildcard": 7308,
  "\u0120Inter": 6739,
  "etadata": 5647,
  "lon": 3611,
  "riteria": 4444,
  "org": 2088,
  "\u0120clusters": 7090,
  "build": 2179,
  "sumed": 7432,
  "\u0120However": 6060,
  "ached": 6876,
  "lib": 1359,
  "header": 1358,
  "\u0120fields": 1461,
  "\u0120pixels": 3038,
  "options": 1603,
  "\u0120beta": 3255,
  "save": 2227,
  "ambiente": 4348,
  "\u0120pool": 3604,
  "\u012c": 168,
  "IME": 6960,
  "ear": 1669,
  "\u0120abstract": 6622,
  "coeffs": 6992,
  "sembly": 7128,
  "max": 855,
  "\u0120\u0120\u0120\u0120\u0120\u0120\u0120\u0120\u0120\u0120\u0120\u0120\u0120\u0120\u0120\u0120\u0120\u0120\u0120\u0120\u0120\u0120\u0120\u0120\u0120\u0120\u0120\u0120\u0120\u0120\u0120\u0120\u0120\u0120\u0120\u0120\u0120\u0120\u0120\u0120\u0120\u0120\u0120\u0120\u0120\u0120\u0120\u0120\u0120\u0120\u0120": 5665,
  "war": 7511,
  "\u0120------------------------": 7594,
  "resource": 2597,
  "errors": 3240,
  "\u0120tw": 7039,
  "\u0120nd": 3009,
  "\u0120special": 4164,
  "\u0120custom": 2147,
  "images": 4068,
  "bro": 6638,
  "\u0120pysat": 4304,
  "\u0120jobs": 6539,
  "\u0120expect": 4415,
  "SION": 4148,
  "notation": 3814,
  "soft": 7262,
  "axis": 2316,
  "REG": 6985,
  "---------": 7829,
  "XT": 5859,
  "uration": 944,
  "inte": 2888,
  "\u0120minimum": 3485,
  "cap": 5238,
  "pe": 248,
  "\u0120callsign": 5276,
  "\u0120timeout": 1677,
  "\u0120results": 1154,
  "decorator": 5588,
  "type": 348,
  "\u0120describ": 3859,
  "\u0120execute": 3689,
  "\u0120sx": 5908,
  "\u0120resolve": 7587,
  "nmb": 4935,
  "URL": 2402,
  "onse": 568,
  "ched": 1251,
  "Line": 4902,
  "\u0120chain": 2382,
  "P": 52,
  "ave": 665,
  "\u0120also": 1731,
  "syllable": 6046,
  "velo": 2777,
  "\u0120'''": 654,
  "Page": 3637,
  "\u0120processes": 5022,
  "itation": 4615,
  "\u0120load": 1517,
  "\u0120[])": 6292,
  "spaces": 7702,
  "\u0120accept": 2993,
  "),": 446,
  "sed": 751,
  "ime": 359,
  "ttribute": 1664,
  "End": 3906,
  "\u0120For": 962,
  "dst": 5202,
  "\u0120curve": 5915,
  "flatten": 5340,
  "\u0120represented": 6201,
  "ound": 912,
  "ftype": 7674,
  "\u0120formatted": 4132,
  "\u0120nearest": 7154,
  "\u0120\u0120\u0120\u0120\u0120\u0120\u0120\u0120\u0120\u0120\u0120\u0120\u0120\u0120\u0120\u0120\u0120\u0120\u0120\u0120\u0120\u0120\u0120\u0120\u0120\u0120\u0120\u0120\u0120": 2567,
  "\u0120Message": 5958,
  "anging": 6783,
  "len": 582,
  "\u0120dn": 7307,
  "\u0120encryption": 4715,
  "dian": 4121,
  "rapper": 1683,
  "sql": 3877,
  "]):": 2606,
  "\u0120nest": 7318,
  "\u0120role": 3353,
  "!')": 6542,
  "lan": 1211,
  "getId": 5939,
  "\u0120Command": 4102,
  "pattern": 2157,
  "\u0120fast": 3682,
  "\u0120pot": 4324,
  "KS": 6283,
  "HO": 4470,
  "\u0120cosmo": 7287,
  "\u0120\"_": 5297,
  "extract": 5030,
  "MAX": 6139,
  "\u0120Tra": 3925,
  "ios": 4096,
  "mainder": 7050,
  "\u0120mig": 5167,
  "Col": 2572,
  "\u0120exce": 579,
  "\"],": 3297,
  "aded": 2113,
  "alth": 2725,
  "OPTION": 6911,
  "utdown": 5723,
  "\u0120gen": 1716,
  "\u0120ratio": 4989,
  "\u0120rate": 4947,
  "tract": 3510,
  "cor": 1259,
  "})": 1891,
  "attach": 5164,
  "\u0120Django": 5945,
  "leted": 2749,
  "NUM": 6548,
  "draw": 6721,
  "cuda": 7615,
  "\u0120sear": 7878,
  "28": 5740,
  "apps": 7886,
  "\u0120options": 1494,
  "\u0120colors": 6527,
  "mission": 1744,
  "dt": 2439,
  "resses": 3322,
  "\u00e8\u00af": 4106,
  "\u0120String": 2401,
  "utf": 2013,
  "eg": 6183,
  "\u0120allowlistRegexes": 7114,
  "(__": 5679,
  "globals": 7497,
  "\u0120Pro": 2170,
  "dm": 4153,
  "\u0120written": 4759,
  "\u0120Fal": 7100,
  "\u0120temperature": 5706,
  "\u0120command": 1038,
  "\u0120axis": 2033,
  "Rat": 5201,
  "hi": 6879,
  "down": 2767,
  "\u0120ranges": 6301,
  "filepath": 3751,
  "getLocal": 6014,
  "\u0120place": 2745,
  "pc": 2237,
  "ament": 2114,
  "\u0120bias": 7744,
  "\u0120atom": 3641,
  "common": 6165,
  "igma": 2481,
  "pter": 5660,
  "assert": 6005,
  "\u0120organization": 7333,
  "')[": 4805,
  "\u0120bootstrap": 7027,
  "\u0120bounds": 5609,
  "ync": 2165,
  "ould": 885,
  "outputs": 5982,
  "shape": 884,
  "100": 2494,
  "before": 5371,
  "\u0120I": 345,
  "bu": 664,
  "\u0104": 154,
  "ption": 360,
  "end": 368,
  "\u0120str": 475,
  "cpus": 5893,
  "\u0120==": 430,
  "\u0120code": 1108,
  ":.": 6838,
  "\u0120g": 355,
  "\u0120Cloud": 2910,
  "ree": 849,
  "HER": 7392,
  "desc": 2937,
  "\u0120hed": 6651,
  "caten": 5155,
  "_)": 4779,
  "\u0120print": 783,
  "valuate": 6580,
  "sk": 862,
  "connected": 6414,
  ")'": 3959,
  "ink": 1043,
  "analysistype": 3029,
  "\u0120inputs": 2969,
  "\u0120!": 915,
  "\u0120OS": 3576,
  "asses": 7810,
  "vent": 760,
  "me": 217,
  "props": 5947,
  "ec": 845,
  "helper": 5482,
  "\u0129": 165,
  "\u0120method": 795,
  "Message": 3288,
  "\u0120returns": 1386,
  "ile": 575,
  "\u0120highlight": 7604,
  "\u0120fil": 784,
  "try": 2599,
  "Wrapper": 4541,
  "idden": 2807,
  "flu": 1728,
  "unk": 1052,
  ").": 602,
  "\u0120parent": 1423,
  "]+": 4198,
  "\u00b0": 113,
  "parts": 3299,
  "\u0120incoming": 7516,
  "aders": 1250,
  "Group": 1370,
  "01": 1087,
  "ft": 1260,
  "ids": 1488,
  "\u0120matplotlib": 5881,
  "DELETE": 6078,
  "AvailabilityZone": 7127,
  "\u00ef": 152,
  "fail": 4019,
  "([(": 7263,
  "\u0120ful": 5100,
  "MAT": 7860,
  "warning": 2648,
  "RU": 5140,
  "85": 4321,
  "\u0120successfully": 6276,
  "\u0120how": 2726,
  "\u0120\u0120\u0120\u0120\u0120\u0120\u0120\u0120\u0120\u0120\u0120\u0120\u0120\u0120\u0120\u0120\u0120\u0120\u0120\u0120\u0120\u0120\u0120\u0120\u0120\u0120\u0120\u0120\u0120\u0120\u0120\u0120\u0120\u0120\u0120\u0120\u0120\u0120": 2405,
  "\u0120push": 7739,
  "\u0120month": 2548,
  "annel": 1740,
  "serve": 2991,
  "\u0120Preferred": 6341,
  "timeout": 2312,
  "escri": 2418,
  "pNum": 3091,
  "commands": 3232,
  "lz": 7562,
  "cip": 2276,
  "\u0120updated": 3783,
  "\u0120ed": 1292,
  "\u0120indent": 3760,
  "redentials": 3842,
  "\u0120class": 1099,
  "ct": 233,
  "ipe": 2735,
  "\u0120Raise": 3206,
  "\u0120encode": 2959,
  "\u0120reference": 1750,
  "pecifies": 3676,
  "session": 1892,
  "\u0120axes": 4995,
  "\u0120uuid": 4355,
  "\u0120install": 3474,
  "BE": 5795,
  "\u0120dc": 6771,
  ")]": 1442,
  "\u0120nx": 3663,
  "\u0120inst": 1168,
  "row": 936,
  "lier": 7094,
  "\u0120Determine": 5629,
  "optional": 2042,
  "rain": 4729,
  "requency": 5264,
  "\u0120marker": 6666,
  "BJ": 7858,
  "seline": 6032,
  "\u0120sdp": 6251,
  "\u0120assign": 2762,
  "mem": 2117,
  "ront": 4403,
  "MENT": 4704,
  "lang": 5682,
  "greg": 4211,
  "ms": 513,
  "tool": 7189,
  "9": 29,
  "\u0120comb": 2814,
  "lc": 5219,
  "ural": 4013,
  "\u0120dy": 6557,
  "\u0120Module": 7102,
  "Path": 2130,
  "exp": 2119,
  "Pe": 6177,
  "RL": 1323,
  "^": 66,
  "mitted": 5231,
  "\u0120linear": 5106,
  "\u0120variable": 1291,
  "tar": 4009,
  "FILE": 4423,
  "\u0120Generate": 4901,
  "app": 486,
  "Generate": 7607,
  "round": 1562,
  "orph": 5720,
  "itoring": 7704,
  "ump": 4143,
  "und": 562,
  "f": 74,
  "ULL": 4359,
  "\u0120three": 4889,
  "\u0120Z": 3438,
  "mi": 1301,
  "\u0120pair": 2241,
  "\u00ea\u00b4": 6088,
  "ACT": 7371,
  "\u0120gist": 7640,
  "urther": 7403,
  "\u0120buffer": 3791,
  "15": 2781,
  "ippr": 6340,
  "\u0120route": 5301,
  "heet": 6029,
  "\u0120writing": 7123,
  "alancer": 5794,
  "\u0120c": 218,
  "fm": 4024,
  "ie": 2322,
  "ke": 322,
  "poch": 3966,
  "ttp": 4178,
  "----------------": 2706,
  "q": 85,
  "DataFrame": 4796,
  "actors": 5228,
  "DU": 5993,
  "pared": 7054,
  "\u0120single": 1628,
  "async": 3947,
  "ada": 4120,
  "\u0120shared": 5273,
  "Download": 5714,
  "game": 4250,
  "deredDict": 4900,
  "ntxt": 4546,
  "\u0120threshold": 2904,
  "gether": 6775,
  "configobj": 7013,
  "xy": 1930,
  "\u0120res": 467,
  "pick": 6902,
  "\u0120add": 758,
  "\u0120Invalid": 2158,
  "Role": 4877,
  "rv": 4295,
  "***": 6261,
  "Popen": 7988,
  "ar": 213,
  "\u0120http": 2212,
  "account": 5845,
  "book": 5229,
  "istered": 2697,
  "velop": 5792,
  "\u0120'['": 3845,
  "head": 3326,
  "ader": 820,
  "\u0120\u0120\u0120\u0120\u0120\u0120\u0120\u0120\u0120\u0120\u0120\u0120\u0120\u0120\u0120\u0120\u0120\u0120\u0120\u0120\u0120\u0120\u0120\u0120\u0120\u0120\u0120\u0120\u0120\u0120\u0120\u0120\u0120\u0120\u0120\u0120\u0120\u0120\u0120\u0120\u0120\u0120\u0120\u0120\u0120": 5569,
  "ume": 1408,
  "'{": 4685,
  "\u0120station": 5511,
  "\u0120HTTP": 3242,
  "\u0120cfg": 3496,
  "correct": 5788,
  "\u0120yo": 5878,
  "\u0120agent": 5957,
  "\u0120region": 2184,
  "\u0120outside": 6853,
  "\u0120pys": 2962,
  "ifi": 721,
  "\u0120trying": 5251,
  "\u00eb\u00a6\u00ac": 5079,
  "string": 346,
  "period": 5664,
  "ode": 329,
  "\u0120{}": 771,
  "primary": 7374,
  "...": 695,
  "\u0120bound": 2512,
  "image": 1457,
  "\u0120percent": 4131,
  "\u0120conflict": 7220,
  "\u013a\u00ec": 3153,
  "\u0120given": 854,
  "lease": 1467,
  "pires": 4897,
  "\u0120isn": 5066,
  "mary": 1782,
  "ATA": 4757,
  "\u0120sa": 2452,
  "gi": 7733,
  "\u0120most": 3377,
  "Z": 62,
  "\u0120_,": 3049,
  "\u0120**********************************": 7692,
  "fun": 7791,
  "SS": 1601,
  "Ar": 1298,
  "python": 2759,
  "\u0120Update": 3636,
  "\u0120DOM": 5927,
  "meta": 1685,
  "\u00ea\u00b2": 7571,
  "\u0120h": 333,
  "cfg": 2569,
  "\u0120separate": 5260,
  "\u0120meaning": 7657,
  "IR": 5315,
  "reference": 2575,
  "St": 778,
  "era": 6598,
  "x": 92,
  "\u0120Make": 4402,
  "lass": 547,
  "\u0120unless": 5488,
  "\u0120console": 6732,
  "\u0120arguments": 1366,
  "style": 1799,
  "\u0120selected": 3523,
  "attribute": 3195,
  "pend": 6801,
  "retry": 6842,
  "\u0120objecttools": 6981,
  "PR": 7556,
  "BER": 7552,
  "curr": 6043,
  ")": 13,
  "\u0120ready": 6574,
  "atter": 4010,
  "ru": 2918,
  "\u0120Unicode": 3784,
  "\u00e4\u00b8": 2427,
  "\u0120recur": 6331,
  "\u0120HT": 2270,
  "linear": 7015,
  "\u0120tra": 1262,
  "ditions": 4459,
  "dump": 4662,
  "\u0120IAM": 4988,
  "\u0120Binary": 5071,
  "\u0120trigger": 5495,
  "\u0120pr": 4447,
  "aves": 4929,
  "module": 1333,
  "ref": 998,
  "\u0120theta": 4393,
  "Image": 5095,
  "\u0120below": 3965,
  "lapsed": 6358,
  "hel": 6973,
  "\u0120lc": 7412,
  "lap": 3046,
  "currency": 7502,
  "lasses": 2272,
  "E": 41,
  "\u0120Client": 3685,
  "\u0120sequences": 3912,
  "\u0120will": 633,
  "\u0120trail": 5631,
  "\u0120where": 1629,
  "oundId": 4620,
  "\u0120entire": 5151,
  "zero": 3917,
  "ctype": 4488,
  "\u0120Table": 6889,
  "ny": 5863,
  "\u0120After": 7808,
  "txt": 2116,
  "ualification": 6446,
  "\u0120coordinates": 2903,
  "visit": 6102,
  "ap": 363,
  "ys": 651,
  "\u0120se": 304,
  "bar": 2145,
  "\u0120TestIO": 4830,
  "kely": 7993,
  "role": 4749,
  "ENV": 7958,
  "sel": 225,
  "\u0120Parse": 5884,
  "AGIC": 4871,
  "are": 1310,
  "\u0120GitHub": 7616,
  "vided": 6262,
  "lineno": 6454,
  "Ut": 5474,
  "rgb": 6152,
  "\u0120S": 373,
  "\u0120voxel": 4887,
  "\u0120cy": 4052,
  "\u0120Exception": 1665,
  "ique": 1739,
  "\u0120\u0120\u0120\u0120\u0120\u0120\u0120\u0120\u0120\u0120\u0120\u0120\u0120\u0120\u0120\u0120\u0120\u0120\u0120\u0120\u0120\u0120\u0120\u0120\u0120\u0120\u0120\u0120\u0120\u0120\u0120\u0120\u0120\u0120\u0120\u0120": 3277,
  "\u0120tick": 6431,
  "\u0120together": 7095,
  "Timeout": 4113,
  "\u00a5\u00eb\u0132\u013a\u00ec": 6455,
  "request": 1061,
  "\u0120que": 7513,
  "heta": 7514,
  "\u0120above": 3421,
  "ategories": 5892,
  "two": 7239,
  "Prc": 4761,
  "\u0120Option": 5426,
  "CUBLAS": 6362,
  "\u0120\u0120\u0120\u0120\u0120\u0120\u0120\u0120\u0120\u0120\u0120\u0120\u0120\u0120\u0120\u0120\u0120\u0120\u0120\u0120\u0120\u0120\u0120\u0120": 718,
  "\u0120required": 1681,
  "als": 5223,
  "ascii": 3854,
  "dimension": 5334,
  "BO": 4961,
  "}/": 4724,
  "\u0120Point": 5739,
  "\u0120modules": 5491,
  "\u0120CH": 7254,
  "icon": 7792,
  "ELLIPSIS": 7908,
  "delete": 2160,
  "\u0120optional": 1091,
  "\u0120returning": 5911,
  "unicode": 2435,
  "seed": 5769,
  "Dep": 6315,
  "izer": 2557,
  "counter": 4074,
  "\u0120address": 1758,
  "mma": 5442,
  "findall": 5846,
  "\u0120spawn": 7654,
  "column": 1214,
  "blocks": 5055,
  "chemy": 6038,
  "\u0120area": 3425,
  "contract": 6743,
  "((\"": 6385,
  "update": 744,
  "\u0126\u00ec\u013f\u00b4\u00eb": 6595,
  "mime": 6025,
  "Te": 3199,
  "125": 7827,
  "deg": 4634,
  "on": 200,
  "language": 3054,
  "Proxy": 5306,
  "tack": 4028,
  "free": 5441,
  "ned": 7396,
  "\u0120pri": 1717,
  "filter": 1299,
  "\u0120rep": 5932,
  "rection": 1845,
  "metric": 4666,
  "ner": 1579,
  "\u0120bottom": 6233,
  "\u0120foo": 7441,
  "xi": 6676,
  "Send": 6389,
  "see": 4296,
  "ND": 7913,
  "dill": 5414,
  "Pri": 4060,
  "Over": 7450,
  "\u0120top": 1922,
  "probab": 7104,
  "?": 35,
  "\u0120\u0120\u0120\u0120\u0120\u0120\u0120\u0120\u0120\u0120\u0120\u0120\u0120\u0120\u0120\u0120\u0120\u0120\u0120\u0120\u0120\u0120\u0120\u0120\u0120\u0120\u0120\u0120\u0120\u0120\u0120\u0120\u0120\u0120\u0120\u0120\u0120\u0120\u0120\u0120\u0120\u0120\u0120": 3267,
  "\u0120json": 1171,
  "crypted": 3918,
  "norm": 4282,
  "\u0120sun": 4655,
  "\u0120matching": 2796,
  "\u0120browser": 7146,
  "(\"": 425,
  "\u0120match": 986,
  "Red": 6671,
  "\u0120astr": 6762,
  "inder": 5393,
  "bits": 2854,
  "uplic": 3114,
  "\u0120EC": 2747,
  "\u0120lda": 6890,
  "('--": 5389,
  "\u0120Vpc": 7055,
  "Number": 3168,
  "\u0120cir": 4818,
  "Interface": 4555,
  "\u0120multip": 2025,
  "theta": 3823,
  "counts": 3139,
  "defined": 4886,
  "rot": 5750,
  "by": 974,
  "plot": 1950,
  "tty": 4586,
  "\u0120six": 2816,
  "\u0120water": 3748,
  "\u0120images": 3189,
  "}'": 4802,
  "dicate": 4928,
  "\u0120Now": 6815,
  "[(": 7177,
  "\u00e6\u012a": 7399,
  "available": 4878,
  "ield": 1160,
  "Record": 3016,
  ")/": 4072,
  "process": 1439,
  "\u0120outer": 5209,
  "rary": 3123,
  "\u0120\u0120\u0120\u0120\u0120\u0120\u0120": 196,
  "\u0120'{": 2496,
  "old": 1147,
  "frac": 5997,
  "get": 306,
  "\u00bd": 126,
  "\u0120consistent": 7168,
  "ction": 328,
  "anager": 4025,
  "\u0120digits": 5694,
  "qbar": 7995,
  "\u0120EBS": 6734,
  "\u0120hyphens": 6584,
  "\u0120histogram": 5198,
  "att": 470,
  "\u0120enable": 3500,
  "actions": 4058,
  "ector": 2251,
  "SetName": 6901,
  "\u0120May": 7940,
  "\u00c3\u00a3o": 3554,
  "\u0120Model": 4187,
  "\u0120border": 5271,
  "istr": 2298,
  "\u0120resolved": 7937,
  "ick": 1642,
  "\u0120many": 3893,
  "\u0120img": 2263,
  "Instance": 2416,
  "opt": 4632,
  "\u0120hasattr": 2315,
  "places": 7481,
  "revision": 7303,
  "ont": 2960,
  "\u0120absolute": 4336,
  "andling": 4496,
  "ituation": 7275,
  "\u0120\",": 4173,
  "\"][\"": 6444,
  "sgi": 4994,
  "hosts": 5954,
  "\u0120datas": 6811,
  "ig": 401,
  "ball": 6181,
  "expand": 4278,
  "\u0120in": 226,
  "\u0120include": 1686,
  "ong": 1264,
  "aml": 1912,
  "\u012011": 5008,
  "\u0120len": 542,
  "riter": 2559,
  "lastic": 3411,
  "csv": 3673,
  "\u0120contents": 3595,
  "aintenance": 6822,
  "\u0120dirname": 7964,
  "FN": 5266,
  "stamp": 1527,
  "lgc": 5341,
  "inter": 1273,
  "Se": 1092,
  "\u0120scheme": 6067,
  "\u0120rank": 4476,
  "let": 1237,
  "Formatter": 6171,
  "terer": 7188,
  "isinstance": 7246,
  "SIG": 7375,
  "\u0120\u00d0": 7868,
  "\u0120genes": 6494,
  "login": 3530,
  "CC": 5992,
  "ivot": 6372,
  "blanks": 7126,
  "executable": 7277,
  "\u0120conv": 6810,
  "station": 6886,
  "\u0120cont": 584,
  "\u0120Cor": 2875,
  "data": 437,
  "\u0120filters": 3656,
  "threads": 4344,
  "14": 3080,
  "Ip": 4229,
  "ll": 917,
  "En": 2196,
  "/{": 3503,
  "\u0120fla": 1797,
  "li": 261,
  "stop": 2472,
  "\u0120determine": 3770,
  "jectory": 6225,
  "ble": 339,
  "\u00e8\u00af\u00be": 6540,
  "SQL": 6754,
  "\u0120backup": 7651,
  "attrs": 2876,
  "\u0120cos": 4489,
  "03": 3896,
  "gn": 1421,
  "multi": 5717,
  "asarray": 6291,
  "3333": 6496,
  "agement": 4566,
  "\u0120issubclass": 7216,
  "partial": 6080,
  "rupt": 7328,
  "Series": 6667,
  "\u0120existing": 2176,
  "served": 3107,
  "(?": 4320,
  "check": 1320,
  "\u00e2\u0122\u013a": 7846,
  "lete": 1035,
  "\u0120(-": 5620,
  "Mode": 6176,
  "\u0120users": 4020,
  "CL": 5215,
  "\u0120exclude": 3624,
  "\u0120asset": 6812,
  "OP": 3725,
  "\u00e5\u0131": 3863,
  "\u0120repository": 3722,
  "turns": 596,
  "ga": 3552,
  "issues": 7546,
  "branch": 2532,
  "SubElement": 7707,
  "orig": 2941,
  "imate": 3927,
  "Out": 2331,
  "ared": 2527,
  "\u0120{'": 1104,
  "\u0120fa": 990,
  "\u0120\u0120\u0120\u0120\u0120\u0120\u0120\u0120\u0120\u0120\u0120\u0120\u0120\u0120\u0120\u0120": 245,
  "il": 297,
  "\u0120dynamic": 6935,
  "ception": 720,
  "otal": 1390,
  "pair": 2860,
  "\u0120no": 860,
  "\u0120origin": 4193,
  "HT": 2689,
  "\u0120resulting": 6197,
  "\u0120else": 410,
  "755": 2172,
  "\u0120Specify": 6280,
  "ag": 660,
  "source": 1501,
  "Return": 1720,
  "\u0120C": 386,
  "mode": 2122,
  "\u0120fh": 5802,
  "layout": 5985,
  "\u0120conf": 3036,
  "strptime": 7409,
  "\u0120chrom": 7473,
  "\u00eb\u00b9\u012e": 4721,
  "expires": 7806,
  "CONN": 7376,
  "\u0120AvailabilityZone": 7386,
  "\u0120phi": 5735,
  "\u0120La": 5842,
  "\u0120Python": 2568,
  "\u0120St": 1269,
  "cos": 2141,
  "ffect": 2919,
  "children": 2929,
  "qui": 750,
  "xt": 1430,
  "OK": 5181,
  "lable": 1031,
  "bose": 1835,
  "\u0120estimate": 6863,
  "\u0120database": 1907,
  "\u0120pointer": 7824,
  "\u0120syn": 4111,
  "\u0120util": 7345,
  "Module": 6462,
  "bib": 5413,
  "\u0120whe": 1137,
  "\u0120noise": 5843,
  "ternal": 1847,
  "\u0120were": 3569,
  "license": 6784,
  "\u0120several": 7548,
  "\u0136": 178,
  "mbed": 3197,
  "vers": 3591,
  "\u0120Response": 4115,
  "signed": 6621,
  "HTTP": 4456,
  "\u0120operator": 3158,
  "blem": 7583,
  "curity": 1811,
  "\u0120term": 3357,
  "\u0120[(": 4462,
  "\u0120e": 237,
  "\u0120pol": 2440,
  "Any": 6103,
  "precip": 6344,
  "\u0120All": 4434,
  "versed": 5837,
  "less": 2975,
  "aking": 7892,
  "pected": 1613,
  "\u0120TypeError": 2043,
  "\u0124\u00ac": 5269,
  "iterator": 6528,
  "\u0120G": 629,
  "tz": 5479,
  "Color": 7215,
  "\u00ec\u013f\u00bc": 7845,
  "Map": 3493,
  "names": 1163,
  "\u00e7\u013c": 4139,
  "sponse": 610,
  "\u0120score": 3573,
  "\u0120name": 424,
  "\u0120paths": 3346,
  "lower": 1640,
  "ward": 1820,
  "\u0120equation": 6501,
  "\u0120End": 5879,
  "def": 272,
  "\u0120TODO": 1879,
  "\u0120E": 478,
  "\u0120arg": 1749,
  "center": 6134,
  "\u0120Values": 5541,
  "\u0120aryFunc": 6352,
  "feature": 3742,
  "__,": 3418,
  "resolve": 6735,
  "\u0120horiz": 7252,
  "\u0120lgcPrint": 7614,
  "\u0120compression": 7479,
  "None": 294,
  "\u0120search": 1404,
  "dirname": 3633,
  "OR": 1169,
  "\u0120registered": 3027,
  "dir": 641,
  "Struct": 7284,
  "static": 6708,
  "ght": 1261,
  "\u0120Geo": 7947,
  "strings": 4017,
  "ownload": 1518,
  "\u0120radi": 3564,
  "\u0120Log": 4046,
  "\u0120contour": 5319,
  "\u0120RE": 4030,
  "ak": 955,
  "\u0120ys": 7471,
  "\u0120subject": 3453,
  "\u0120air": 7042,
  "\u0120minim": 6490,
  "detail": 7680,
  "coordinates": 4888,
  "').": 2210,
  "r": 86,
  "window": 3495,
  "bject": 451,
  "\u0120ast": 4140,
  "\u0120used": 928,
  "Tags": 7789,
  "\u0120FileStore": 7899,
  "mage": 735,
  "\u0120stderr": 3647,
  "per": 474,
  "straints": 2583,
  "\u0120includes": 4680,
  "\u012019": 7639,
  "\u0120avoid": 4964,
  "\u0120SA": 5942,
  "\u0120trunc": 7385,
  "\u0120(_": 6938,
  "coming": 6745,
  "rb": 5558,
  "\u0120We": 1818,
  "ches": 1295,
  "\u0120spa": 2193,
  "\u0120Qualification": 7115,
  "LY": 7449,
  "\u0120produ": 7314,
  "\u0120model": 789,
  "\u0120fs": 5830,
  "\u0120combined": 6628,
  "rename": 7401,
  "va": 1093,
  "CPE": 6426,
  "ork": 597,
  "\u0120ignore": 2967,
  "rise": 6154,
  "\u0120clone": 7503,
  "ries": 1189,
  "\u0120vdn": 5318,
  "27": 5527,
  "ished": 4656,
  "miss": 3475,
  "\u0120Path": 3820,
  "nection": 1176,
  "\u0120ary": 1393,
  "/#": 6543,
  "Hello": 6632,
  "\u0120supported": 2411,
  "\u0120cell": 3236,
  "AND": 4441,
  "PIPE": 5134,
  "\u0120-----": 6738,
  "\u0120depending": 7209,
  "\u0120\\`": 7826,
  "\u0120isinstance": 725,
  "\u0120land": 5565,
  "onent": 1180,
  "ck": 305,
  "Count": 3096,
  "Bad": 6716,
  "O": 51,
  "validation": 7592,
  "Print": 4799,
  "\u0120letter": 5282,
  "\u0120dest": 1730,
  "cr": 4485,
  "edit": 6069,
  "Dec": 6147,
  "MO": 3338,
  "\u0120gene": 3312,
  "\u0120bet": 1620,
  "\u0120List": 1831,
  "SK": 7787,
  "\u0120occurrences": 6058,
  "aussian": 3835,
  "\u00ec\u0137\u013a\u00ec\u012c\u00b5\u00eb\u012d\u012a\u00eb\u012d\u00a4": 6418,
  "speed": 6309,
  "PUT": 5555,
  "\u0120actual": 2085,
  "reak": 1458,
  "PO": 2295,
  "\u0120missing": 2691,
  "losed": 3897,
  "\u0120).": 5120,
  "\u0120eq": 6033,
  "reason": 7631,
  "\u0120image": 1089,
  "cublas": 5115,
  "II": 5060,
  "oly": 7098,
  "49": 7856,
  "\u0120params": 1223,
  "\u0120unicode": 3034,
  ")-": 4875,
  "es": 293,
  "abled": 1856,
  "\u0120defined": 2211,
  "\u0120take": 3464,
  "\u0120timedelta": 7258,
  "\u0120vecBst": 7843,
  "\u0120end": 910,
  "tology": 5839,
  "\u0120up": 1073,
  "\u0120oc": 2216,
  "\u0120another": 3487,
  "\u0120bases": 6656,
  "\u00e6\u0138\u0129\u00e4\u00bb\u00b6": 6918,
  "\u0120squ": 4635,
  "\u0120Return": 1530,
  "loc": 1573,
  "wsgi": 5142,
  "\u0120Custom": 6260,
  "\u0120once": 4300,
  "\u0120steps": 5465,
  "\u0120from": 456,
  "ium": 7338,
  "\u0120resources": 5193,
  "iew": 4559,
  "commit": 3118,
  "\u0120solver": 3695,
  "repeat": 7975,
  "sw": 3437,
  "assis": 6009,
  "\u0120urls": 4824,
  "ibration": 4347,
  "\u0120etc": 4384,
  "SE": 1275,
  "gments": 4232,
  "\u0120least": 3128,
  "Block": 4525,
  "ual": 901,
  "boot": 4866,
  "container": 2865,
  "\u0120parameterstep": 4603,
  "\u0120lat": 3066,
  "\u0120Load": 3596,
  "\u0120should": 1077,
  "\u0120\u0120\u0120\u0120\u0120\u0120\u0120\u0120\u0120\u0120\u0120\u0120\u0120\u0120\u0120\u0120\u0120\u0120\u0120\u0120\u0120\u0120\u0120\u0120\u0120\u0120\u0120\u0120\u0120\u0120\u0120\u0120\u0120\u0120\u0120\u0120\u0120\u0120\u0120\u0120\u0120": 4819,
  "\u0120versions": 5370,
  "\u0120precip": 6373,
  "ack": 477,
  "limit": 2510,
  "\u0120automat": 2972,
  "resh": 1364,
  "::": 1277,
  "atell": 7875,
  "ategy": 7069,
  "\u0120detected": 7415,
  "getLo": 3371,
  "\u0120elems": 5762,
  "literal": 7171,
  "masks": 7599,
  "gger": 2636,
  "\u0120doi": 7257,
  "\u0120ARN": 6500,
  "\u00ed\u013a\u0137": 7495,
  "df": 1455,
  "active": 2415,
  "\u0120int": 642,
  "\u0120usage": 5038,
  "\u0120out": 552,
  "cri": 1809,
  "\u0120coord": 7930,
  "Attributes": 5002,
  "\u0120escape": 4499,
  "\u0120cast": 5331,
  "\u0120i": 211,
  "\u0120H": 797,
  "event": 1537,
  "\u0120rel": 1870,
  "ia": 3251,
  "\u0120Network": 2181,
  "reset": 4918,
  "dicts": 6568,
  "\u0120tags": 2136,
  "\u0120MAGICC": 6897,
  "kip": 5797,
  "\u0120refresh": 4406,
  "running": 5702,
  "stribution": 2718,
  "\u0120ter": 1946,
  "lt": 1999,
  "\u0120Input": 3501,
  "press": 4217,
  "\u0120instance": 689,
  "\u0120Text": 6397,
  "\u0120identifier": 2082,
  "\u0120join": 3555,
  "\u0120diff": 3625,
  "\u0120\u00ec\u0140": 5175,
  "\u0120pix": 5562,
  "soup": 5576,
  "utor": 5872,
  "\u0120:": 271,
  "bad": 5412,
  "\u01205": 1283,
  "result": 1057,
  "\u00f0": 153,
  "\u0120modifi": 4332,
  "\u0120construct": 4014,
  "\u01201000": 5364,
  "c": 71,
  "ART": 5579,
  "methods": 5847,
  "DT": 6923,
  "act": 621,
  "'])": 1194,
  "lus": 3294,
  "\u0120binary": 3759,
  "Retention": 7008,
  "attr": 691,
  "Sub": 2520,
  "true": 2676,
  "idx": 1315,
  "align": 3629,
  "\u0120go": 2723,
  "\u0120forward": 5005,
  "\u0120modified": 5016,
  "\u0120mx": 5873,
  "\u0120An": 1612,
  "word": 707,
  "Config": 2001,
  "\u0120idf": 4515,
  "\u0120fmt": 4051,
  "Entry": 6717,
  "itter": 7461,
  "\u0120rms": 6339,
  "\u0120fallback": 6091,
  "dex": 463,
  "\u0120warn": 7093,
  "\u0120MO": 7474,
  "\u0120connections": 7212,
  "\u0120update": 1210,
  "\u0120bind": 4905,
  "\u0120batch": 2790,
  "UM": 3705,
  "parsed": 5752,
  "ollowing": 7288,
  "expr": 4158,
  "elem": 6360,
  "\u0120DataBaseError": 4225,
  "cul": 1197,
  "xs": 5501,
  "title": 1783,
  "\u0120Traceback": 5404,
  "concatenate": 6893,
  "Name": 791,
  "ly": 403,
  "\u0120su": 952,
  "plit": 5683,
  "lica": 6644,
  "\u0120Default": 1411,
  "\u0120leaf": 7423,
  "\u0120IOC": 7538,
  "()]": 3730,
  "\u0120fix": 2457,
  "trim": 4771,
  "Configuration": 3816,
  "lare": 5776,
  "surname": 7676,
  "Gtk": 7084,
  "ECKS": 7841,
  "tocol": 1985,
  "+)": 3458,
  "apacity": 4005,
  "UTH": 7119,
  "hes": 3461,
  "wiki": 6866,
  "\u0120fname": 3413,
  "Fa": 3598,
  "water": 6725,
  "'s": 929,
  "\u0120Motif": 6402,
  "neg": 6696,
  "\u0120sec": 6774,
  "ok": 847,
  "SA": 6113,
  "07": 6715,
  "MA": 2268,
  "\u0120Pre": 3378,
  "\u0120aid": 7140,
  "sx": 4471,
  "\u0120head": 4808,
  "\u0120Storage": 7157,
  "smooth": 5639,
  "Ori": 7295,
  "six": 7454,
  "\u0120matched": 4516,
  "\u0120creates": 4895,
  "sym": 6079,
  "ce": 231,
  "prec": 5300,
  "\u0120AMI": 6219,
  "iven": 776,
  "BS": 3375,
  "mits": 6427,
  "\u00b8": 121,
  "unic": 4432,
  "\u0120updates": 5630,
  "functions": 6138,
  "exc": 2385,
  "ert": 3112,
  "ories": 2417,
  "events": 3803,
  "contents": 3790,
  "Set": 979,
  "\u0120runs": 4378,
  "Delete": 6616,
  "TP": 1941,
  "\u0120false": 3547,
  "semb": 6972,
  "utation": 7802,
  "ffic": 6378,
  "Ass": 4226,
  "\u0120mode": 1602,
  "\u0120break": 1605,
  "ination": 1914,
  "\u0120message": 1030,
  "STAT": 6447,
  "\u012015": 4435,
  "licit": 2981,
  "\u0120traceback": 6105,
  "\u0120cluster": 1621,
  "requen": 4501,
  "\u0120keywords": 5486,
  "76": 6061,
  "\u0120whitespace": 5552,
  "\u0120always": 3687,
  "\u00a5": 103,
  "transition": 6202,
  "\u0120norm": 4883,
  "asic": 2685,
  "class": 739,
  "\u0120Access": 6852,
  "vai": 1252,
  "\u0120country": 5606,
  "\u0120immediately": 6577,
  "lope": 5751,
  "proxy": 4285,
  "\u0120interface": 2225,
  "\"%": 4591,
  "\u0120coords": 7097,
  "ived": 1475,
  "\u0120attr": 1804,
  "quant": 7149,
  "\u0120vec": 2544,
  "\u0120Array": 4495,
  "forward": 5048,
  "\u0120effect": 5295,
  "basic": 6086,
  "Default": 4220,
  "lists": 3989,
  "NaoExisteError": 4833,
  "mm": 501,
  "\u01203": 844,
  "edges": 3150,
  "\u0120LO": 4716,
  "\u0120ao": 7089,
  "ilent": 4696,
  "dp": 3391,
  "repos": 6885,
  "\u0120bot": 3172,
  "\u0120might": 4026,
  "\u0120request": 704,
  "fmt": 4526,
  "\u0120HIT": 5350,
  "\u0120bra": 7517,
  "non": 3105,
  ")\"": 5711,
  "TA": 5742,
  "Sy": 7861,
  "cum": 4340,
  "ancet": 7584,
  "readline": 5728,
  "\u0120iter": 1317,
  "over": 2789,
  "cry": 1987,
  "\u0120kma": 7366,
  "INTER": 7369,
  "\u0120Iter": 4890,
  "nap": 1556,
  "iod": 2300,
  "19": 3281,
  "\u0120private": 4069,
  "wer": 1862,
  "choice": 5988,
  "\u0120spect": 7352,
  "\u0120distance": 2059,
  "ero": 2099,
  "crypt": 2688,
  "\u0120Sets": 5848,
  "\u0120non": 2148,
  "\u0120Get": 1643,
  "\u0120collection": 2391,
  "\u00e7\u013c\u0126": 4149,
  "\u0120credentials": 5722,
  "rules": 7540,
  "zones": 7844,
  "Public": 6465,
  "\u0120Content": 3900,
  "\u0120False": 716,
  "Mon": 6547,
  "hydpy": 7781,
  "\u0120DE": 4356,
  "pace": 4176,
  "21": 7619,
  "\u0120direct": 1075,
  "ffi": 2101,
  "uter": 6121,
  "\u0134": 176,
  "ists": 1706,
  "ines": 877,
  "specifi": 4008,
  "bjct": 3593,
  "\u0120IOError": 4508,
  "\u0120last": 1357,
  "\u0120save": 1926,
  "000": 1634,
  "extension": 6195,
  "TY": 2574,
  "flush": 6661,
  "red": 482,
  "Stream": 5072,
  "\u0120report": 3013,
  "pu": 3350,
  "\u0120compat": 4893,
  "apping": 2247,
  "\u0120red": 5044,
  "Keys": 7014,
  ".\",": 6146,
  "\u0120urllib": 5916,
  "ias": 3449,
  "Context": 5628,
  "tw": 6471,
  "\u0120additional": 3509,
  "\u0120First": 4437,
  "\u0120interval": 3674,
  "And": 7620,
  "large": 1703,
  "\u0120reply": 5538,
  "\u0120**": 676,
  "legend": 7902,
  "\u0120decorated": 7445,
  "\u0120responses": 6299,
  "name": 309,
  "}_": 7677,
  "\u0120123": 2441,
  "\u0120Graph": 7012,
  "\u0120\\\\": 2985,
  "Prm": 5584,
  "\u00ef\u00bc\u013c": 7901,
  "<|unk|>": 1,
  "conn": 3300,
  "\u0120dat": 3645,
  "G": 43,
  "Returns": 2826,
  "Url": 5217,
  "\u0120organ": 5423,
  "\u0120we": 656,
  "\u0120high": 2727,
  "execute": 3272,
  "\u0120iterator": 4093,
  "\u0120graph": 2163,
  "Pos": 5858,
  "ser": 349,
  "aut": 4854,
  "referred": 5230,
  "SP": 5585,
  "known": 2878,
  "tle": 5559,
  "SM": 6022,
  "ride": 2477,
  "\u0120Te": 4307,
  "matches": 4490,
  "vars": 2486,
  "\u0120site": 3664,
  "isters": 7191,
  "hy": 4305,
  "alcul": 2468,
  "loan": 7046,
  ">>": 358,
  "\u0120menu": 7803,
  "cats": 4593,
  "frames": 4872,
  "ynamo": 2944,
  "\u0120ctxt": 5293,
  "Tr": 5061,
  "current": 1881,
  "\u0120Example": 3006,
  "\u0120Uses": 6982,
  "alse": 472,
  "\u0120mon": 1661,
  "\u0120hit": 3602,
  "cesso": 6736,
  "String": 2581,
  "Network": 6284,
  "tain": 657,
  "ttl": 7480,
  "))]": 7807,
  "cc": 3040,
  "SD": 6178,
  "daily": 4641,
  "ba": 4484,
  "\u0120volumes": 5469,
  "\u0120As": 3867,
  "bot": 4801,
  "}\")": 7867,
  "\u0120sy": 1218,
  "gor": 2916,
  "histogram": 6827,
  "\u00b9": 122,
  "repe": 5533,
  "parameter": 2741,
  "second": 4817,
  "calar": 6695,
  "]}": 7001,
  "Form": 5408,
  "\u0120lambda": 2563,
  "W": 59,
  "\u0120analy": 4184,
  "\u00c4": 131,
  "ptor": 6888,
  "ting": 848,
  "ctionary": 1110,
  "err": 1059,
  "\u0120process": 1627,
  "sun": 6968,
  "parent": 1432,
  "ross": 2656,
  "fits": 5316,
  "J": 46,
  "liter": 6100,
  "\u0120facets": 7542,
  "ined": 1513,
  "\u0120Object": 3584,
  "ass": 1487,
  "\"\"\"": 255,
  "eros": 7040,
  "\u0120based": 2106,
  "thing": 2456,
  "flag": 3133,
  "\u0120AttributeValue": 4410,
  "\u0120CPEComponent": 4874,
  "table": 1094,
  "freq": 4136,
  "Params": 4263,
  "\u0120Ser": 2359,
  "\u0120fd": 7184,
  "ased": 6263,
  "\u00e7\u00a8\u012d": 7797,
  "\u0120combination": 6789,
  "\u0120spaces": 6311,
  "items": 1047,
  "\u0120gamma": 7358,
  "unt": 588,
  "\u0120pkg": 6867,
  "\u0120indicating": 5736,
  "chan": 6939,
  "\u0120init": 3144,
  "40": 7174,
  "rc": 1238,
  "{": 95,
  "\u0120this": 526,
  ".',": 7029,
  "\u0120basestring": 4330,
  "\u0120Image": 4449,
  "\u0120tool": 4942,
  "endian": 7348,
  "\u0120empty": 1934,
  "voice": 7535,
  "\u0120blank": 3795,
  "\u0120simp": 5064,
  "\u0120recent": 4233
}